<pad>	0
<unk>	0
<s>	0
</s>	0
<2en>	0
<2hi>	0
<2fr>	0
<2es>	0
<2de>	0
<2ru>	0
<2ja>	0
.	-3.05621
,	-3.43386
s	-3.77083
▁	-4.16878
▁the	-4.25679
'	-4.30483
?	-4.73257
▁a	-4.80063
▁to	-4.81578
▁of	-4.87915
▁I	-4.94671
▁-	-4.98784
▁de	-5.00697
▁and	-5.09362
▁you	-5.12416
▁in	-5.16679
t	-5.21354
-	-5.40587
)	-5.52732
▁is	-5.56365
e	-5.56784
!	-5.60715
▁(	-5.65765
:	-5.6786
▁la	-5.7179
▁that	-5.78044
...	-5.82115
▁for	-5.8328
▁it	-5.84663
▁be	-5.97851
▁on	-6.02419
m	-6.07033
n	-6.07867
▁que	-6.10425
re	-6.1311
en	-6.14755
ing	-6.1517
d	-6.16641
▁The	-6.16831
▁me	-6.19042
▁not	-6.23424
▁en	-6.24678
▁was	-6.29049
▁with	-6.30647
er	-6.32429
/	-6.33123
▁have	-6.35154
▁are	-6.35999
▁You	-6.3658
▁this	-6.37086
ed	-6.39035
▁"	-6.4384
▁है	-6.44347
a	-6.44778
r	-6.49083
es	-6.50744
▁l	-6.54739
▁your	-6.55133
▁le	-6.56849
▁un	-6.57175
▁we	-6.58336
▁will	-6.61368
▁no	-6.63582
▁We	-6.63857
の	-6.64123
▁des	-6.65661
▁et	-6.66607
▁в	-6.67602
▁he	-6.69097
▁do	-6.72569
▁they	-6.74086
▁d	-6.7431
▁It	-6.75239
▁à	-6.76542
▁from	-6.76577
▁He	-6.77936
▁can	-6.78347
o	-6.79845
▁And	-6.80007
y	-6.80338
▁an	-6.80965
▁my	-6.81595
▁el	-6.82588
▁die	-6.83269
▁les	-6.84383
▁du	-6.84391
▁A	-6.85728
▁der	-6.86199
▁all	-6.86279
を	-6.86669
▁y	-6.86786
▁No	-6.87042
▁at	-6.88989
▁и	-6.89178
;	-6.89658
▁by	-6.9122
▁के	-6.92382
▁know	-6.92685
ll	-6.93228
▁as	-6.93697
а	-6.94473
▁es	-6.95278
е	-6.95881
▁und	-6.95954
▁what	-6.96422
は	-6.97769
▁और	-6.9935
▁¿	-7.0107
▁не	-7.02295
▁them	-7.02629
▁so	-7.04397
。	-7.07583
▁or	-7.09483
▁who	-7.09838
▁him	-7.10635
ly	-7.11755
"	-7.11805
▁out	-7.11889
に	-7.11909
▁C	-7.12063
▁has	-7.1696
▁में	-7.18613
が	-7.18784
▁like	-7.19411
▁1	-7.19543
▁one	-7.2005
est	-7.20162
▁se	-7.20461
ve	-7.20735
▁but	-7.21458
▁just	-7.21828
▁don	-7.21833
▁about	-7.22192
▁с	-7.224
▁up	-7.23402
’	-7.24255
▁на	-7.24735
▁there	-7.26008
in	-7.27053
▁here	-7.30894
▁his	-7.32161
▁con	-7.32331
▁pas	-7.33825
▁In	-7.3422
▁her	-7.3554
▁что	-7.35894
▁los	-7.36244
▁get	-7.36615
al	-7.37175
c	-7.3722
te	-7.3809
▁से	-7.38996
и	-7.39198
▁What	-7.39984
▁their	-7.4
▁were	-7.40139
▁This	-7.41521
▁been	-7.41612
▁ist	-7.43265
▁नहीं	-7.43555
h	-7.43573
▁if	-7.43662
▁को	-7.44602
▁pour	-7.4474
▁2	-7.44964
▁time	-7.4609
▁So	-7.46951
▁right	-7.47177
▁की	-7.49795
▁La	-7.51198
।	-7.51385
▁est	-7.52008
▁go	-7.52084
▁по	-7.52488
▁Sie	-7.53116
é	-7.53493
▁us	-7.54542
S	-7.54604
i	-7.54958
、	-7.55047
▁That	-7.55306
▁But	-7.56276
▁?	-7.56457
▁had	-7.57092
▁want	-7.5827
▁zu	-7.59031
il	-7.59984
A	-7.60004
▁would	-7.60207
▁when	-7.60338
de	-7.61007
▁now	-7.61009
C	-7.61067
▁S	-7.61185
l	-7.62592
▁Je	-7.62599
g	-7.62884
le	-7.63365
ar	-7.63487
▁lo	-7.64795
▁which	-7.65276
▁nicht	-7.65319
b	-7.66067
▁our	-7.67085
▁von	-7.67264
▁3	-7.67409
z	-7.67636
▁del	-7.6797
▁para	-7.6928
▁got	-7.69529
on	-7.6976
▁re	-7.69811
й	-7.69906
▁dans	-7.70099
▁हैं	-7.70104
▁think	-7.70134
▁das	-7.70481
▁They	-7.70575
だ	-7.71771
▁Le	-7.71968
м	-7.7197
▁una	-7.72426
▁see	-7.72453
▁people	-7.73241
▁she	-7.73796
▁Я	-7.73923
▁une	-7.73979
▁more	-7.74029
у	-7.74271
▁man	-7.74329
ы	-7.74617
と	-7.75832
▁я	-7.75911
▁[	-7.76432
▁10	-7.76775
▁ne	-7.77659
▁back	-7.77938
▁B	-7.78146
▁said	-7.78245
▁L	-7.7883
▁au	-7.78997
▁por	-7.79084
k	-7.79752
▁those	-7.79881
▁Oh	-7.79885
th	-7.8027
▁should	-7.80899
]	-7.80922
▁am	-7.81492
▁कि	-7.82067
▁den	-7.82423
▁ich	-7.8293
▁Ich	-7.83096
://	-7.83256
ment	-7.83367
▁sur	-7.84354
▁good	-7.8455
▁o	-7.84793
▁did	-7.84903
▁एक	-7.85278
▁some	-7.85545
st	-7.85819
▁लिए	-7.86172
▁तो	-7.86605
で	-7.87032
か	-7.87056
ी	-7.87298
▁mit	-7.87396
▁su	-7.87611
▁tu	-7.87947
▁need	-7.88127
х	-7.88149
un	-7.88362
▁shall	-7.88391
▁http	-7.88416
я	-7.88744
▁Allah	-7.88907
▁par	-7.8949
I	-7.8988
▁का	-7.90156
B	-7.90166
f	-7.90393
▁за	-7.90585
2	-7.90778
▁come	-7.9124
▁4	-7.91264
о	-7.91884
ation	-7.92437
▁only	-7.92511
an	-7.92643
▁ein	-7.9277
▁say	-7.931
as	-7.93192
▁She	-7.93234
▁over	-7.93422
▁qui	-7.93464
p	-7.93672
▁n	-7.94449
▁take	-7.94489
▁E	-7.94759
▁Well	-7.94812
▁auf	-7.95151
▁für	-7.95991
▁c	-7.96293
ा	-7.96566
▁other	-7.969
▁God	-7.96994
▁मैं	-7.97217
▁Do	-7.97363
▁ce	-7.97372
▁las	-7.97626
_	-7.9769
▁If	-7.98116
▁7	-7.98145
▁could	-7.98191
▁5	-7.98723
to	-7.98935
▁qu	-7.99079
▁make	-7.99792
▁je	-7.99937
な	-8.0029
▁down	-8.00409
▁going	-8.01053
▁vous	-8.01217
▁way	-8.01241
▁into	-8.01869
▁पर	-8.024
▁how	-8.02415
▁then	-8.03047
▁There	-8.03302
▁any	-8.03416
▁gonna	-8.03734
ce	-8.03921
▁also	-8.04259
▁son	-8.04269
▁हो	-8.04572
or	-8.0533
com	-8.0559
▁तुम	-8.05634
े	-8.05956
▁Es	-8.06724
ों	-8.0686
u	-8.0691
▁al	-8.07069
▁Die	-8.07591
▁कर	-8.07604
よ	-8.07622
▁у	-8.0776
▁D	-8.07859
▁¡	-8.08085
▁T	-8.08327
▁это	-8.0868
▁than	-8.08921
▁te	-8.09184
do	-8.09363
(	-8.09743
la	-8.10834
▁All	-8.11252
D	-8.11744
ов	-8.11857
▁19	-8.11974
ter	-8.12286
▁%	-8.12728
▁work	-8.12789
."	-8.12857
ai	-8.1332
w	-8.13768
▁En	-8.14346
▁plus	-8.14394
▁Lord	-8.14396
▁J	-8.14397
▁...	-8.1455
▁:	-8.14934
it	-8.14963
▁new	-8.15314
▁P	-8.15342
▁si	-8.16642
▁im	-8.16717
ge	-8.17051
us	-8.17256
ung	-8.17518
T	-8.1754
い	-8.18111
se	-8.18414
▁two	-8.18593
▁Il	-8.1865
▁M	-8.1976
3	-8.19885
▁ver	-8.20743
▁12	-8.21103
▁er	-8.21198
▁may	-8.21209
O	-8.21225
▁В	-8.2129
▁before	-8.2137
▁ты	-8.21726
न	-8.21921
nt	-8.21986
▁made	-8.22239
▁these	-8.22266
▁El	-8.2241
▁O	-8.22459
▁20	-8.22603
▁day	-8.22626
▁where	-8.23169
ten	-8.23211
▁वह	-8.23327
▁आप	-8.23349
▁How	-8.23438
ur	-8.2354
ó	-8.24041
▁very	-8.24138
me	-8.24147
▁On	-8.24376
▁Yeah	-8.24395
▁Mr	-8.24476
ra	-8.24771
も	-8.24942
▁вы	-8.2499
ch	-8.25135
▁sie	-8.25632
is	-8.25717
▁p	-8.25816
1	-8.25827
▁!	-8.26417
▁«	-8.26476
os	-8.26695
▁eine	-8.26956
▁tell	-8.27526
ю	-8.27657
▁15	-8.27765
▁My	-8.2786
be	-8.28226
x	-8.28295
▁something	-8.28308
ent	-8.28313
क	-8.28429
▁never	-8.28441
д	-8.28529
▁K	-8.28763
▁о	-8.2895
т	-8.28996
ом	-8.29271
F	-8.29521
▁must	-8.29537
ant	-8.29658
▁first	-8.29735
▁यह	-8.30006
ion	-8.30085
lo	-8.30349
▁Tu	-8.30395
▁जो	-8.30498
▁11	-8.30732
▁от	-8.308
▁its	-8.31231
ल	-8.31551
www	-8.31601
▁Re	-8.31824
▁too	-8.32142
▁“	-8.32263
▁18	-8.32513
co	-8.32637
▁m	-8.32734
ir	-8.3284
▁6	-8.33856
▁क्या	-8.34139
▁bien	-8.3435
л	-8.3522
▁didn	-8.35461
▁off	-8.35909
▁really	-8.35992
ne	-8.36057
▁Les	-8.36073
▁find	-8.3611
E	-8.36413
с	-8.37193
र	-8.37434
el	-8.37499
▁life	-8.37591
▁करें	-8.38015
▁न	-8.38089
able	-8.3848
▁F	-8.38626
▁little	-8.38919
▁G	-8.39263
▁8	-8.40135
▁To	-8.4019
から	-8.40264
▁place	-8.40366
▁Das	-8.41383
▁wir	-8.41581
L	-8.41817
▁For	-8.41989
▁years	-8.42214
▁well	-8.42385
▁after	-8.42387
na	-8.4257
ro	-8.43286
म	-8.43304
▁let	-8.43413
▁Me	-8.43565
▁भी	-8.4362
P	-8.43672
ers	-8.43892
▁к	-8.43897
▁avec	-8.44136
▁sont	-8.44164
▁/	-8.44207
▁war	-8.44218
▁как	-8.44263
▁Si	-8.4446
ли	-8.44706
v	-8.44766
▁हम	-8.45072
M	-8.45357
▁even	-8.45422
го	-8.45645
▁give	-8.45663
▁ही	-8.45837
ado	-8.45973
▁help	-8.46824
▁sind	-8.47169
H	-8.47272
▁De	-8.47434
ой	-8.47492
▁–	-8.47549
▁»	-8.47644
▁mi	-8.47647
▁И	-8.47697
но	-8.47763
▁Er	-8.47816
▁14	-8.4794
▁look	-8.48038
▁much	-8.48375
ie	-8.48456
ü	-8.49012
▁because	-8.49028
▁13	-8.4937
▁sich	-8.49482
ta	-8.49671
▁из	-8.49721
▁Y	-8.49994
▁dem	-8.50262
4	-8.50494
▁Don	-8.51384
▁found	-8.51679
ла	-8.51889
▁believe	-8.52096
▁С	-8.52104
▁2016	-8.52328
▁Hey	-8.52633
at	-8.52731
▁sa	-8.53143
る	-8.53376
त	-8.53408
▁thing	-8.5358
ez	-8.53753
man	-8.53809
▁Du	-8.53893
▁ha	-8.54006
▁Be	-8.54162
▁name	-8.54571
▁16	-8.54602
▁для	-8.55115
▁away	-8.55762
た	-8.56012
то	-8.56055
▁17	-8.56294
▁ou	-8.56365
▁aus	-8.56405
5	-8.56773
▁love	-8.56969
▁il	-8.57204
▁Why	-8.57529
▁N	-8.57681
▁world	-8.57801
▁W	-8.58035
▁при	-8.58044
ma	-8.58177
▁R	-8.58287
わ	-8.58291
▁más	-8.58464
▁call	-8.58622
no	-8.58683
▁Un	-8.58728
▁А	-8.58885
▁किया	-8.58894
▁30	-8.5898
▁ge	-8.5902
▁werden	-8.59395
%	-8.59549
ci	-8.59642
ка	-8.59648
▁mean	-8.60019
ca	-8.6051
▁Let	-8.60546
▁&	-8.60553
▁hat	-8.60565
▁um	-8.60653
ने	-8.60814
▁still	-8.61252
▁most	-8.61469
▁long	-8.62002
н	-8.6204
▁9	-8.62165
した	-8.62246
da	-8.62284
▁use	-8.62606
▁home	-8.62645
ता	-8.6275
▁As	-8.63292
स	-8.63447
▁under	-8.63634
▁aux	-8.63696
▁last	-8.63753
▁Это	-8.64001
K	-8.64161
▁information	-8.64368
N	-8.64385
ic	-8.64456
▁such	-8.6448
ना	-8.64898
▁como	-8.64912
▁dass	-8.64939
▁nous	-8.65332
G	-8.65387
▁Se	-8.65431
▁why	-8.65666
▁through	-8.6589
▁'	-8.65929
し	-8.66111
▁Then	-8.66344
Y	-8.66361
▁per	-8.6647
▁An	-8.66559
R	-8.66634
ia	-8.66708
▁When	-8.66874
▁Lo	-8.66895
▁part	-8.66999
▁does	-8.67053
í	-8.67102
▁Now	-8.67115
▁वे	-8.67138
って	-8.67138
в	-8.67329
ね	-8.67434
▁used	-8.6776
W	-8.67789
▁between	-8.67853
ет	-8.67895
▁अपने	-8.68001
ж	-8.68352
▁put	-8.68364
ем	-8.68377
▁Ты	-8.68665
▁Commission	-8.68754
ul	-8.69102
▁меня	-8.69278
ть	-8.69354
▁21	-8.69546
▁again	-8.69593
▁being	-8.69769
▁его	-8.69886
▁está	-8.69932
▁His	-8.70065
8	-8.70114
ity	-8.70324
▁car	-8.70344
▁many	-8.70671
6	-8.70862
▁wird	-8.71182
▁कुछ	-8.71461
▁ने	-8.72519
▁H	-8.72848
if	-8.73011
ो	-8.73307
▁Just	-8.73391
▁things	-8.73439
ь	-8.73625
▁May	-8.73804
▁Who	-8.73885
▁night	-8.74477
▁b	-8.74731
▁va	-8.7475
▁Your	-8.74821
▁♪	-8.75012
V	-8.75138
▁better	-8.75167
▁été	-8.75468
▁इस	-8.75629
ся	-8.75834
go	-8.75869
する	-8.76149
▁über	-8.76169
ह	-8.76715
▁anything	-8.76771
▁Not	-8.76885
▁great	-8.76911
der	-8.77253
ton	-8.77292
ル	-8.77341
▁ça	-8.77445
mo	-8.77475
ä	-8.77574
▁У	-8.77592
▁fait	-8.77718
ación	-8.7775
7	-8.77775
▁haben	-8.77922
です	-8.78096
▁Ver	-8.78259
ance	-8.78259
▁था	-8.78405
--	-8.79052
ver	-8.79184
tu	-8.79271
ine	-8.79287
на	-8.79321
ig	-8.7936
age	-8.79551
▁every	-8.79641
んだ	-8.79792
▁—	-8.79815
▁doing	-8.79855
▁own	-8.80106
р	-8.80294
ки	-8.80565
▁pro	-8.80623
▁Yes	-8.80729
▁thought	-8.80798
ad	-8.80894
".	-8.8098
et	-8.81105
▁same	-8.81219
▁être	-8.81613
am	-8.81798
▁आ	-8.82464
▁он	-8.82481
▁мы	-8.82594
ट	-8.8329
ей	-8.83292
▁22	-8.83444
▁Okay	-8.83455
▁mir	-8.83543
▁мне	-8.83645
▁PM	-8.83697
▁मुझे	-8.83714
▁number	-8.83781
▁sure	-8.83893
・	-8.83934
▁point	-8.846
▁25	-8.84606
▁best	-8.847
▁auch	-8.84742
▁про	-8.84825
▁Canada	-8.84852
▁Can	-8.85042
▁Look	-8.8507
▁talk	-8.85124
▁Al	-8.85136
▁Go	-8.85211
▁Wir	-8.85413
▁year	-8.85484
une	-8.85511
▁रहा	-8.85668
▁co	-8.85671
▁against	-8.8576
▁так	-8.85894
▁कोई	-8.86111
▁_	-8.86356
up	-8.86456
00	-8.86464
▁keep	-8.86471
▁все	-8.86479
▁23	-8.86495
pe	-8.8651
ac	-8.8652
á	-8.86612
▁als	-8.86676
▁Come	-8.86899
id	-8.8705
▁end	-8.87141
▁dé	-8.87144
di	-8.8741
▁came	-8.87428
▁бы	-8.87523
▁रहे	-8.87622
▁до	-8.8768
▁nach	-8.87858
gen	-8.87893
ित	-8.88064
ga	-8.88079
ра	-8.88152
▁told	-8.88219
▁oder	-8.88251
the	-8.88342
▁लोग	-8.88461
mos	-8.88634
ru	-8.88683
que	-8.89183
ry	-8.89487
▁j	-8.89654
den	-8.89707
▁sent	-8.89753
प	-8.89906
▁around	-8.89984
り	-8.90023
к	-8.90272
▁Vous	-8.9031
9	-8.90361
”	-8.90387
▁Our	-8.90538
U	-8.90655
ить	-8.90655
▁always	-8.90875
▁kind	-8.91078
▁ever	-8.91174
▁24	-8.91196
▁Are	-8.91683
ty	-8.91831
li	-8.91835
ら	-8.91844
▁men	-8.92017
ner	-8.92055
tion	-8.92325
▁real	-8.92635
▁ont	-8.93048
▁old	-8.93106
mente	-8.93145
▁Et	-8.93168
▁three	-8.93486
ja	-8.93572
ada	-8.93662
▁entre	-8.93761
▁left	-8.93768
ö	-8.94227
▁einen	-8.94262
▁nothing	-8.9442
▁won	-8.94423
les	-8.94437
▁set	-8.94575
▁European	-8.94646
ч	-8.94674
▁another	-8.94699
▁Не	-8.94717
ée	-8.94817
▁done	-8.95082
▁dis	-8.95226
▁Der	-8.95232
▁please	-8.95755
ck	-8.95786
▁Where	-8.95932
▁okay	-8.96101
く	-8.96376
▁feel	-8.96388
▁करने	-8.96483
▁km	-8.9661
ая	-8.96619
ие	-8.96626
ting	-8.97029
ия	-8.97109
▁wie	-8.97145
▁qué	-8.97272
ло	-8.97449
em	-8.97475
▁important	-8.97479
0	-8.97506
▁गया	-8.97539
ist	-8.97612
ни	-8.97648
て	-8.9777
▁hier	-8.9801
да	-8.98166
▁но	-8.98213
▁might	-8.98335
▁support	-8.98336
ate	-8.98438
▁e	-8.98485
▁ser	-8.98701
▁(_	-8.98838
して	-8.99156
▁फिर	-8.99533
▁report	-8.99609
з	-8.99897
tra	-8.99901
▁जा	-8.99973
▁New	-9.00001
▁mon	-9.00325
▁house	-9.00325
य	-9.00331
▁Und	-9.00626
▁О	-9.00758
▁а	-9.01003
ive	-9.01065
j	-9.01201
▁lot	-9.01224
▁ask	-9.01235
▁ex	-9.01462
▁faire	-9.01492
ва	-9.01693
ми	-9.01736
▁mich	-9.01845
▁everything	-9.02046
▁comme	-9.02179
ré	-9.02193
ling	-9.02228
No	-9.02229
▁Was	-9.02251
▁earth	-9.02629
▁со	-9.0267
ं	-9.02781
▁plan	-9.02792
▁case	-9.03006
▁while	-9.03046
ス	-9.0356
ido	-9.03652
▁States	-9.03784
った	-9.03842
▁cette	-9.03923
та	-9.03986
és	-9.04677
▁each	-9.04685
ब	-9.04822
du	-9.04877
▁Он	-9.0521
▁leave	-9.05236
▁United	-9.05339
▁Ein	-9.05339
▁Or	-9.05376
▁Con	-9.05463
▁file	-9.05858
▁without	-9.05921
ない	-9.06044
▁vor	-9.06175
ti	-9.06196
ure	-9.06298
▁father	-9.06299
▁pre	-9.06347
▁0	-9.06353
▁Вы	-9.06583
▁pero	-9.06611
▁тебя	-9.06618
che	-9.06676
▁t	-9.06731
ut	-9.06892
▁family	-9.0692
▁AM	-9.06955
▁Ja	-9.0736
▁nur	-9.07416
▁ma	-9.0745
▁Мы	-9.0748
▁ab	-9.07678
▁tout	-9.07736
▁money	-9.07761
▁esta	-9.078
▁guy	-9.07941
▁अ	-9.07952
pa	-9.08076
▁At	-9.08237
ba	-9.083
▁following	-9.08323
▁water	-9.08447
ait	-9.08523
▁же	-9.08588
▁Да	-9.08647
▁non	-9.08771
▁Council	-9.0883
end	-9.09052
▁One	-9.0917
ía	-9.09187
▁already	-9.09216
▁show	-9.0952
land	-9.09756
▁साथ	-9.09762
so	-9.09876
▁upon	-9.09979
▁हूँ	-9.09994
ку	-9.10075
▁human	-9.10105
▁V	-9.1014
▁Ma	-9.10152
▁bei	-9.10153
▁जब	-9.10156
▁both	-9.10272
con	-9.10277
ст	-9.1035
Qué	-9.10355
cu	-9.10365
▁mal	-9.10444
▁g	-9.10533
ー	-9.10565
▁Did	-9.10777
im	-9.10832
▁Please	-9.11038
▁об	-9.11374
▁next	-9.11409
▁suis	-9.11483
ते	-9.11596
ste	-9.11634
▁mais	-9.11673
elle	-9.11713
さ	-9.12085
▁Ce	-9.12218
▁peut	-9.12259
▁dead	-9.12313
ler	-9.12342
ger	-9.12463
ber	-9.12572
▁stop	-9.12613
▁eso	-9.12685
▁bring	-9.12913
▁ये	-9.12965
▁among	-9.13017
▁doesn	-9.13051
▁public	-9.13147
men	-9.13187
▁hear	-9.13406
▁Su	-9.13506
▁together	-9.13629
ité	-9.13631
ke	-9.13672
▁+	-9.13888
son	-9.13975
▁sorry	-9.13986
▁Но	-9.14063
▁question	-9.14213
ción	-9.14216
▁children	-9.14223
▁aquí	-9.14299
▁open	-9.14323
▁под	-9.14426
ies	-9.14472
▁#	-9.14485
▁course	-9.14533
ement	-9.1458
▁Day	-9.14664
▁wrong	-9.14783
▁लोगों	-9.14815
10	-9.14877
те	-9.14933
▁system	-9.15387
▁чтобы	-9.15389
▁Dr	-9.15469
ted	-9.15479
▁ré	-9.15587
▁da	-9.15714
ex	-9.16002
▁sobre	-9.16025
ит	-9.16045
▁sein	-9.16166
ze	-9.16186
ных	-9.16323
ary	-9.16536
▁この	-9.16543
ha	-9.16888
▁today	-9.17016
▁Him	-9.17344
▁care	-9.17461
▁turn	-9.17476
um	-9.17579
▁то	-9.17621
व	-9.17622
▁wanted	-9.17758
▁उसे	-9.18226
▁Da	-9.18321
▁start	-9.18352
▁bad	-9.18621
▁Get	-9.18817
▁currently	-9.18839
▁room	-9.18862
ной	-9.19015
he	-9.19055
sch	-9.19064
▁26	-9.19078
▁kill	-9.19147
ク	-9.19151
▁Man	-9.19198
ि	-9.19218
▁По	-9.19368
▁einer	-9.19399
▁kann	-9.19519
▁second	-9.19549
▁Committee	-9.19567
au	-9.19601
▁noch	-9.19645
▁head	-9.19714
▁order	-9.19749
▁live	-9.20142
ें	-9.2019
▁(1)	-9.20486
▁hand	-9.20636
ого	-9.20696
ous	-9.20826
▁31	-9.20912
▁Co	-9.20924
▁until	-9.20956
ू	-9.21145
▁control	-9.21212
):	-9.21347
▁Ab	-9.21351
and	-9.21458
им	-9.21509
▁раз	-9.21558
▁coming	-9.21626
▁अल्लाह	-9.21638
ho	-9.21729
г	-9.21764
ri	-9.218
min	-9.21819
tro	-9.21829
ol	-9.21909
16	-9.21926
qui	-9.2217
fe	-9.22388
▁remember	-9.22442
▁Te	-9.2247
द	-9.22481
▁2011	-9.22508
▁Что	-9.22712
per	-9.23042
▁since	-9.23082
▁sus	-9.23083
श	-9.23135
▁nor	-9.23142
▁करते	-9.23365
▁27	-9.23822
▁todo	-9.23847
ами	-9.24061
io	-9.24146
▁Mar	-9.24205
▁services	-9.24213
net	-9.24408
▁*	-9.24409
▁called	-9.24459
tic	-9.24496
▁este	-9.24506
▁ces	-9.24594
▁yo	-9.25019
tal	-9.25051
▁run	-9.25074
▁या	-9.25111
▁Posted	-9.25282
▁power	-9.25391
▁私は	-9.25484
▁года	-9.25687
ons	-9.25998
он	-9.26037
▁big	-9.26579
ando	-9.26784
▁€	-9.26921
iv	-9.27002
▁hard	-9.27084
▁Sch	-9.2709
▁Na	-9.27356
▁change	-9.27377
▁different	-9.2755
»	-9.27567
▁international	-9.27595
▁women	-9.27619
▁days	-9.27635
ль	-9.27645
▁page	-9.27663
▁guys	-9.27789
▁dich	-9.27821
す	-9.27839
ka	-9.27959
▁took	-9.28019
ren	-9.28096
▁stay	-9.28357
п	-9.28404
fi	-9.28405
▁wurde	-9.28486
▁habe	-9.28516
ные	-9.28738
▁whole	-9.28778
mi	-9.28789
▁उनके	-9.28832
▁Z	-9.28873
▁Mi	-9.28941
▁went	-9.28994
▁Mo	-9.29058
ую	-9.29292
人	-9.29443
▁possible	-9.2949
▁indeed	-9.2959
▁truth	-9.29594
htm	-9.29715
bo	-9.29739
gi	-9.2974
▁girl	-9.29765
▁2007	-9.29876
▁countries	-9.29967
▁face	-9.29989
▁bis	-9.30235
hr	-9.30261
▁See	-9.30278
▁ye	-9.3031
▁einem	-9.30382
▁28	-9.30389
org	-9.30618
▁With	-9.30724
ах	-9.30741
▁dir	-9.30781
°	-9.30852
ый	-9.30885
lich	-9.30946
▁aber	-9.30993
б	-9.31097
▁idea	-9.31126
▁clear	-9.31228
▁их	-9.31235
▁St	-9.31301
▁enough	-9.31339
▁2005	-9.31396
ु	-9.31458
lu	-9.3151
ette	-9.31589
▁दिया	-9.31697
ated	-9.31724
▁given	-9.31745
▁saw	-9.31762
▁play	-9.31929
▁seen	-9.31979
ш	-9.32079
▁mother	-9.32092
▁f	-9.32252
ト	-9.32253
ется	-9.32253
ness	-9.32259
▁become	-9.32388
▁country	-9.32577
20	-9.32632
▁understand	-9.32659
▁esto	-9.32741
▁01	-9.32846
▁Elle	-9.32886
▁कहा	-9.3301
▁तुम्हें	-9.33064
sa	-9.33074
▁К	-9.33081
▁они	-9.33105
▁%1	-9.33108
▁2006	-9.33238
▁или	-9.33378
ный	-9.33535
▁few	-9.33605
▁President	-9.33631
▁bin	-9.33679
▁Los	-9.33695
▁present	-9.33727
▁working	-9.33769
▁someone	-9.33979
▁yet	-9.34063
▁i	-9.34254
▁cause	-9.34362
▁$	-9.34406
▁Ge	-9.34436
▁その	-9.34549
▁far	-9.34574
▁U	-9.34935
▁friend	-9.35047
▁2000	-9.35211
▁light	-9.35214
▁Di	-9.353
ля	-9.35305
▁looking	-9.35352
▁fact	-9.35558
op	-9.3556
ier	-9.35628
う	-9.35641
▁Article	-9.35669
▁national	-9.35672
▁彼は	-9.35762
ти	-9.35801
ron	-9.35905
▁These	-9.361
?"	-9.36171
за	-9.36188
▁durch	-9.36317
▁rest	-9.36358
▁uns	-9.36358
▁situation	-9.36359
▁General	-9.36375
▁2004	-9.36437
▁2009	-9.36517
▁wenn	-9.3657
▁было	-9.36585
お	-9.36651
▁Nations	-9.36685
▁На	-9.36747
▁2008	-9.36756
▁ni	-9.36808
▁Pero	-9.36823
▁person	-9.37003
ко	-9.3701
▁else	-9.37045
▁ख़ुदा	-9.37059
▁business	-9.37119
▁50	-9.37143
fa	-9.37144
▁k	-9.3723
▁2010	-9.373
▁Как	-9.37305
▁ago	-9.37415
▁é	-9.37444
▁Mon	-9.37736
▁school	-9.37854
▁29	-9.37936
во	-9.38026
ил	-9.38153
▁был	-9.3826
▁meeting	-9.38301
je	-9.38339
▁zum	-9.3851
Z	-9.38518
▁votre	-9.38551
▁ti	-9.38615
▁können	-9.38619
▁mind	-9.38624
ian	-9.38727
▁matter	-9.38738
▁sub	-9.38754
▁Ne	-9.3883
▁sir	-9.38853
30	-9.38948
▁fear	-9.39001
には	-9.39009
lie	-9.39182
bar	-9.39311
J	-9.39315
09	-9.3934
50	-9.39355
▁high	-9.39392
▁job	-9.39419
ле	-9.3949
ри	-9.39517
▁service	-9.39525
▁times	-9.39542
▁development	-9.39574
▁тебе	-9.39769
▁sin	-9.40091
▁try	-9.40093
▁list	-9.40155
▁server	-9.40284
▁zur	-9.40351
ue	-9.40423
ph	-9.40468
▁September	-9.40538
▁hope	-9.40558
ster	-9.40581
vi	-9.40593
ии	-9.40596
▁November	-9.40651
▁hacer	-9.40658
▁होगा	-9.40731
なら	-9.40775
▁bar	-9.40855
▁problem	-9.4086
▁moment	-9.40915
▁sea	-9.40975
ard	-9.41032
qu	-9.41153
ろ	-9.41185
:00	-9.41287
▁hell	-9.41295
▁muy	-9.41503
ise	-9.4158
▁land	-9.41615
vo	-9.41639
out	-9.41867
▁meet	-9.42075
gu	-9.42084
▁trying	-9.42217
▁data	-9.42225
▁algo	-9.42281
▁Ha	-9.42379
▁если	-9.42539
▁move	-9.4256
▁Because	-9.42653
्	-9.42701
▁100	-9.42711
▁free	-9.42781
▁full	-9.42783
▁हमने	-9.42804
jo	-9.42817
▁uh	-9.42936
ン	-9.42962
रा	-9.43027
▁August	-9.4312
▁она	-9.43189
▁inter	-9.43246
▁means	-9.43541
ni	-9.43572
▁view	-9.4375
▁date	-9.43829
ite	-9.43942
▁yourself	-9.43967
▁будет	-9.43968
▁leur	-9.44093
X	-9.44106
▁Mais	-9.44114
▁उसके	-9.44177
par	-9.44234
▁मेरे	-9.44269
zu	-9.44319
▁Car	-9.445
▁दिन	-9.44505
▁getting	-9.44507
▁April	-9.44627
▁wait	-9.44689
▁death	-9.4473
of	-9.44923
▁created	-9.45191
ante	-9.45204
ре	-9.45265
▁gave	-9.45391
▁ihr	-9.45439
▁Sí	-9.45536
ド	-9.45566
▁Por	-9.45578
▁Good	-9.45591
▁during	-9.45769
▁message	-9.45789
▁wife	-9.45834
कर	-9.45875
▁fire	-9.4588
▁थे	-9.45947
▁°	-9.46027
▁minutes	-9.46224
ou	-9.46399
▁side	-9.46448
&	-9.46454
▁सब	-9.46457
▁फ़ाइल	-9.46496
line	-9.46577
▁Д	-9.46616
iert	-9.46663
ного	-9.46739
▁Have	-9.46875
▁Maybe	-9.46897
▁true	-9.46929
▁moi	-9.46958
▁area	-9.47043
The	-9.47057
▁2001	-9.47154
.”	-9.47184
▁taken	-9.47325
ais	-9.47381
▁2002	-9.47436
▁быть	-9.47441
▁ca	-9.47496
▁Pro	-9.47636
ique	-9.47659
15	-9.47695
▁सकता	-9.4775
リ	-9.47891
▁बात	-9.48014
▁di	-9.48015
▁close	-9.48047
▁lui	-9.48071
▁X	-9.48079
ви	-9.4815
▁deux	-9.48183
▁happened	-9.48205
だった	-9.48208
▁есть	-9.48228
ndo	-9.48263
че	-9.4831
▁million	-9.48335
▁dit	-9.48421
▁respect	-9.48427
▁когда	-9.4855
ag	-9.48702
▁available	-9.4882
ज	-9.48832
▁même	-9.48845
▁read	-9.48853
▁Say	-9.4891
▁Source	-9.48939
き	-9.49024
▁ले	-9.49037
▁तुम्हारे	-9.49045
▁2015	-9.49047
ées	-9.49153
▁wish	-9.49203
▁pay	-9.49237
み	-9.4934
▁heard	-9.49448
▁нас	-9.49486
ieren	-9.49488
ди	-9.49489
▁line	-9.49544
▁morning	-9.49589
ए	-9.49594
ам	-9.4966
▁Here	-9.4991
ых	-9.50012
▁alone	-9.50083
▁vez	-9.50118
pi	-9.50119
сти	-9.50207
▁favor	-9.50222
▁М	-9.50245
▁40	-9.50281
▁दो	-9.50292
▁isn	-9.50338
▁tra	-9.50342
▁04	-9.50381
▁total	-9.50384
▁करो	-9.50411
▁ya	-9.50514
▁tous	-9.50554
のか	-9.50556
▁cannot	-9.50563
té	-9.50623
tes	-9.50626
де	-9.50717
=	-9.50754
▁aussi	-9.50795
▁él	-9.50863
ial	-9.50928
▁comp	-9.50955
ina	-9.51159
▁Pa	-9.5117
▁Reply	-9.51242
▁programme	-9.51301
▁Uh	-9.51407
ft	-9.51412
▁お	-9.51419
▁heart	-9.51495
▁mehr	-9.51499
▁send	-9.51579
gel	-9.51644
▁saying	-9.51667
▁knew	-9.51699
вер	-9.5178
▁local	-9.51783
▁Yo	-9.51919
▁whom	-9.51922
▁सकते	-9.51935
tor	-9.52015
▁>	-9.52028
ве	-9.52075
ish	-9.52106
▁во	-9.52201
▁hay	-9.52299
ア	-9.52342
▁social	-9.52582
▁able	-9.52594
▁•	-9.52678
▁fine	-9.52748
▁city	-9.52761
▁उन्हें	-9.5277
wa	-9.53007
▁fue	-9.53152
▁Union	-9.5322
▁URL	-9.53249
▁contact	-9.53409
idad	-9.5344
less	-9.5354
ab	-9.53641
いた	-9.53686
▁только	-9.53731
▁Ca	-9.53892
▁once	-9.5391
­	-9.53973
po	-9.54025
не	-9.54106
▁बहुत	-9.54132
ци	-9.54225
cho	-9.54373
▁08	-9.54404
ま	-9.54468
▁wasn	-9.5449
▁kg	-9.54521
ven	-9.54545
▁having	-9.54582
▁week	-9.54607
▁03	-9.54609
▁least	-9.54616
ий	-9.54637
mb	-9.54671
ile	-9.54684
▁Qu	-9.54695
igen	-9.54717
▁word	-9.54803
▁05	-9.54806
▁chance	-9.54956
▁vom	-9.55095
▁regard	-9.5511
▁tiene	-9.55139
bi	-9.55139
▁Am	-9.55181
▁type	-9.55289
▁brought	-9.55315
▁po	-9.55384
▁06	-9.55395
▁session	-9.55452
ан	-9.55479
▁wo	-9.55491
▁process	-9.55814
ला	-9.55876
▁site	-9.55908
▁उस	-9.55922
▁killed	-9.55925
▁group	-9.55937
ful	-9.55956
▁puede	-9.56071
ff	-9.56156
▁woman	-9.56162
▁police	-9.56186
▁lost	-9.56213
tz	-9.56243
ен	-9.56245
pro	-9.56278
▁return	-9.56359
▁mis	-9.56373
ap	-9.56403
▁within	-9.56462
za	-9.56553
▁उन	-9.56587
▁brother	-9.56634
▁П	-9.5666
▁ta	-9.56721
▁June	-9.56863
▁Nous	-9.56996
▁нет	-9.57
▁Europe	-9.57019
▁व	-9.57081
▁actually	-9.57087
▁anyone	-9.57203
*	-9.57215
▁प	-9.57285
▁तरह	-9.57299
▁account	-9.57433
▁Um	-9.57468
17	-9.57482
ris	-9.57549
▁Ra	-9.57576
▁speak	-9.57615
▁Will	-9.5762
we	-9.57668
▁Sa	-9.5785
ラ	-9.57959
▁2003	-9.5807
さん	-9.58129
ग	-9.58148
▁Li	-9.58219
イ	-9.58233
▁talking	-9.58242
▁project	-9.58256
▁09	-9.58331
▁Des	-9.58369
じゃない	-9.58371
ख	-9.58476
▁07	-9.58634
nd	-9.58763
▁Of	-9.58775
ko	-9.58781
▁main	-9.58789
ida	-9.58989
▁By	-9.59039
ide	-9.59173
▁special	-9.59266
art	-9.59284
▁किसी	-9.59356
ations	-9.5942
リー	-9.59478
ती	-9.59546
▁cas	-9.59668
▁December	-9.59707
ок	-9.59745
▁Ho	-9.59767
▁unter	-9.59773
▁soon	-9.59862
▁four	-9.60151
▁नाम	-9.60309
ै	-9.60315
ah	-9.60355
▁‘	-9.60365
▁market	-9.60418
03	-9.60516
▁door	-9.60561
▁requested	-9.60566
時	-9.60627
ड	-9.60652
▁02	-9.60682
ые	-9.60762
for	-9.60811
жи	-9.6089
à	-9.6099
▁act	-9.60994
ating	-9.61086
▁Hi	-9.61105
sh	-9.61116
▁просто	-9.6113
ungen	-9.61153
▁surely	-9.61177
や	-9.61214
ud	-9.61275
▁nice	-9.61284
▁gut	-9.61304
なかった	-9.61316
▁law	-9.61341
▁base	-9.61403
▁Ni	-9.61503
▁John	-9.61565
▁March	-9.61587
▁except	-9.61645
▁ihn	-9.61695
▁bit	-9.61721
ik	-9.61728
ak	-9.61771
▁2012	-9.61792
▁était	-9.61816
▁period	-9.62004
▁h	-9.62058
め	-9.62106
all	-9.62154
ण	-9.62254
▁г	-9.62309
eur	-9.6231
▁Thank	-9.62328
▁स	-9.62442
▁п	-9.62504
mp	-9.62515
▁sais	-9.62738
▁sign	-9.62758
▁पता	-9.62773
▁Aber	-9.62823
▁pays	-9.62889
▁level	-9.62955
▁cuando	-9.62975
▁check	-9.62991
日	-9.6305
▁да	-9.63124
▁вас	-9.6313
▁Zeit	-9.63133
19	-9.63142
▁elle	-9.63285
chen	-9.63295
▁этого	-9.63333
▁nos	-9.63382
lin	-9.63406
▁small	-9.63453
▁Так	-9.63472
▁body	-9.63482
▁Member	-9.6349
▁पास	-9.63622
▁पहले	-9.63765
▁करता	-9.6385
her	-9.63918
los	-9.63952
▁boy	-9.63982
ро	-9.64034
▁st	-9.64198
11	-9.64204
▁जिस	-9.64336
ach	-9.6434
▁gone	-9.64403
by	-9.64478
री	-9.64522
ien	-9.64571
▁evil	-9.64574
▁Hotel	-9.64623
oc	-9.647
▁अपनी	-9.64715
▁दे	-9.64883
▁game	-9.64919
▁party	-9.64941
▁era	-9.65291
▁July	-9.65325
▁pu	-9.65368
▁März	-9.65517
mon	-9.65534
▁veux	-9.6566
tri	-9.65736
▁Aus	-9.65882
ek	-9.65902
▁young	-9.65968
ん	-9.66013
cha	-9.66125
▁months	-9.66126
q	-9.66234
▁Нет	-9.66338
их	-9.66358
ón	-9.66379
या	-9.66412
▁là	-9.66479
▁Ya	-9.66506
▁hours	-9.66508
▁unto	-9.66578
▁save	-9.6662
▁hold	-9.66707
え	-9.66768
▁wouldn	-9.66822
cht	-9.66882
▁diese	-9.66902
▁fucking	-9.66911
▁может	-9.66927
▁todos	-9.66955
ф	-9.66958
ム	-9.66986
▁अब	-9.6708
▁San	-9.6709
▁office	-9.6716
lic	-9.67162
ec	-9.67219
▁यहाँ	-9.67307
gar	-9.6738
▁करना	-9.67387
▁town	-9.6743
▁ahora	-9.67439
und	-9.6744
▁baby	-9.67444
ным	-9.67573
port	-9.67597
ici	-9.67645
▁October	-9.67752
▁government	-9.68003
ib	-9.6801
▁result	-9.68053
▁maybe	-9.68105
mm	-9.68106
ran	-9.68197
ub	-9.68314
▁Vi	-9.68343
け	-9.68385
▁también	-9.68414
च	-9.68415
▁taking	-9.6842
We	-9.68505
▁sé	-9.68533
va	-9.68601
40	-9.68635
br	-9.68666
▁eyes	-9.68688
Ã	-9.68841
▁wanna	-9.68845
▁questions	-9.68846
▁Wie	-9.68857
▁x	-9.68878
▁doit	-9.68968
せ	-9.69013
▁keine	-9.69107
▁Ba	-9.6927
▁fight	-9.69303
▁==	-9.69342
▁friends	-9.69377
encia	-9.69411
▁shit	-9.69418
ern	-9.69521
▁six	-9.6959
om	-9.69687
по	-9.69692
му	-9.69815
子	-9.69818
▁ob	-9.69837
▁Г	-9.69927
▁child	-9.70028
▁decision	-9.70058
▁phone	-9.70143
▁1.	-9.7022
▁Diese	-9.70283
one	-9.70309
sta	-9.70362
О	-9.70366
▁further	-9.70393
▁security	-9.70462
▁ir	-9.70566
▁says	-9.70657
С	-9.70673
fer	-9.70677
ip	-9.70689
amos	-9.70742
ты	-9.70828
ér	-9.70829
▁Ar	-9.70845
▁table	-9.70898
▁Bo	-9.70952
▁Ну	-9.70962
▁thou	-9.70968
की	-9.70991
▁met	-9.71106
▁pretty	-9.71109
▁asked	-9.71187
नी	-9.71226
▁guess	-9.71255
ados	-9.71267
▁position	-9.71528
▁ready	-9.71535
ое	-9.71537
▁Those	-9.71542
▁State	-9.71585
▁drink	-9.71625
▁reason	-9.71695
▁Bueno	-9.71741
がある	-9.71749
ду	-9.71752
▁final	-9.71774
▁fin	-9.71786
être	-9.71827
▁ли	-9.71868
▁large	-9.71909
ма	-9.71914
▁ja	-9.71997
まで	-9.72038
▁संदेश	-9.72121
▁stand	-9.7213
▁book	-9.72203
ils	-9.72204
▁travail	-9.72215
▁five	-9.72287
vous	-9.72292
▁answer	-9.72393
ence	-9.72422
▁Show	-9.72606
▁Ta	-9.72872
ная	-9.72974
▁certain	-9.73113
▁ब	-9.73126
era	-9.73138
▁здесь	-9.73142
ana	-9.73192
▁general	-9.73269
▁later	-9.73321
का	-9.73396
▁behind	-9.73437
।"	-9.73448
▁test	-9.73487
▁Par	-9.73512
▁Some	-9.73523
▁fall	-9.73544
▁resolution	-9.73555
ज़	-9.73637
ux	-9.73731
▁future	-9.7381
つ	-9.7385
▁Take	-9.73948
De	-9.73973
EC	-9.74023
dy	-9.74187
▁м	-9.7425
html	-9.74251
га	-9.74284
▁From	-9.74335
っ	-9.74349
▁Pour	-9.74388
▁Une	-9.74398
▁age	-9.74436
▁でも	-9.74671
▁provide	-9.74697
्स	-9.74729
▁alle	-9.74781
▁nada	-9.74889
▁EU	-9.7489
07	-9.74912
いる	-9.75018
ING	-9.75053
▁nombre	-9.75067
▁eat	-9.75098
ES	-9.75143
▁nights	-9.75181
▁Mal	-9.75185
tin	-9.75221
▁follow	-9.75227
25	-9.75424
▁Pre	-9.75458
nk	-9.75512
▁म	-9.75515
▁schon	-9.7556
▁Non	-9.75616
▁example	-9.75669
▁food	-9.75823
ions	-9.7585
ение	-9.75911
AL	-9.7596
É	-9.75968
▁company	-9.75972
▁Wenn	-9.76001
▁grand	-9.76022
▁pi	-9.76032
или	-9.76177
▁After	-9.76195
▁making	-9.76204
▁Fa	-9.76215
án	-9.7626
eth	-9.76287
14	-9.76452
▁तक	-9.76686
▁listen	-9.7671
▁myself	-9.76742
▁чем	-9.76781
ру	-9.76803
事	-9.76858
▁За	-9.76879
▁provided	-9.76951
▁address	-9.77013
би	-9.7702
▁tiempo	-9.77032
▁время	-9.77032
▁Right	-9.77046
▁document	-9.7708
▁meine	-9.77105
cer	-9.77192
▁enter	-9.77288
▁access	-9.77294
ras	-9.77322
▁2013	-9.77335
▁Book	-9.7738
▁así	-9.77387
hi	-9.77511
▁этом	-9.77692
▁conditions	-9.77735
▁temps	-9.77772
ige	-9.77795
▁post	-9.77822
▁そう	-9.77867
▁secret	-9.77882
▁काम	-9.77997
▁team	-9.78118
▁hands	-9.78229
▁****	-9.78324
ध	-9.78329
▁(2)	-9.78344
Por	-9.784
ны	-9.78414
▁समय	-9.78421
手	-9.7847
▁though	-9.78492
ring	-9.78525
ya	-9.78584
▁tan	-9.78675
aire	-9.78677
▁Nächte	-9.78724
▁above	-9.78726
+1	-9.78731
▁blood	-9.78771
िक	-9.78779
ке	-9.7879
▁punishment	-9.78889
▁Ah	-9.78896
▁Per	-9.78902
▁others	-9.78923
ley	-9.7894
▁cu	-9.78966
▁action	-9.78974
▁news	-9.79066
▁wieder	-9.79072
@	-9.79084
way	-9.79103
▁Auf	-9.79119
▁heavens	-9.79169
▁Government	-9.79191
▁International	-9.79192
ER	-9.79293
ator	-9.79299
▁casa	-9.79361
▁ее	-9.79381
cher	-9.7941
▁text	-9.79428
▁Она	-9.7943
いい	-9.79667
▁muss	-9.79702
▁particular	-9.79736
▁еще	-9.7976
▁ici	-9.79802
▁Vor	-9.79813
▁hurt	-9.79821
▁gotta	-9.79843
▁dann	-9.79877
▁chose	-9.79957
▁themselves	-9.79974
▁Ro	-9.80003
▁state	-9.80004
ciones	-9.80101
▁très	-9.80132
▁Could	-9.80134
▁protection	-9.80149
29	-9.80201
ble	-9.80245
▁therefore	-9.80289
▁continue	-9.80308
ное	-9.80328
▁past	-9.80411
▁short	-9.80447
▁пере	-9.80486
▁Ça	-9.80604
ium	-9.80658
▁00	-9.80685
▁red	-9.80696
▁makes	-9.807
ken	-9.8076
iste	-9.80874
▁York	-9.80926
",	-9.8093
К	-9.80956
▁кто	-9.80999
▁near	-9.81055
23	-9.81127
▁того	-9.8113
▁form	-9.81136
▁vi	-9.81181
mit	-9.81278
के	-9.81293
▁Regulation	-9.81398
▁Po	-9.81432
▁command	-9.81465
Name	-9.81496
las	-9.81503
ать	-9.81505
dos	-9.81525
▁doctor	-9.81636
▁sehr	-9.81682
▁key	-9.81722
от	-9.81749
▁dire	-9.81754
06	-9.81827
दा	-9.81903
▁何	-9.81932
ます	-9.81951
▁Most	-9.82031
Re	-9.82271
▁THE	-9.82335
▁Если	-9.82359
▁decir	-9.82405
▁trust	-9.82474
▁pm	-9.82636
▁также	-9.82692
▁January	-9.8271
12	-9.82809
▁रूप	-9.82857
IN	-9.82859
▁--	-9.8297
▁art	-9.83018
▁Indeed	-9.83039
▁easy	-9.83166
▁уже	-9.83191
nos	-9.83209
▁knows	-9.83221
▁visit	-9.83241
mer	-9.83311
▁pe	-9.83345
のは	-9.83441
▁Pe	-9.83446
▁France	-9.83629
sten	-9.8366
▁half	-9.83669
▁imp	-9.83675
gue	-9.8375
était	-9.83773
▁r	-9.83814
jpg	-9.83817
▁Ex	-9.83907
ин	-9.83956
rá	-9.83995
▁Sp	-9.83996
▁World	-9.8404
In	-9.84096
ins	-9.84185
▁needs	-9.84203
その	-9.84219
▁vie	-9.84293
▁द	-9.84303
▁happy	-9.84308
▁value	-9.84311
▁sat	-9.84328
▁production	-9.84338
А	-9.84357
ले	-9.84376
▁ठीक	-9.84377
let	-9.84421
▁Ihnen	-9.8448
▁risk	-9.84502
18	-9.84509
▁fi	-9.84523
फ	-9.84558
ments	-9.84627
▁population	-9.84637
▁ten	-9.8471
▁अगर	-9.84733
だけ	-9.84735
▁もう	-9.84757
:30	-9.84786
▁Que	-9.84804
物	-9.84848
▁comes	-9.84874
▁Б	-9.84885
▁dieser	-9.84905
▁deal	-9.84924
▁thank	-9.84927
▁consider	-9.84964
こと	-9.84984
ple	-9.84995
▁safe	-9.85058
ú	-9.85069
ben	-9.85315
▁whatever	-9.85343
▁hace	-9.85385
08	-9.85394
▁However	-9.85476
▁War	-9.85488
ぞ	-9.85497
tain	-9.85511
▁including	-9.85511
▁años	-9.85556
ча	-9.85607
▁window	-9.85631
れ	-9.85634
▁transport	-9.8569
▁current	-9.85715
▁Ga	-9.85727
▁Dans	-9.85744
▁bed	-9.85794
▁लेकिन	-9.85796
ki	-9.85851
▁couldn	-9.85858
▁están	-9.85925
qué	-9.85961
ал	-9.85997
▁using	-9.86122
▁60	-9.86161
▁Her	-9.86165
▁haven	-9.86172
▁front	-9.86194
▁Au	-9.86231
▁II	-9.86251
iendo	-9.86261
▁beautiful	-9.86297
▁Like	-9.86329
▁была	-9.86341
▁break	-9.86362
▁mine	-9.86388
▁Jo	-9.86428
▁force	-9.86439
▁vol	-9.86496
▁peace	-9.86523
▁living	-9.86632
lé	-9.86645
▁touch	-9.86681
▁air	-9.86696
▁Tell	-9.86718
▁health	-9.86739
▁DE	-9.86764
▁Wo	-9.86769
▁hast	-9.86828
▁known	-9.86846
▁knowledge	-9.86976
▁policy	-9.87138
フ	-9.87321
▁everyone	-9.87324
▁happen	-9.87354
time	-9.87549
▁ग	-9.87582
ally	-9.87654
ым	-9.87705
▁sp	-9.87725
▁hit	-9.87755
あ	-9.87771
▁walk	-9.87791
▁jetzt	-9.87815
ешь	-9.87841
ef	-9.87904
ться	-9.87919
ants	-9.87968
फ़	-9.87979
▁activities	-9.87984
Е	-9.88005
レ	-9.88123
▁subject	-9.88158
▁Gu	-9.88237
▁Group	-9.88238
ну	-9.88251
▁sort	-9.88305
26	-9.88356
OR	-9.88407
ect	-9.88462
▁ella	-9.88474
ino	-9.88505
▁cut	-9.88542
si	-9.88547
分	-9.88667
ein	-9.88732
▁sch	-9.88737
▁2014	-9.88813
▁private	-9.88838
▁tomorrow	-9.88839
▁late	-9.88897
ブ	-9.88938
ros	-9.89005
▁error	-9.89012
24	-9.89078
▁rights	-9.89102
▁vida	-9.89406
21	-9.8943
.1	-9.89477
ces	-9.89544
mar	-9.89548
▁Pi	-9.89655
▁रसूल	-9.89701
▁où	-9.89861
car	-9.89862
▁OK	-9.89973
मा	-9.90032
▁それは	-9.90038
▁financial	-9.90048
▁immer	-9.9009
▁v	-9.90135
▁yeah	-9.90235
▁soul	-9.90245
str	-9.90313
ют	-9.90471
者	-9.90534
▁court	-9.90673
▁pré	-9.9068
▁UTC	-9.90748
タ	-9.90758
ize	-9.90805
▁rep	-9.90896
▁Ka	-9.9099
」	-9.91011
ep	-9.91103
▁measures	-9.91268
▁ses	-9.91327
▁sector	-9.91333
use	-9.91435
▁daughter	-9.91448
pt	-9.91463
▁certainly	-9.91545
ual	-9.91577
nie	-9.91609
▁thinking	-9.91623
ят	-9.91626
▁Internet	-9.91808
RE	-9.9184
▁Mit	-9.91879
bel	-9.91941
▁create	-9.91985
▁products	-9.92042
▁increase	-9.92124
90	-9.92209
▁Esta	-9.92221
ale	-9.92416
▁EUR	-9.92416
uc	-9.92417
ше	-9.92418
マ	-9.92426
▁doch	-9.92474
▁Они	-9.92515
▁himself	-9.92524
▁बस	-9.92564
▁America	-9.92618
▁знаю	-9.92664
icht	-9.92674
▁sous	-9.92738
▁Tag	-9.92813
▁Tra	-9.92826
EN	-9.92841
!"	-9.92863
▁necessary	-9.92868
▁मेरी	-9.9287
▁Pas	-9.92878
▁figure	-9.92935
tive	-9.93059
▁app	-9.93116
form	-9.93174
ба	-9.93217
▁either	-9.93226
zeit	-9.93227
▁amount	-9.93308
moi	-9.93366
▁parte	-9.934
▁toi	-9.934
▁whether	-9.93407
・・・	-9.93424
▁gibt	-9.9345
▁Art	-9.93472
▁gun	-9.93516
▁वि	-9.93565
king	-9.93599
ば	-9.93636
ische	-9.93653
方	-9.93659
ign	-9.93741
▁всё	-9.93766
▁sans	-9.93839
▁inside	-9.9392
ナ	-9.93941
します	-9.93946
▁trabajo	-9.93963
थ	-9.94045
▁mejor	-9.94082
▁wants	-9.94136
▁single	-9.94155
▁class	-9.9417
об	-9.942
ар	-9.94228
ob	-9.94234
▁ihre	-9.94265
▁bon	-9.94267
02	-9.94274
▁turned	-9.94306
▁stuff	-9.94316
▁fun	-9.9433
nce	-9.94332
▁पा	-9.94436
▁вам	-9.94445
ियों	-9.94479
ड़	-9.94586
ズ	-9.94642
La	-9.94702
もの	-9.94702
▁signs	-9.94735
▁„	-9.94751
▁members	-9.94752
▁sera	-9.94768
lt	-9.94804
99	-9.94927
▁1999	-9.94954
uer	-9.9498
▁क	-9.95057
▁रब	-9.95094
▁First	-9.95113
▁Bien	-9.95131
ized	-9.95164
ット	-9.95178
▁hotel	-9.952
▁Ben	-9.95207
ang	-9.9534
▁offer	-9.95364
13	-9.95374
▁path	-9.95381
zen	-9.95455
liche	-9.9548
▁нам	-9.95547
ot	-9.95613
▁demande	-9.95624
▁Dis	-9.95646
php	-9.95649
▁rapport	-9.95665
ッ	-9.95722
iz	-9.95732
air	-9.95758
ения	-9.95949
▁puedo	-9.96138
▁également	-9.96139
▁cent	-9.96234
▁mí	-9.96284
▁probably	-9.96323
よう	-9.96348
▁com	-9.96389
▁Date	-9.96455
▁fuck	-9.96461
▁Ihr	-9.96493
gre	-9.96529
▁words	-9.96647
28	-9.96655
▁tonight	-9.96726
▁personal	-9.96729
▁etwas	-9.96775
isation	-9.96803
そう	-9.96803
▁program	-9.9686
став	-9.96865
rate	-9.96901
▁estaba	-9.96961
▁Zu	-9.97029
He	-9.97066
act	-9.97073
van	-9.97122
yl	-9.97237
▁müssen	-9.97252
▁चाहते	-9.97254
वा	-9.97338
AR	-9.97371
▁जाएगा	-9.97443
▁ни	-9.9745
▁हर	-9.97457
▁along	-9.97478
▁han	-9.97515
60	-9.97518
eau	-9.97526
गी	-9.97544
▁Sam	-9.97553
▁Ihre	-9.9762
ker	-9.97667
ries	-9.97668
ero	-9.97683
▁outside	-9.97703
ischen	-9.9781
▁cost	-9.97969
uch	-9.97976
си	-9.97982
▁Minister	-9.98004
▁started	-9.98004
aus	-9.98006
▁story	-9.98019
▁peux	-9.98046
▁彼女は	-9.98074
CE	-9.98083
ical	-9.98111
/2	-9.98175
ible	-9.98179
▁ज	-9.98211
ния	-9.98283
▁Miss	-9.98286
▁sound	-9.98294
ние	-9.98375
▁очень	-9.98379
▁Convention	-9.98382
▁common	-9.98386
ita	-9.98432
▁vais	-9.98436
▁US	-9.98493
прав	-9.98494
▁fast	-9.98513
“	-9.98568
IT	-9.98595
▁#1	-9.98731
▁Conseil	-9.98757
▁Ko	-9.9876
▁tú	-9.98781
▁которые	-9.98947
ऐ	-9.98954
▁Act	-9.99024
▁promise	-9.99061
▁image	-9.99085
ría	-9.99089
▁rec	-9.99111
des	-9.99113
▁Tom	-9.99114
▁Э	-9.99121
▁space	-9.99163
▁estoy	-9.99198
▁मु	-9.99289
▁notre	-9.99312
ию	-9.99351
▁kid	-9.99354
▁были	-9.99389
uff	-9.99401
▁Open	-9.99423
だろう	-9.99439
ши	-9.99506
▁ju	-9.9951
カ	-9.99658
04	-9.99662
▁Phone	-9.99712
▁jour	-9.99742
bl	-9.99844
ली	-9.99877
ис	-9.99901
▁February	-9.99928
+	-10.0005
▁watch	-10.0008
pp	-10.0014
へ	-10.0015
▁section	-10.0016
rse	-10.0026
aciones	-10.0027
ボ	-10.0029
ник	-10.003
▁station	-10.0034
led	-10.0034
▁quoi	-10.0036
ॉ	-10.0041
▁unsere	-10.0044
▁हुआ	-10.0048
cy	-10.0049
31	-10.0052
▁あなたは	-10.0056
▁À	-10.0057
ult	-10.0058
▁English	-10.0059
ются	-10.006
中	-10.0075
▁जाओ	-10.0077
年	-10.0078
▁ci	-10.0079
vers	-10.0081
70	-10.0083
▁received	-10.0084
▁National	-10.0087
ई	-10.0087
тель	-10.0093
▁Germany	-10.0095
▁हमारे	-10.0096
▁mein	-10.0105
ative	-10.011
rie	-10.0116
жа	-10.0118
気	-10.012
र्	-10.012
aux	-10.0124
▁exactly	-10.0128
▁mar	-10.0135
mal	-10.0138
len	-10.014
▁सभी	-10.0145
fr	-10.0155
ère	-10.0156
▁Ri	-10.0156
会	-10.016
▁Bar	-10.0164
You	-10.0172
▁यदि	-10.0179
▁Comment	-10.018
ente	-10.0183
▁color	-10.0184
cé	-10.0193
тор	-10.0199
▁third	-10.0199
▁rien	-10.0204
▁top	-10.0204
▁Ils	-10.0213
▁ese	-10.0218
35	-10.0219
ix	-10.022
▁mucho	-10.0222
▁उसकी	-10.0224
hal	-10.0232
▁mo	-10.0233
ship	-10.0235
▁больше	-10.024
лен	-10.0241
▁Home	-10.0243
cent	-10.0245
▁बारे	-10.0246
▁Para	-10.0252
▁supposed	-10.0252
▁том	-10.0259
bu	-10.026
▁Lu	-10.0264
ос	-10.0264
▁based	-10.0265
ral	-10.0275
nes	-10.028
▁results	-10.029
autres	-10.0291
▁died	-10.0292
▁normal	-10.0297
▁parties	-10.03
▁economic	-10.03
ロ	-10.0303
▁Name	-10.0305
ED	-10.0321
大	-10.0321
ダ	-10.0322
▁avez	-10.0323
▁faut	-10.0331
ization	-10.0332
男	-10.0341
▁могу	-10.0344
ств	-10.0349
▁application	-10.0352
▁fois	-10.0352
▁lie	-10.0356
▁फ़ोल्डर	-10.0361
val	-10.0362
▁month	-10.0365
している	-10.0368
pos	-10.0376
▁Nein	-10.0377
▁बाहर	-10.0381
▁Все	-10.0383
्य	-10.0384
05	-10.0387
IC	-10.0391
▁couple	-10.0394
▁mismo	-10.0397
▁encore	-10.0401
▁super	-10.0403
▁tengo	-10.0403
ors	-10.0418
▁experience	-10.042
▁चाहिए	-10.0421
▁parents	-10.0421
ход	-10.0423
▁Ju	-10.0427
▁shot	-10.0427
▁Us	-10.0439
01	-10.044
-1	-10.0445
▁प्र	-10.0456
тер	-10.0456
▁voir	-10.0473
чи	-10.0477
▁product	-10.0478
▁quite	-10.0479
▁code	-10.0481
▁road	-10.049
▁000	-10.0492
▁Ru	-10.0493
▁charge	-10.0493
▁sal	-10.0498
can	-10.0501
▁Number	-10.0502
▁hecho	-10.0502
▁Time	-10.0504
▁reward	-10.0506
▁weiß	-10.0511
▁Uhr	-10.0513
▁drive	-10.0514
▁'%	-10.0515
▁рас	-10.0516
▁Give	-10.0518
▁avoir	-10.0521
▁vers	-10.0525
мер	-10.0527
45	-10.0527
▁Fe	-10.0532
でも	-10.0534
wi	-10.0537
▁Hu	-10.0538
);	-10.0541
▁huh	-10.0541
ió	-10.055
▁Ti	-10.0553
chi	-10.0554
zo	-10.0554
▁(1	-10.0558
бы	-10.0558
▁Cor	-10.0561
▁90	-10.0562
▁Мне	-10.0565
ディ	-10.0571
▁Artikel	-10.0571
▁Aug	-10.0576
▁bist	-10.0577
ол	-10.0581
▁paragraph	-10.0581
▁share	-10.0582
83	-10.0595
▁porque	-10.0596
▁「	-10.0597
▁auto	-10.06
▁हुए	-10.0603
▁]	-10.0608
ning	-10.061
▁Wait	-10.061
LE	-10.0611
illa	-10.0611
▁fe	-10.0621
2009	-10.0623
▁research	-10.0624
ano	-10.0628
▁dad	-10.0638
コ	-10.064
▁field	-10.0642
▁works	-10.0642
▁areas	-10.0643
▁нужно	-10.0644
▁held	-10.0649
▁vas	-10.0652
red	-10.0654
▁trade	-10.0663
ще	-10.0663
▁legal	-10.0664
けど	-10.0664
▁zurück	-10.0666
▁contre	-10.0666
▁उसने	-10.0667
cal	-10.0668
Д	-10.0669
▁pa	-10.0671
▁इन	-10.0673
ги	-10.0674
vor	-10.0683
IS	-10.0684
▁Sir	-10.0687
пи	-10.0691
してる	-10.0692
▁Mrs	-10.07
▁lugar	-10.0706
▁running	-10.0706
ß	-10.0707
▁इसे	-10.0718
ту	-10.0719
▁avait	-10.072
▁peu	-10.0721
ев	-10.0721
▁ba	-10.0723
▁issue	-10.0724
ち	-10.0726
side	-10.0733
▁monde	-10.0742
ут	-10.0745
▁sleep	-10.0746
इ	-10.0746
▁Son	-10.0747
hl	-10.0748
Se	-10.075
▁2007,	-10.0751
lf	-10.0755
И	-10.0761
ジ	-10.0769
▁train	-10.0774
▁(2	-10.0779
39	-10.0779
▁simple	-10.0783
dic	-10.0789
80	-10.0795
▁día	-10.0799
▁2008,	-10.0808
▁almost	-10.0809
ities	-10.081
das	-10.081
▁उ	-10.0817
▁いい	-10.0819
ice	-10.082
▁hab	-10.0822
▁limit	-10.0827
ade	-10.0828
▁guide	-10.083
▁worry	-10.083
▁issues	-10.0832
▁sister	-10.0836
▁т	-10.0843
▁ra	-10.0849
са	-10.0849
tar	-10.0852
▁ओर	-10.0855
▁Land	-10.0858
▁programmes	-10.086
出	-10.0863
ай	-10.0863
▁correct	-10.0871
▁afraid	-10.0872
▁political	-10.0872
▁leurs	-10.0876
ство	-10.0884
▁UN	-10.089
▁Add	-10.0893
▁trouble	-10.0893
सी	-10.0904
▁सा	-10.0906
▁hin	-10.0906
▁Parliament	-10.0914
▁husband	-10.0914
▁Está	-10.0922
▁Only	-10.0923
▁avant	-10.0923
▁forget	-10.0927
Н	-10.0935
▁хочу	-10.0935
▁ID	-10.0935
では	-10.0938
को	-10.0939
▁Does	-10.094
bri	-10.0941
▁sun	-10.0941
rn	-10.0944
▁goes	-10.0944
▁gran	-10.0952
▁American	-10.0953
▁kids	-10.0956
ct	-10.0956
▁Fire	-10.096
▁Jack	-10.096
же	-10.0961
▁mission	-10.0969
▁building	-10.0982
▁दी	-10.0982
▁б	-10.0984
Q	-10.0987
ug	-10.0998
チ	-10.1001
▁मिल	-10.1002
aria	-10.1009
М	-10.1009
िंग	-10.1012
hu	-10.1015
▁वाला	-10.1016
ria	-10.1022
▁attend	-10.1022
pen	-10.1026
▁Even	-10.1029
▁tried	-10.1032
▁compte	-10.1033
下	-10.1033
▁management	-10.1034
▁buy	-10.104
amente	-10.104
▁Eso	-10.1041
1)	-10.1049
▁Dad	-10.1058
▁video	-10.1059
vis	-10.1059
Cómo	-10.1062
▁pick	-10.107
ус	-10.1071
▁contra	-10.1072
▁dog	-10.1073
▁त	-10.1076
Т	-10.1078
▁système	-10.1083
▁machen	-10.1086
rt	-10.1087
Le	-10.1088
ont	-10.1089
32	-10.109
fl	-10.1094
uel	-10.1094
ey	-10.1097
▁Sin	-10.1104
▁toujours	-10.1105
2)	-10.1108
▁गए	-10.1111
▁natural	-10.1116
gan	-10.1116
22	-10.1118
▁देख	-10.1122
▁sólo	-10.1126
▁cell	-10.1128
▁anti	-10.113
rs	-10.1143
tte	-10.1144
мен	-10.1145
▁должны	-10.1148
▁=	-10.115
ps	-10.1151
▁gas	-10.1155
pre	-10.116
▁वही	-10.1174
▁quiero	-10.1174
▁version	-10.1178
33	-10.118
▁Would	-10.1191
ification	-10.1191
▁comment	-10.1194
▁Canadian	-10.1196
▁hombre	-10.12
▁Two	-10.1215
pl	-10.1223
ер	-10.1228
▁hospital	-10.1234
▁People	-10.124
"?	-10.1247
भ	-10.1247
part	-10.1247
▁worship	-10.1256
एँ	-10.1262
▁budget	-10.1266
лю	-10.1275
▁bank	-10.1277
▁black	-10.1278
▁ihm	-10.1278
プ	-10.128
▁perfect	-10.128
ire	-10.1286
▁required	-10.1287
▁global	-10.1291
▁dos	-10.1295
▁चीज़	-10.1299
▁ああ	-10.13
▁Sr	-10.1305
▁estar	-10.1313
бе	-10.1323
▁alive	-10.1325
▁tun	-10.1327
fu	-10.1329
▁minute	-10.1333
▁без	-10.1335
ор	-10.1338
па	-10.134
▁voy	-10.1345
▁esa	-10.1352
▁tipo	-10.1362
▁protect	-10.1363
ед	-10.1373
▁soit	-10.1384
▁Im	-10.1386
▁cover	-10.1389
[	-10.1391
лись	-10.1392
Me	-10.1392
何	-10.14
▁demand	-10.1404
▁ईमान	-10.1405
В	-10.1406
ました	-10.1407
いて	-10.1408
tel	-10.141
nte	-10.1413
▁Cha	-10.142
day	-10.1422
ich	-10.1422
▁Sta	-10.1427
uk	-10.1428
▁Last	-10.1429
▁High	-10.1432
▁3.	-10.1432
▁ре	-10.1433
▁House	-10.1433
▁early	-10.1434
▁strong	-10.1445
▁45	-10.1448
из	-10.1448
▁私の	-10.1451
▁waiting	-10.1452
▁jamais	-10.1454
▁folder	-10.1454
▁वहाँ	-10.1455
▁forward	-10.146
▁geht	-10.1468
aba	-10.1474
▁deeds	-10.1475
▁draft	-10.1476
▁mercy	-10.1476
SC	-10.1479
ill	-10.1482
▁там	-10.1486
sche	-10.1486
▁centre	-10.1486
▁price	-10.1491
ism	-10.1492
▁na	-10.1494
ков	-10.1494
▁usted	-10.1498
▁Security	-10.1498
िया	-10.1507
▁andere	-10.1508
48	-10.1512
app	-10.1516
П	-10.1519
▁Comité	-10.1522
▁ensure	-10.1523
Ha	-10.1526
▁role	-10.1531
▁этой	-10.1535
sp	-10.1539
上	-10.1541
▁lives	-10.1546
see	-10.1553
▁Ad	-10.1558
▁projet	-10.1561
▁prison	-10.1568
▁Dar	-10.1568
▁Save	-10.1576
ord	-10.158
▁direct	-10.1588
▁hour	-10.159
▁selected	-10.1598
su	-10.1601
▁अच्छा	-10.1602
▁serious	-10.1604
ня	-10.1605
この	-10.1607
ica	-10.161
▁French	-10.161
▁training	-10.1611
▁Nach	-10.1612
▁design	-10.1612
▁pense	-10.1612
dor	-10.1614
▁needed	-10.1616
▁Che	-10.1616
▁ho	-10.1616
▁sense	-10.1625
lle	-10.1626
▁mom	-10.1632
्र	-10.1632
▁Messenger	-10.1633
▁Republic	-10.1633
è	-10.1642
▁sido	-10.1643
▁им	-10.1654
▁moins	-10.1657
▁रही	-10.1658
▁Seite	-10.1659
article	-10.1662
▁Com	-10.1664
ये	-10.1668
gé	-10.1669
▁Las	-10.1671
▁diesem	-10.1672
本	-10.1677
▁सूची	-10.1678
▁community	-10.1679
ista	-10.168
▁Sorry	-10.1681
▁कह	-10.1685
▁track	-10.169
ний	-10.1698
▁besoin	-10.17
▁partie	-10.1706
▁towards	-10.1707
▁film	-10.1708
▁1998	-10.1713
▁seine	-10.1718
rk	-10.1719
だよ	-10.1722
od	-10.1726
▁Thanks	-10.1733
▁autres	-10.1735
▁80	-10.1736
log	-10.174
ack	-10.1744
пе	-10.1745
fin	-10.1747
▁soy	-10.1747
ある	-10.1756
なの	-10.1757
▁Ш	-10.1762
▁membres	-10.177
▁ils	-10.1771
€	-10.1772
▁include	-10.1774
▁ve	-10.1774
zi	-10.1775
gra	-10.1777
▁longer	-10.1785
▁low	-10.1786
36	-10.1796
▁poco	-10.1797
â	-10.1798
▁quand	-10.1801
▁Also	-10.1803
ः	-10.1807
▁ship	-10.1808
▁quality	-10.181
vent	-10.1813
▁evidence	-10.1815
▁उन्होंने	-10.1815
こ	-10.1816
▁При	-10.1821
▁yes	-10.1821
से	-10.1821
—	-10.1825
▁pen	-10.1828
▁Community	-10.1838
▁कार्य	-10.1839
▁clean	-10.184
▁rules	-10.1841
▁лет	-10.1848
▁hi	-10.1849
▁eu	-10.185
ओ	-10.1855
▁मा	-10.1857
lon	-10.1858
ward	-10.1861
gg	-10.1863
▁Report	-10.1865
44	-10.1871
▁35	-10.1874
▁record	-10.1876
▁सी	-10.1877
▁choice	-10.1885
घ	-10.1886
▁uno	-10.1887
である	-10.1887
heit	-10.1892
▁Information	-10.1894
▁OF	-10.1896
▁sex	-10.1898
▁accept	-10.1903
int	-10.1903
ev	-10.1903
ран	-10.1904
▁solo	-10.1907
▁faith	-10.1907
tas	-10.1909
▁basis	-10.1911
▁ए	-10.1911
▁Mann	-10.1916
▁сказал	-10.1917
▁sit	-10.1926
▁nuevo	-10.1931
стр	-10.1933
Lo	-10.1934
▁Use	-10.1935
AN	-10.1935
▁debe	-10.1946
▁capital	-10.1947
En	-10.1948
▁~	-10.1949
▁États	-10.1956
ном	-10.1958
▁trans	-10.1961
▁step	-10.1964
सा	-10.1965
▁rate	-10.1966
▁ground	-10.1967
▁alles	-10.1969
▁exist	-10.197
ious	-10.1971
▁education	-10.1971
ウ	-10.1977
▁dream	-10.1978
▁looks	-10.1981
▁कम	-10.1985
▁write	-10.1988
cr	-10.1994
our	-10.1998
▁कभी	-10.2001
uck	-10.2002
rat	-10.2006
27	-10.202
▁lead	-10.2022
▁less	-10.2026
▁где	-10.2026
фи	-10.2028
▁autre	-10.2033
ことを	-10.2035
▁Oui	-10.2036
▁fair	-10.2046
力	-10.2048
▁hasta	-10.2048
▁बाद	-10.2049
▁dar	-10.2049
一	-10.2053
シ	-10.2056
ビ	-10.2058
ってる	-10.206
▁Bon	-10.2061
ku	-10.2062
én	-10.2063
▁É	-10.2063
ador	-10.2067
▁थी	-10.2071
▁size	-10.2071
▁became	-10.2072
▁mundo	-10.2072
▁Secretary	-10.2077
▁Africa	-10.2083
▁Qui	-10.2087
AS	-10.2089
▁прав	-10.209
▁press	-10.2092
▁crazy	-10.2095
▁several	-10.2095
バ	-10.2112
▁antes	-10.2114
bb	-10.2116
▁accident	-10.2129
tan	-10.2137
▁paper	-10.2139
▁travel	-10.2142
▁nature	-10.2149
▁Hello	-10.2155
▁Any	-10.2157
tura	-10.2158
▁South	-10.2159
▁2006,	-10.216
ат	-10.2163
▁Jesus	-10.2168
ности	-10.2169
▁apartment	-10.2172
▁specific	-10.2173
▁review	-10.2177
▁original	-10.2178
urs	-10.2179
▁More	-10.2179
▁considered	-10.2191
▁würde	-10.2192
зи	-10.2193
ाई	-10.2197
▁condition	-10.2197
▁वाले	-10.2198
34	-10.2201
▁pass	-10.2204
▁source	-10.2211
▁box	-10.2218
▁whose	-10.2225
cing	-10.2225
ière	-10.2226
▁32	-10.2228
▁Bank	-10.2228
eurs	-10.2237
▁себя	-10.2238
▁फ	-10.2241
▁soll	-10.2249
wer	-10.225
ima	-10.2252
▁Page	-10.2252
▁seconds	-10.2253
バー	-10.2254
ction	-10.2257
▁सं	-10.2258
地	-10.2262
▁परवरदिगार	-10.2262
回	-10.2262
▁media	-10.2264
▁そして	-10.2264
▁implementation	-10.2265
lar	-10.2265
▁receive	-10.2266
▁bas	-10.2268
▁problems	-10.2274
▁тем	-10.2283
kin	-10.2284
▁Human	-10.2288
▁छवि	-10.2288
▁Herr	-10.2291
lan	-10.2291
▁search	-10.2293
▁Paris	-10.2301
▁due	-10.2306
▁arm	-10.2309
▁reach	-10.2311
▁लिया	-10.2311
▁article	-10.2312
43	-10.2318
▁"%	-10.232
▁ल	-10.2321
ille	-10.2321
▁add	-10.2325
▁私が	-10.2331
▁あの	-10.2332
▁character	-10.2335
▁married	-10.2335
ura	-10.2338
▁ह	-10.2354
国	-10.2359
▁client	-10.2359
dem	-10.236
▁anymore	-10.236
ified	-10.2364
行	-10.2366
bra	-10.2374
▁pan	-10.2382
adas	-10.2383
▁cours	-10.2384
▁Israel	-10.2386
ctor	-10.2387
▁euch	-10.2389
del	-10.2391
▁adopted	-10.2396
▁вер	-10.2399
vé	-10.2399
▁suit	-10.2401
ID	-10.2403
▁bu	-10.2407
▁Assembly	-10.2408
▁opinion	-10.2408
▁doubt	-10.2408
▁उनकी	-10.2409
▁हमें	-10.2414
▁droit	-10.2418
▁Har	-10.2418
▁Post	-10.2423
▁après	-10.2424
ME	-10.2425
▁inform	-10.2426
▁Which	-10.2432
▁développement	-10.2433
▁Comisión	-10.2433
▁China	-10.2435
▁Euro	-10.2436
▁cool	-10.2437
▁fl	-10.2438
▁mise	-10.244
▁Park	-10.2445
▁hot	-10.2451
▁Paul	-10.2452
▁street	-10.2457
▁Wi	-10.2457
▁TV	-10.2462
された	-10.2464
hen	-10.247
▁points	-10.247
▁bear	-10.2471
US	-10.2472
▁none	-10.2475
▁êtes	-10.2476
General	-10.2478
▁interest	-10.2478
▁thy	-10.2479
टा	-10.248
▁item	-10.2486
tique	-10.2489
▁event	-10.2493
▁File	-10.2495
話	-10.2497
▁zwei	-10.2504
light	-10.2505
▁बड़ा	-10.2506
पर	-10.2512
だろ	-10.2519
▁इ	-10.2524
BAR	-10.2528
▁history	-10.2534
▁Stop	-10.2539
▁hair	-10.2545
ры	-10.2549
▁z	-10.2549
vie	-10.255
▁д	-10.2558
ute	-10.2559
▁Мо	-10.2559
ंग	-10.2561
▁win	-10.2563
▁often	-10.2565
wo	-10.2565
▁difficult	-10.2568
▁efforts	-10.2569
75	-10.2576
▁floor	-10.258
▁crime	-10.258
▁effect	-10.2581
▁Listen	-10.2582
▁request	-10.2583
serv	-10.2585
ите	-10.2592
▁ア	-10.2595
>	-10.2602
▁लगता	-10.2606
▁believers	-10.261
▁regional	-10.2618
▁mm	-10.2628
▁Dios	-10.2631
antes	-10.2632
▁port	-10.2632
▁cosas	-10.2642
▁learn	-10.2643
ック	-10.2646
mail	-10.2647
▁estás	-10.2648
▁sí	-10.265
▁Hell	-10.2652
nz	-10.2656
▁vu	-10.2656
cc	-10.2656
istic	-10.2665
▁below	-10.2669
▁German	-10.2672
▁region	-10.2673
言った	-10.2676
▁juste	-10.2678
▁これは	-10.2679
▁welcome	-10.268
▁energy	-10.268
▁<	-10.2687
49	-10.2689
ind	-10.2692
gt	-10.2693
rr	-10.2697
▁मान	-10.2701
▁donc	-10.2702
▁छोड़	-10.2704
▁patient	-10.2705
▁сейчас	-10.2705
▁Sha	-10.2707
ther	-10.2708
▁2009,	-10.271
cor	-10.2715
▁Plan	-10.2719
▁Jahre	-10.2731
▁worth	-10.2738
ng	-10.2742
▁Со	-10.2743
▁де	-10.2746
▁Hand	-10.2752
▁Eine	-10.2753
長	-10.2753
▁major	-10.2753
▁IN	-10.2753
合	-10.2755
▁van	-10.2755
▁w	-10.2755
▁einfach	-10.2757
▁Esto	-10.2758
▁Other	-10.2758
▁Auto	-10.2773
ans	-10.2773
table	-10.2774
37	-10.2778
Te	-10.2783
ную	-10.2786
▁(19	-10.2789
fen	-10.2791
▁noche	-10.2796
▁hatte	-10.2799
▁tener	-10.2799
my	-10.2803
▁200	-10.2806
▁target	-10.2806
▁Kon	-10.2808
▁Welt	-10.281
▁poor	-10.2813
sis	-10.2813
▁approach	-10.2816
pé	-10.2822
▁seems	-10.2828
berg	-10.283
▁staff	-10.2832
▁rather	-10.2833
▁今	-10.2837
▁sh	-10.2839
▁eye	-10.284
後	-10.2845
サ	-10.2846
ел	-10.2853
▁ему	-10.2858
生	-10.286
▁пре	-10.2863
▁fais	-10.2864
▁Leben	-10.2866
▁model	-10.2868
▁Every	-10.2869
vin	-10.2871
lichen	-10.2872
▁self	-10.2877
▁attention	-10.2878
cre	-10.2878
▁Comp	-10.2883
▁neither	-10.2883
▁aller	-10.2887
▁बना	-10.289
nis	-10.289
▁otra	-10.29
ales	-10.2901
3)	-10.2902
▁Sub	-10.2903
▁camp	-10.2907
▁David	-10.2909
▁Annex	-10.291
ंड	-10.2911
▁till	-10.2912
▁मार	-10.2915
▁जाता	-10.2915
▁born	-10.292
mie	-10.2923
rte	-10.2928
né	-10.2929
ミ	-10.2932
▁peuvent	-10.2935
sión	-10.294
isch	-10.294
▁desde	-10.2944
▁language	-10.2946
▁Peter	-10.2949
95	-10.295
65	-10.295
▁пред	-10.295
▁white	-10.2961
▁murder	-10.2961
rio	-10.2962
ssen	-10.2968
▁bo	-10.2968
▁Christ	-10.2969
▁double	-10.297
▁Ki	-10.2973
しい	-10.2979
▁ма	-10.2981
pri	-10.2983
▁воз	-10.2984
通	-10.2985
▁sécurité	-10.2986
▁network	-10.2986
▁progress	-10.2987
▁daß	-10.2987
कार	-10.2988
information	-10.299
▁count	-10.2995
▁witness	-10.2996
bit	-10.2997
уч	-10.3001
▁sehen	-10.3002
▁मेरा	-10.3014
▁complete	-10.3018
▁सिर्फ	-10.3018
▁ro	-10.3023
▁eres	-10.3026
▁accord	-10.3027
▁forma	-10.3032
▁sagen	-10.3032
▁Inter	-10.3034
▁located	-10.3038
гл	-10.3039
▁Sal	-10.304
AC	-10.3041
85	-10.3043
▁Put	-10.3043
ティ	-10.3048
76	-10.3051
▁vote	-10.3053
▁всех	-10.3054
▁weeks	-10.3058
fall	-10.3058
▁bi	-10.3061
▁более	-10.3064
▁host	-10.3067
▁modern	-10.3068
бо	-10.3069
▁telling	-10.307
▁बा	-10.3072
▁computer	-10.3075
▁attack	-10.308
जा	-10.3089
▁何か	-10.3089
▁online	-10.3093
▁君は	-10.3096
ST	-10.3098
▁Programme	-10.3098
▁Ze	-10.3099
▁toute	-10.3103
off	-10.3104
んで	-10.3107
▁Web	-10.311
emos	-10.311
▁ran	-10.3117
़	-10.3118
らない	-10.3122
グ	-10.3123
▁जिन	-10.3125
▁Chi	-10.3129
▁bus	-10.3132
yer	-10.3133
▁cases	-10.3134
cken	-10.3136
47	-10.3138
▁Air	-10.314
主	-10.3142
ными	-10.3144
▁files	-10.3147
▁cet	-10.3148
▁miss	-10.3149
▁established	-10.3151
▁contract	-10.3151
▁लगा	-10.3155
sk	-10.3161
▁стран	-10.3163
क्ष	-10.3165
bla	-10.3167
▁Public	-10.3169
▁cooperation	-10.3169
▁active	-10.317
▁however	-10.3171
▁enjoy	-10.3174
▁había	-10.3174
Р	-10.3176
ji	-10.3177
▁treatment	-10.3183
▁hate	-10.3186
टी	-10.3187
▁этот	-10.3192
▁actual	-10.3197
▁हाँ	-10.32
かな	-10.32
нов	-10.3202
old	-10.3204
sha	-10.3205
ay	-10.3206
EL	-10.3212
ito	-10.3214
98	-10.3215
▁thanks	-10.3219
ges	-10.3222
ません	-10.3226
▁données	-10.3231
のよ	-10.3237
42	-10.3239
ari	-10.324
▁Fi	-10.3253
ように	-10.3253
▁mort	-10.3256
▁YOU	-10.3257
▁changes	-10.3264
ак	-10.3266
▁Surely	-10.3267
▁compar	-10.3271
▁décision	-10.3275
cia	-10.3276
▁Así	-10.3281
ight	-10.3283
▁explain	-10.3284
▁Tr	-10.3285
▁Sun	-10.3295
▁ф	-10.3296
▁dont	-10.3301
▁रंग	-10.3302
▁Вот	-10.3307
▁emp	-10.3312
時間	-10.3313
ye	-10.3313
77	-10.3314
▁Call	-10.3318
▁wurden	-10.3318
тов	-10.3319
tions	-10.332
▁extra	-10.3326
DA	-10.3327
ール	-10.3328
▁caso	-10.3332
▁mode	-10.3334
▁Court	-10.3335
िन	-10.3338
▁seem	-10.334
▁location	-10.3352
ことは	-10.3352
:10	-10.3353
▁acuerdo	-10.3355
▁Über	-10.3355
▁Mark	-10.3355
▁map	-10.3356
ea	-10.3358
38	-10.3366
▁documents	-10.338
▁star	-10.3384
▁ain	-10.3386
▁nom	-10.3391
▁Gar	-10.3393
▁बे	-10.3394
्ल	-10.3395
車	-10.3399
ガ	-10.3407
▁Bei	-10.3408
88	-10.3408
▁music	-10.3409
▁bomb	-10.3411
▁note	-10.3411
स्	-10.3411
▁dieses	-10.3412
▁remain	-10.3414
▁resources	-10.3417
▁Ф	-10.3419
▁Jahr	-10.3419
är	-10.3422
ции	-10.3422
▁それで	-10.3429
▁divers	-10.343
▁estado	-10.343
▁ला	-10.3431
dia	-10.3437
▁content	-10.344
▁guard	-10.3444
▁range	-10.3448
hin	-10.345
ства	-10.3451
▁member	-10.3452
▁direction	-10.3453
ok	-10.3466
▁1997	-10.3467
▁gente	-10.3468
▁году	-10.3472
лся	-10.3475
▁therein	-10.3475
ule	-10.348
Pa	-10.3486
父	-10.349
ju	-10.3491
▁ainsi	-10.3491
ology	-10.3491
▁ख	-10.3494
▁них	-10.3496
©	-10.3502
▁individual	-10.3507
▁seven	-10.3507
▁Una	-10.351
▁त्रुटि	-10.3517
лов	-10.3519
ability	-10.352
▁него	-10.3523
лась	-10.3523
ター	-10.3525
arse	-10.3534
55	-10.3536
▁City	-10.3537
▁denn	-10.3538
▁после	-10.3544
女	-10.3544
▁term	-10.3545
▁Social	-10.3549
▁Moses	-10.3549
▁dollars	-10.3549
ow	-10.355
▁itself	-10.3552
見	-10.3552
▁etc	-10.3556
▁どう	-10.3559
press	-10.3564
▁cap	-10.3564
▁あなたの	-10.3568
गा	-10.3568
▁chez	-10.3574
ですか	-10.3577
▁Frank	-10.358
han	-10.3589
CH	-10.3591
▁culture	-10.3598
▁hearts	-10.3599
▁Michael	-10.3599
▁recherche	-10.3599
▁दिखाएँ	-10.3603
iva	-10.3606
place	-10.3607
96	-10.3611
mic	-10.3611
▁quelque	-10.3616
▁forth	-10.3618
▁entire	-10.3619
SE	-10.362
言う	-10.3623
mas	-10.3632
▁Hay	-10.3632
▁Т	-10.3636
iff	-10.3636
stand	-10.3637
▁Mom	-10.3641
▁decided	-10.3644
▁cm	-10.3645
ौ	-10.3648
▁tanto	-10.3648
キ	-10.3653
▁क्यों	-10.3654
▁Kommission	-10.3655
▁Tri	-10.3659
ong	-10.3661
▁groups	-10.3669
pr	-10.3669
▁кон	-10.3671
▁Such	-10.3673
▁Gi	-10.3675
▁sollte	-10.368
▁ऐ	-10.368
oy	-10.368
нибудь	-10.3682
▁straight	-10.3682
▁पैदा	-10.3682
▁आदमी	-10.3682
46	-10.3683
▁много	-10.3684
▁village	-10.3687
▁Fall	-10.3688
▁TO	-10.3698
▁なぜ	-10.3703
▁nie	-10.3707
数	-10.371
▁depuis	-10.371
▁tax	-10.3712
▁viel	-10.3713
вы	-10.3713
▁ton	-10.3714
▁changed	-10.3717
tern	-10.3721
gie	-10.3724
por	-10.3727
▁Red	-10.3729
lia	-10.3731
▁maintenant	-10.3738
▁padre	-10.3738
▁च	-10.3741
cción	-10.3743
▁Send	-10.3746
▁firm	-10.3749
до	-10.375
vert	-10.3752
DI	-10.3759
▁nosotros	-10.3766
▁ничего	-10.3766
иться	-10.3767
tant	-10.3773
▁いや	-10.3773
▁мой	-10.3773
▁otro	-10.3774
▁card	-10.3778
▁radio	-10.378
▁asking	-10.3784
▁mag	-10.379
pon	-10.3791
▁victim	-10.3794
▁один	-10.3795
ables	-10.3795
▁rule	-10.3798
▁sick	-10.38
▁Verily	-10.3807
でしょう	-10.381
AD	-10.3819
cio	-10.382
▁hablar	-10.3821
iser	-10.3822
▁trois	-10.3822
▁घर	-10.3822
▁Keep	-10.3822
▁Check	-10.3825
inter	-10.3831
じゃ	-10.3831
▁transfer	-10.3832
▁fr	-10.3835
wä	-10.3835
78	-10.3843
-2	-10.3845
sur	-10.3851
▁хорошо	-10.3852
▁verdad	-10.3855
▁याद	-10.3855
▁私	-10.3856
EG	-10.3857
▁Move	-10.3857
mmer	-10.3859
:15	-10.3864
▁rain	-10.3867
▁momento	-10.3867
▁aid	-10.3869
▁addition	-10.3879
▁ऐसा	-10.3879
▁Europa	-10.388
金	-10.3886
▁Up	-10.3889
ç	-10.3889
▁Service	-10.3891
iger	-10.3891
▁だが	-10.3892
ray	-10.3892
▁West	-10.3893
▁believed	-10.39
don	-10.3903
▁sens	-10.3907
なんだ	-10.3909
▁Ven	-10.391
ara	-10.391
ett	-10.3913
रे	-10.3914
DE	-10.3914
▁button	-10.3917
たい	-10.3922
ache	-10.3925
aron	-10.3926
▁export	-10.3928
▁33	-10.3928
イン	-10.3934
になる	-10.3938
▁round	-10.3938
og	-10.3944
▁prepared	-10.3944
▁importante	-10.3945
▁36	-10.3949
ident	-10.395
ста	-10.395
▁gouvernement	-10.3951
uf	-10.3954
ert	-10.3956
67	-10.3958
af	-10.396
मान	-10.3961
できる	-10.3964
▁throw	-10.3964
ico	-10.3964
▁चाहता	-10.3964
дер	-10.3964
▁Development	-10.3965
pan	-10.3965
▁connection	-10.3968
▁werde	-10.3968
▁allow	-10.3969
tage	-10.3969
▁tour	-10.3971
▁personnes	-10.3972
▁Select	-10.3974
▁messages	-10.3977
schaft	-10.3985
UE	-10.399
▁(3	-10.399
5)	-10.3992
▁думаю	-10.3992
▁stupid	-10.3992
▁lose	-10.4001
▁Mary	-10.4001
Do	-10.4003
termin	-10.4004
オ	-10.4004
kommen	-10.4005
▁concerning	-10.4007
▁चल	-10.4009
▁(3)	-10.4009
▁begin	-10.4009
▁होता	-10.4011
41	-10.4015
це	-10.4015
▁ball	-10.4016
―	-10.402
▁300	-10.4021
:45	-10.4021
▁appropriate	-10.4021
▁который	-10.4021
▁Special	-10.4021
▁boys	-10.4025
кой	-10.4029
▁anderen	-10.403
▁seek	-10.4033
्त	-10.4037
87	-10.4039
▁sicher	-10.4048
▁verily	-10.405
▁George	-10.405
▁चुनें	-10.405
ront	-10.4057
▁Ok	-10.4061
CO	-10.407
▁System	-10.4072
▁match	-10.4078
▁santé	-10.4078
▁somebody	-10.4079
▁girls	-10.4079
▁Office	-10.4081
क़	-10.4085
tos	-10.4093
▁マ	-10.4093
▁cre	-10.4098
you	-10.41
▁li	-10.41
▁grande	-10.4106
▁terrible	-10.4107
▁можно	-10.4107
▁विंडो	-10.4107
66	-10.4109
▁До	-10.4113
れば	-10.4114
▁East	-10.4114
言	-10.412
▁Ste	-10.4121
▁join	-10.4123
▁impact	-10.4124
▁familia	-10.4127
rin	-10.4127
▁expect	-10.4128
▁systems	-10.4131
▁similar	-10.4136
▁Für	-10.4136
▁solution	-10.4142
Es	-10.4143
ali	-10.4144
arme	-10.4145
ща	-10.4146
ging	-10.4148
▁Ve	-10.4153
81	-10.4165
▁Телефон	-10.4165
▁должен	-10.4165
▁relationship	-10.4166
▁Nothing	-10.4166
nu	-10.4166
▁petit	-10.4168
▁heaven	-10.417
els	-10.4171
▁1996	-10.4171
गे	-10.4177
hui	-10.418
lor	-10.418
前に	-10.4181
▁takes	-10.4184
▁Hab	-10.4189
уп	-10.4189
ase	-10.419
▁ellos	-10.4194
▁Board	-10.4196
▁prayer	-10.4199
▁Ка	-10.4199
▁playing	-10.42
▁King	-10.42
ON	-10.421
ц	-10.4211
▁tienes	-10.4213
dis	-10.4217
▁responsible	-10.4224
▁ко	-10.4224
▁Про	-10.4224
▁object	-10.4225
.000	-10.4225
्ट	-10.4226
▁fix	-10.423
ateur	-10.4233
53	-10.4234
▁god	-10.4235
▁человек	-10.4243
एं	-10.4247
今	-10.4248
/2016	-10.4248
▁menos	-10.4249
▁Gra	-10.4257
▁От	-10.4258
िल	-10.4261
とは	-10.4262
▁ch	-10.4263
▁waren	-10.4264
▁ш	-10.4265
ись	-10.4265
家	-10.4269
▁consult	-10.4272
▁fa	-10.4272
sel	-10.4274
▁damit	-10.4285
bas	-10.4285
▁Kinder	-10.4291
row	-10.4293
▁across	-10.4294
▁avons	-10.4294
▁according	-10.4297
▁пол	-10.4297
▁serve	-10.4299
▁vos	-10.4299
▁sûr	-10.4312
▁Ces	-10.4313
▁trop	-10.4315
ंक	-10.4317
▁(0)	-10.4318
なんて	-10.4325
▁cada	-10.4333
What	-10.4338
aient	-10.4341
▁University	-10.4342
▁Conference	-10.4342
▁cuenta	-10.4342
▁सका	-10.4342
▁environment	-10.4347
入	-10.4349
мо	-10.435
▁Haus	-10.435
ность	-10.4352
▁Nr	-10.4354
So	-10.4356
▁cat	-10.4361
▁concerned	-10.4362
られる	-10.4363
▁Estados	-10.4365
4)	-10.4366
сть	-10.4366
▁forgive	-10.4371
▁jusqu	-10.4372
▁Pri	-10.4374
▁tri	-10.4375
ira	-10.4376
様	-10.4376
▁तुम्हारी	-10.4377
ее	-10.4377
▁deine	-10.4382
▁focus	-10.4384
▁apply	-10.4385
しない	-10.439
外	-10.439
▁credit	-10.4393
▁requirements	-10.4399
▁podría	-10.44
▁déjà	-10.4401
▁70	-10.4405
ё	-10.4414
▁club	-10.4419
▁picture	-10.4422
▁stage	-10.4425
And	-10.4428
▁multi	-10.4431
▁Saturday	-10.4431
▁doivent	-10.4431
▁Make	-10.4431
▁ahí	-10.4431
▁RE	-10.4433
61	-10.4433
▁context	-10.4434
xi	-10.4434
▁आपको	-10.4434
▁बार	-10.4436
LA	-10.4445
स्त	-10.4445
ды	-10.4446
▁彼の	-10.4447
▁worked	-10.445
いない	-10.4452
vel	-10.4458
:11	-10.4458
▁import	-10.4459
ê	-10.4459
▁choose	-10.4461
▁день	-10.4461
▁является	-10.4461
▁её	-10.4461
▁handle	-10.4462
▁Mu	-10.4464
▁greater	-10.4466
▁rat	-10.4466
▁Х	-10.4468
▁drop	-10.4468
बी	-10.447
▁enfants	-10.4472
teil	-10.4477
▁होने	-10.4484
▁judge	-10.4484
▁俺は	-10.4484
▁mail	-10.4485
▁तथा	-10.4491
▁operation	-10.4491
▁safety	-10.4493
nal	-10.4495
ake	-10.4498
ила	-10.4499
▁́	-10.4499
▁disc	-10.4501
oso	-10.4504
▁mois	-10.4507
Al	-10.4508
▁Frau	-10.4509
▁जाने	-10.4512
дел	-10.4512
▁मैंने	-10.4513
▁cold	-10.4513
▁Bu	-10.4514
▁min	-10.4514
▁toutes	-10.4518
▁prevent	-10.452
▁Captain	-10.4521
▁नया	-10.4526
▁перед	-10.4527
▁Cu	-10.4528
It	-10.4528
amp	-10.4529
▁persons	-10.4531
ás	-10.4531
54	-10.4532
▁Estoy	-10.4534
▁Dec	-10.4535
▁ange	-10.4543
▁feet	-10.4547
ша	-10.455
▁あなた	-10.4551
▁Fri	-10.4553
▁glad	-10.4553
所	-10.4554
▁torment	-10.4554
ify	-10.4554
▁crois	-10.4555
▁lieu	-10.4557
68	-10.4558
▁politique	-10.4565
ular	-10.4566
ニ	-10.457
▁дела	-10.4573
▁それ	-10.4575
ина	-10.4576
▁harm	-10.4582
▁dijo	-10.4584
▁vraiment	-10.4585
▁Wa	-10.4586
来た	-10.4587
ienne	-10.4589
より	-10.4593
RA	-10.4595
▁terms	-10.4596
▁Hier	-10.4598
э	-10.4601
▁plant	-10.4602
top	-10.4602
発	-10.4605
eu	-10.4606
▁personnel	-10.4609
▁partir	-10.4609
:12	-10.4611
▁Central	-10.4612
▁Centre	-10.4616
ँ	-10.4617
▁tres	-10.4626
isse	-10.4628
▁Br	-10.463
▁assistance	-10.4633
TA	-10.4633
lang	-10.4639
Ma	-10.4641
san	-10.4644
▁paid	-10.4645
▁parece	-10.4647
▁aim	-10.4648
▁increased	-10.4648
作	-10.4652
▁justice	-10.4653
▁wonder	-10.4655
OS	-10.4656
ком	-10.4658
▁seit	-10.4661
▁pain	-10.4669
bau	-10.4669
▁criminal	-10.4673
▁द्वारा	-10.4673
▁mistake	-10.4673
▁12.	-10.4674
▁chaque	-10.4674
▁involved	-10.468
▁droits	-10.4683
▁gusta	-10.4684
▁Since	-10.4686
ario	-10.4687
▁Juli	-10.4687
via	-10.4693
▁bag	-10.4699
▁premier	-10.4704
▁उसका	-10.4705
▁debate	-10.4707
This	-10.4707
हा	-10.471
▁ч	-10.4712
▁study	-10.4713
▁fuera	-10.4713
wei	-10.4716
▁Teil	-10.4718
▁Set	-10.4719
▁48	-10.4719
▁ans	-10.472
ости	-10.472
▁task	-10.4722
ик	-10.4723
क्	-10.4724
▁vue	-10.473
yo	-10.4733
ツ	-10.4734
▁siempre	-10.4734
but	-10.4735
▁Alors	-10.4737
▁leaving	-10.4741
▁rich	-10.4743
стан	-10.4746
▁cast	-10.4747
▁prendre	-10.4748
63	-10.475
▁deep	-10.4752
▁band	-10.4754
▁gar	-10.4755
▁Va	-10.4756
nen	-10.476
▁success	-10.4765
ぶ	-10.4765
▁Este	-10.4765
▁Europäische	-10.4765
▁voice	-10.4765
▁2005,	-10.4771
बा	-10.4772
lä	-10.4775
दार	-10.4776
▁raised	-10.4781
▁plans	-10.4784
▁500	-10.4786
▁trip	-10.4791
▁fish	-10.4793
▁user	-10.4795
▁वापस	-10.4796
▁blind	-10.4796
▁everybody	-10.4796
▁Preis	-10.4797
».	-10.4797
▁ahead	-10.4801
rib	-10.4802
ham	-10.4807
▁letter	-10.4808
▁board	-10.4809
▁saved	-10.4813
▁1995	-10.4813
57	-10.4815
▁coup	-10.4819
sign	-10.4821
▁famille	-10.4827
▁gehen	-10.4828
▁señor	-10.4831
पी	-10.4835
64	-10.4837
î	-10.484
स्ट	-10.484
dio	-10.485
pel	-10.4853
体	-10.4858
▁raison	-10.4859
▁various	-10.4859
▁North	-10.4861
▁Out	-10.4864
▁तुम्हारा	-10.4864
▁gegen	-10.4868
▁उसी	-10.4869
▁App	-10.4871
illo	-10.4876
dé	-10.4884
知	-10.4886
▁beaucoup	-10.489
▁première	-10.489
▁alguien	-10.489
▁authority	-10.4891
:20	-10.4895
az	-10.4898
ाल	-10.49
▁जाना	-10.4901
ration	-10.4902
▁parti	-10.4903
ane	-10.4905
met	-10.4905
▁moving	-10.4921
▁Ahora	-10.4921
AT	-10.4922
0,000	-10.4924
▁Nicht	-10.4926
TE	-10.4926
action	-10.4927
cause	-10.4934
▁#2	-10.4934
mé	-10.494
97	-10.4942
▁flow	-10.4943
eg	-10.4945
iti	-10.4946
▁CD	-10.4948
war	-10.4948
▁function	-10.4948
▁dark	-10.4949
ient	-10.4949
пер	-10.4949
▁haber	-10.495
AM	-10.495
▁dice	-10.4951
▁डाल	-10.4951
じ	-10.4952
▁अधिक	-10.4952
▁guidance	-10.4952
▁dinner	-10.4952
▁dois	-10.4953
▁plane	-10.4955
ierung	-10.4962
cion	-10.4962
ताकि	-10.4964
▁informe	-10.4966
▁ven	-10.4966
ним	-10.4967
▁Col	-10.4968
▁Russian	-10.4969
だと	-10.4971
▁tenía	-10.4971
sum	-10.4972
仕事	-10.4972
ца	-10.4975
▁9.	-10.4977
▁personne	-10.4978
▁kein	-10.4979
▁después	-10.4984
▁Pourquoi	-10.4984
lement	-10.4986
set	-10.4987
▁Super	-10.4988
▁пока	-10.4988
▁général	-10.4989
▁सर्वर	-10.4991
▁material	-10.4995
▁Dé	-10.4998
тра	-10.5002
die	-10.5003
चा	-10.5009
▁2010,	-10.5009
sie	-10.5011
tch	-10.5013
▁Global	-10.5016
▁Health	-10.5016
▁बंद	-10.5016
▁balance	-10.5016
▁fille	-10.5017
▁Great	-10.5017
▁Ent	-10.5019
ama	-10.502
▁costs	-10.5024
आ	-10.5024
▁cross	-10.5029
62	-10.5032
79	-10.5036
▁मिला	-10.5037
目	-10.5037
▁fully	-10.5039
▁millions	-10.5046
▁industry	-10.5047
▁vend	-10.5049
ñ	-10.5053
▁lady	-10.5056
▁shoot	-10.5058
▁Over	-10.5058
▁Gen	-10.5058
▁fo	-10.5059
6)	-10.5069
att	-10.5069
▁honor	-10.5072
▁communication	-10.5073
▁Bas	-10.508
▁nunca	-10.508
▁positive	-10.5081
▁यही	-10.5082
▁statement	-10.5082
▁cómo	-10.5082
メ	-10.5085
▁Q	-10.5087
пл	-10.5096
▁Sol	-10.5097
ネ	-10.5097
▁creo	-10.5099
▁standard	-10.51
:07	-10.51
84	-10.5105
▁feeling	-10.5108
▁piece	-10.511
▁additional	-10.5111
▁written	-10.5111
▁response	-10.5111
▁cha	-10.5118
▁bat	-10.512
▁wind	-10.512
▁personas	-10.5137
▁civil	-10.5139
▁righteous	-10.5142
▁kept	-10.5143
▁wipe	-10.5144
ieurs	-10.5146
ress	-10.5149
Л	-10.5151
पा	-10.5155
оль	-10.5157
▁pla	-10.5157
av	-10.516
度	-10.5161
▁ж	-10.5162
▁fell	-10.5165
▁ス	-10.5171
nel	-10.5171
वी	-10.5172
его	-10.5175
ques	-10.5176
:05	-10.5178
▁wollte	-10.5183
▁programa	-10.5184
work	-10.5187
ति	-10.5188
▁log	-10.5189
▁бо	-10.519
▁destroyed	-10.5192
▁catch	-10.5194
▁adopt	-10.5197
▁wissen	-10.5199
ô	-10.5207
▁respond	-10.5208
▁européenne	-10.5211
▁Mor	-10.5215
▁Gott	-10.5216
▁Sur	-10.5218
–	-10.5218
▁Code	-10.5219
ред	-10.5222
▁sol	-10.5222
▁ना	-10.5226
▁そんな	-10.5227
心	-10.5227
前	-10.5228
▁grow	-10.523
▁heute	-10.5231
▁weiter	-10.5233
▁कृपया	-10.524
rez	-10.524
▁Ко	-10.524
▁11.	-10.5246
なさい	-10.5251
rank	-10.5252
▁Vo	-10.5254
kl	-10.5257
▁allowed	-10.5259
gr	-10.5268
▁included	-10.527
▁machine	-10.527
▁devrait	-10.5273
▁status	-10.5273
▁restaurant	-10.5284
▁Pat	-10.5284
aires	-10.5287
се	-10.5291
про	-10.5292
▁з	-10.5292
ny	-10.5295
▁profit	-10.5297
▁Mac	-10.5301
着	-10.5304
▁dinero	-10.5305
▁violence	-10.5305
ose	-10.5306
▁сказать	-10.5308
ili	-10.531
▁Tiene	-10.531
▁planet	-10.5311
▁todas	-10.5314
со	-10.5315
▁bitte	-10.5322
▁Rat	-10.5325
▁Bi	-10.5326
▁किए	-10.533
igkeit	-10.533
▁Ли	-10.5335
▁gestion	-10.5338
▁Monday	-10.5339
▁Max	-10.5343
▁cor	-10.5349
▁deny	-10.535
不	-10.535
▁Eh	-10.5351
▁principal	-10.5354
▁speed	-10.536
書	-10.5366
▁tr	-10.537
▁felt	-10.5371
accord	-10.5372
▁unit	-10.5372
ठ	-10.5372
▁growth	-10.5375
वर	-10.5377
▁Recht	-10.5377
▁nichts	-10.5378
halten	-10.5379
▁человека	-10.5381
▁returned	-10.5382
動	-10.5383
▁भ	-10.5385
2015	-10.5386
▁destroy	-10.5387
itz	-10.539
бер	-10.5393
not	-10.5401
ете	-10.5403
▁coffee	-10.5403
▁equipment	-10.5403
▁Stadt	-10.5404
▁property	-10.5404
▁Ob	-10.5406
▁श	-10.5406
▁font	-10.541
MP	-10.5413
▁вид	-10.5415
▁developed	-10.5425
ष	-10.5428
▁será	-10.5429
▁seat	-10.5431
gún	-10.5435
▁commercial	-10.5436
▁façon	-10.5436
▁capacity	-10.5436
▁punto	-10.5436
▁Sunday	-10.5437
▁Start	-10.5438
▁nuestra	-10.5439
▁これ	-10.544
▁savoir	-10.544
▁hath	-10.5442
▁aren	-10.5444
ова	-10.5448
вали	-10.545
Ð	-10.5451
index	-10.5452
82	-10.5453
rant	-10.5453
अ	-10.5465
cas	-10.5469
▁हुई	-10.547
▁agenda	-10.547
▁गई	-10.547
▁против	-10.5471
▁1994	-10.5472
▁benefit	-10.5473
Be	-10.5478
▁Jan	-10.5481
▁10.	-10.5481
:31	-10.5482
▁Val	-10.5483
halb	-10.5484
▁institutions	-10.5485
nny	-10.5488
73	-10.5489
▁rock	-10.5489
▁buena	-10.5491
▁ohne	-10.5495
▁neue	-10.5495
zer	-10.55
leg	-10.5501
▁Bed	-10.5502
▁beginning	-10.5503
▁план	-10.5503
▁performance	-10.5504
▁activités	-10.5504
▁creation	-10.5508
▁gold	-10.5511
▁agreement	-10.5511
▁Director	-10.5511
ель	-10.5512
▁Unter	-10.5514
▁failed	-10.5515
▁bueno	-10.5518
▁Men	-10.5519
死	-10.5521
▁निश्च	-10.5524
уд	-10.5524
▁equal	-10.5526
ches	-10.5534
▁Fo	-10.5534
▁necesita	-10.5535
▁Location	-10.5537
▁даже	-10.5537
▁Berlin	-10.5538
▁reform	-10.5542
▁Дж	-10.5545
▁ri	-10.5546
▁надо	-10.5549
▁king	-10.555
▁decide	-10.555
▁photo	-10.555
▁ciudad	-10.5554
▁ин	-10.5555
▁foot	-10.5558
eng	-10.556
book	-10.556
▁femmes	-10.556
▁пос	-10.5561
▁www	-10.5571
▁reference	-10.5572
▁sky	-10.5577
▁Р	-10.558
ping	-10.5584
ieron	-10.5586
▁lies	-10.5586
ié	-10.5588
しろ	-10.5596
дет	-10.5597
:40	-10.5597
▁Management	-10.5603
▁London	-10.5603
▁Friday	-10.5603
▁अभी	-10.5604
▁beat	-10.5607
▁reports	-10.561
ende	-10.5613
iques	-10.5614
▁scared	-10.5617
2007	-10.5617
▁projects	-10.5617
▁pris	-10.5618
▁Sc	-10.562
tivo	-10.5621
rc	-10.5622
ска	-10.5624
▁calm	-10.5632
▁affect	-10.5635
▁Very	-10.5636
▁лучше	-10.5637
▁avoid	-10.5637
▁waste	-10.5637
▁route	-10.5639
▁generated	-10.5641
▁Ku	-10.5641
▁Menschen	-10.5643
▁anyway	-10.5644
▁Has	-10.565
▁37	-10.5655
ेट	-10.5662
сп	-10.5663
▁shut	-10.5667
▁Entonces	-10.5671
/04	-10.5672
▁información	-10.5673
▁mieux	-10.5674
2008	-10.5676
▁nuestro	-10.5679
▁construction	-10.5681
▁Ch	-10.5684
▁central	-10.5684
iente	-10.5686
IM	-10.5686
思	-10.5688
чит	-10.5692
rme	-10.5697
▁effective	-10.5697
▁Dann	-10.5702
▁тоже	-10.5706
▁ता	-10.5707
8)	-10.571
てる	-10.5714
▁días	-10.5714
▁agree	-10.5714
▁vamos	-10.5715
▁55	-10.572
auf	-10.5721
▁кр	-10.5723
▁Tout	-10.5724
▁zwischen	-10.5725
-3	-10.5726
▁fonction	-10.5735
▁38	-10.5737
む	-10.5738
▁web	-10.5738
▁Consejo	-10.5738
▁mesures	-10.5743
▁З	-10.5745
▁Vamos	-10.5746
▁alors	-10.5747
▁femme	-10.5748
äu	-10.575
▁お前	-10.575
▁option	-10.5756
▁expected	-10.5758
事を	-10.5766
▁Free	-10.5767
72	-10.5769
вал	-10.5771
▁favour	-10.5771
▁ещё	-10.5773
▁сделать	-10.5773
▁pendant	-10.5773
▁damn	-10.5774
ará	-10.5774
▁जानता	-10.5774
▁followed	-10.5776
mann	-10.578
▁taste	-10.5784
стро	-10.5789
Б	-10.579
▁डर	-10.5792
▁represent	-10.5793
▁dear	-10.5798
/4	-10.5799
CI	-10.5802
▁То	-10.5803
burg	-10.5804
▁swear	-10.5807
▁giving	-10.5807
▁wäre	-10.5807
▁उपयोग	-10.5807
▁foreign	-10.5807
▁matière	-10.5807
▁angels	-10.5809
▁military	-10.581
▁parler	-10.581
▁continu	-10.5812
▁revealed	-10.5813
52	-10.5815
▁Mira	-10.5816
Ch	-10.5816
▁belongs	-10.5823
▁structure	-10.5828
haus	-10.5829
▁стар	-10.5833
pass	-10.5833
rus	-10.5836
▁relevant	-10.5841
▁Наций	-10.5841
▁Sólo	-10.5841
▁technical	-10.5841
▁website	-10.5841
▁technology	-10.5841
▁между	-10.5841
▁6.	-10.5844
▁जान	-10.5849
put	-10.585
▁möchte	-10.5853
cker	-10.5853
lis	-10.5853
гу	-10.5854
ets	-10.5854
Fi	-10.5856
▁Tengo	-10.5858
▁hide	-10.5858
един	-10.5859
▁Sat	-10.5861
ona	-10.5861
▁gives	-10.5862
▁bou	-10.5863
▁présent	-10.5864
board	-10.5865
्म	-10.5865
:21	-10.5866
ート	-10.5867
ंट	-10.5868
▁looked	-10.5875
:17	-10.5875
▁guarantee	-10.5876
▁calendar	-10.5876
▁submitted	-10.5876
▁этим	-10.5878
▁About	-10.5882
tiva	-10.5882
スト	-10.5884
mission	-10.5886
▁(%	-10.5889
▁pal	-10.5889
ones	-10.5889
▁Back	-10.589
rb	-10.589
ock	-10.5893
▁lu	-10.5895
ump	-10.5896
щ	-10.5898
▁kommen	-10.5899
▁君の	-10.59
▁List	-10.59
wel	-10.5906
▁eines	-10.5907
▁finden	-10.5907
▁debería	-10.591
▁déc	-10.591
▁mu	-10.5912
▁weight	-10.5917
▁format	-10.592
ск	-10.592
▁ка	-10.592
/10	-10.5921
ид	-10.5924
▁Ser	-10.5925
geb	-10.5927
▁oil	-10.5929
ает	-10.5931
nta	-10.5936
IP	-10.5938
▁mention	-10.5939
▁pueden	-10.5939
▁concept	-10.594
▁signal	-10.5942
▁society	-10.5945
▁बेशक	-10.5945
▁related	-10.5949
▁Mai	-10.5951
ena	-10.5951
shi	-10.5951
▁evening	-10.5951
86	-10.5953
▁bitch	-10.5967
▁finish	-10.5967
▁bonne	-10.5967
▁Mc	-10.5968
▁эти	-10.5972
▁Mike	-10.5973
▁belong	-10.5975
▁India	-10.5978
▁знаешь	-10.598
étais	-10.598
▁luck	-10.5983
▁trial	-10.5988
▁rein	-10.5995
▁provisions	-10.5995
▁Bau	-10.5998
▁spend	-10.5999
ケ	-10.5999
▁Form	-10.5999
▁eight	-10.6001
El	-10.6011
зы	-10.6012
▁Rights	-10.6014
▁Everything	-10.6015
▁carried	-10.6016
▁movie	-10.6018
▁pr	-10.6018
エ	-10.6019
arte	-10.6019
51	-10.602
▁Объединенны	-10.6021
▁mayor	-10.6022
リン	-10.6025
▁brain	-10.6026
well	-10.6026
▁sell	-10.6029
▁mark	-10.6036
list	-10.6037
▁エ	-10.6039
71	-10.6043
▁никогда	-10.605
▁उनसे	-10.6051
▁patients	-10.6052
▁тех	-10.6053
▁34	-10.6055
▁especially	-10.6056
ores	-10.6058
mat	-10.6059
▁नि	-10.606
▁prove	-10.6065
▁ба	-10.6066
▁año	-10.6067
▁events	-10.6071
▁तुमने	-10.6073
▁ihnen	-10.6073
▁Jahren	-10.6075
ской	-10.6083
▁теперь	-10.6085
▁religion	-10.6085
डी	-10.6085
kel	-10.6086
と思う	-10.6086
▁Black	-10.6086
▁इसके	-10.6089
▁maison	-10.609
how	-10.6092
▁Ist	-10.6092
▁Komm	-10.6096
▁offers	-10.6097
में	-10.6099
rou	-10.6101
▁formation	-10.6102
93	-10.6102
▁ones	-10.6106
▁select	-10.6107
eb	-10.6108
ится	-10.6111
▁Est	-10.6113
итель	-10.6114
▁plain	-10.6118
▁selbst	-10.612
▁नीचे	-10.612
▁wirklich	-10.6121
59	-10.6121
▁दूर	-10.6121
▁Организации	-10.6121
▁потому	-10.6123
される	-10.6124
▁sabes	-10.6125
rd	-10.6125
▁completely	-10.6132
▁center	-10.6133
▁Comme	-10.6136
▁boss	-10.6138
bin	-10.6138
▁particularly	-10.6139
wing	-10.6139
▁खेल	-10.614
▁mess	-10.6145
▁もし	-10.6146
▁gets	-10.615
やる	-10.6152
:23	-10.6152
dr	-10.6154
▁instead	-10.6156
▁exchange	-10.6156
éc	-10.6157
dig	-10.6158
▁participation	-10.6158
▁compris	-10.6158
вин	-10.6163
▁Эй	-10.6165
▁durante	-10.6168
▁あなたが	-10.6168
▁всего	-10.6168
▁directly	-10.6169
▁Го	-10.6171
▁Cre	-10.6172
▁Zimmer	-10.6173
▁chi	-10.6173
▁quiet	-10.6175
rum	-10.6182
げ	-10.619
▁Ten	-10.619
▁encontrar	-10.6191
ati	-10.6202
▁pull	-10.6204
▁मै	-10.6207
▁rent	-10.6208
#	-10.6209
▁Ed	-10.6209
▁Za	-10.6211
▁Thursday	-10.6227
▁built	-10.6227
▁crisis	-10.6227
▁spread	-10.6228
▁funny	-10.6228
▁investment	-10.6232
▁Hotels	-10.6234
TH	-10.6236
▁stock	-10.6238
▁reported	-10.624
eh	-10.6249
▁purpose	-10.6249
▁practice	-10.6249
▁began	-10.6249
nda	-10.6251
▁organization	-10.6253
▁seeing	-10.6256
▁Table	-10.6256
Г	-10.6257
she	-10.6257
ché	-10.6259
UR	-10.6259
▁год	-10.6261
び	-10.6263
▁hundred	-10.6263
:19	-10.6263
▁Cuando	-10.6264
▁Japan	-10.6264
▁tal	-10.6264
▁secteur	-10.6265
дал	-10.6266
view	-10.6267
2006	-10.6269
▁dejar	-10.627
▁Tan	-10.6272
eux	-10.6272
TI	-10.6273
▁君	-10.6274
7)	-10.6274
али	-10.6275
▁तू	-10.6278
▁nouveau	-10.6278
ず	-10.6279
▁print	-10.6282
:24	-10.6283
▁former	-10.6286
gin	-10.6287
▁ring	-10.6288
名	-10.6292
tie	-10.6293
TS	-10.6297
っている	-10.6298
और	-10.6299
▁Economic	-10.6299
▁Когда	-10.6299
ीन	-10.6301
▁своей	-10.6301
▁block	-10.6305
また	-10.6307
▁III	-10.6309
▁groupe	-10.631
▁Find	-10.6314
▁Work	-10.6315
▁calling	-10.6319
69	-10.632
back	-10.632
シー	-10.6326
ご	-10.6328
▁·	-10.6329
▁sweet	-10.6332
▁तरफ	-10.6335
▁zusammen	-10.6335
▁conflict	-10.6335
▁Decision	-10.6336
▁लो	-10.6337
elles	-10.6343
▁marché	-10.6343
人間	-10.6345
name	-10.6347
▁ハ	-10.6347
▁loi	-10.6349
:08	-10.6349
います	-10.6349
▁happens	-10.6353
aff	-10.6354
人の	-10.6356
para	-10.6357
▁macht	-10.6357
uri	-10.6359
▁proposed	-10.636
▁higher	-10.636
▁store	-10.6362
▁perd	-10.6366
▁буду	-10.6367
lly	-10.6368
▁Thus	-10.6368
ость	-10.6371
▁свою	-10.6371
▁प्रयोग	-10.6371
▁होंगे	-10.6372
▁siento	-10.6372
▁дня	-10.6372
St	-10.6372
ora	-10.6374
▁大	-10.6377
▁professional	-10.638
▁shows	-10.6381
▁हमारी	-10.6382
▁niveau	-10.6383
たち	-10.6384
lation	-10.6386
▁importance	-10.6387
asse	-10.6388
ville	-10.639
▁Law	-10.6391
род	-10.6396
▁problème	-10.6397
74	-10.6397
▁wood	-10.6397
▁mot	-10.6399
SP	-10.64
▁AND	-10.64
91	-10.6401
лу	-10.6402
失	-10.6404
gui	-10.6408
▁Merciful	-10.6408
My	-10.6411
▁उनको	-10.6415
▁Pla	-10.6416
▁cela	-10.6416
TER	-10.6418
▁Ма	-10.6423
にも	-10.6424
▁finally	-10.6429
▁combat	-10.643
cle	-10.643
▁जाए	-10.643
▁carry	-10.6433
▁duty	-10.6433
▁produits	-10.6437
वि	-10.6438
▁Fund	-10.6439
▁forever	-10.6439
▁missing	-10.6439
▁science	-10.6441
system	-10.6441
ишь	-10.6441
▁unique	-10.6441
▁semana	-10.6446
:28	-10.6448
▁CO	-10.6449
という	-10.6449
▁суд	-10.645
▁Pol	-10.6451
IR	-10.6453
:22	-10.6454
▁diesen	-10.6454
pu	-10.6457
teur	-10.6458
plo	-10.6458
▁Martin	-10.6459
▁build	-10.646
られた	-10.6461
éré	-10.6462
ている	-10.6468
ओं	-10.6469
vid	-10.6472
▁tant	-10.6473
http	-10.6476
▁pray	-10.6479
sehen	-10.6479
cus	-10.648
▁responsibility	-10.6481
▁ऊपर	-10.6481
▁मदद	-10.6481
▁जानते	-10.6482
aime	-10.6484
nde	-10.6487
▁gu	-10.6492
room	-10.6494
▁photos	-10.6494
▁Adam	-10.6498
rait	-10.65
:49	-10.65
▁Trans	-10.65
▁Their	-10.6503
:16	-10.6504
そ	-10.6507
▁tree	-10.6507
56	-10.6513
्या	-10.6514
▁Ke	-10.6514
▁race	-10.6515
▁सि	-10.6515
▁adult	-10.6515
ек	-10.6517
▁potential	-10.6518
▁sold	-10.6518
MS	-10.6522
▁sight	-10.6522
▁また	-10.6525
▁promised	-10.6525
ever	-10.6527
▁Press	-10.6528
ame	-10.6529
▁boat	-10.6529
▁author	-10.6534
。」	-10.6535
▁View	-10.6536
▁Rec	-10.6537
▁हा	-10.6541
▁sabe	-10.6545
:01	-10.6549
▁actions	-10.6552
▁сегодня	-10.6554
▁тобой	-10.6555
जी	-10.6556
▁USA	-10.6556
▁Sep	-10.6557
▁Fr	-10.6558
▁Pen	-10.6561
達	-10.6561
▁otros	-10.6562
autre	-10.6565
бл	-10.6565
▁समझ	-10.6567
gl	-10.6573
▁afin	-10.6575
:14	-10.6576
私の	-10.6576
▁added	-10.658
:03	-10.6586
▁magic	-10.6588
用	-10.6591
▁कौन	-10.6592
▁wichtig	-10.6592
▁astray	-10.6592
▁उससे	-10.6593
▁pressure	-10.6593
▁Log	-10.6596
ato	-10.66
▁whoever	-10.66
▁exp	-10.6601
mittel	-10.6602
▁hey	-10.6608
▁स्	-10.6611
58	-10.6612
▁Th	-10.6616
セ	-10.6617
間	-10.6617
無	-10.6619
▁reste	-10.6626
field	-10.6626
▁proposal	-10.6627
▁gesagt	-10.6629
▁Project	-10.6629
▁cop	-10.6632
▁कैसे	-10.6632
house	-10.6635
ха	-10.6637
▁quiere	-10.6642
▁फ़	-10.6642
▁Dan	-10.6643
▁passe	-10.6646
▁Arbeit	-10.6647
▁@	-10.6655
として	-10.6657
行く	-10.6658
су	-10.6661
ov	-10.6662
▁まだ	-10.6664
▁partners	-10.6666
▁companies	-10.6666
口	-10.6666
recht	-10.6666
▁पाठ	-10.6667
▁fault	-10.6667
▁students	-10.6668
”.	-10.6668
pect	-10.6672
:04	-10.6672
▁Tro	-10.6679
▁News	-10.6681
▁चलो	-10.6689
satz	-10.669
▁सर	-10.67
悪	-10.67
▁song	-10.6702
▁Directive	-10.6704
▁Father	-10.6704
▁worse	-10.6705
▁Кто	-10.6711
▁женщин	-10.6712
▁niños	-10.6715
▁notice	-10.6719
▁Señor	-10.6721
лось	-10.6728
ात	-10.6729
▁reached	-10.6729
▁mouth	-10.673
道	-10.6732
ラン	-10.6734
over	-10.6735
ция	-10.6735
▁tienen	-10.6736
▁DO	-10.6739
▁enemy	-10.6741
▁authorities	-10.6741
▁valid	-10.6742
▁Bra	-10.6744
▁будут	-10.6744
▁lack	-10.6744
▁valeur	-10.6745
▁Hold	-10.6745
гр	-10.6747
▁Об	-10.6747
▁pourrait	-10.6747
▁ride	-10.6748
▁vis	-10.675
plan	-10.6751
▁pie	-10.6751
人は	-10.6752
iens	-10.6752
▁shouldn	-10.6753
lock	-10.6754
лет	-10.676
94	-10.6763
▁42	-10.6763
read	-10.6769
:44	-10.677
▁pin	-10.677
lig	-10.6777
▁людей	-10.6779
問題	-10.6779
▁department	-10.6779
like	-10.6779
▁Robert	-10.678
▁ski	-10.678
▁दा	-10.6781
▁honest	-10.6781
▁सही	-10.6782
:32	-10.6787
▁venir	-10.6791
ライ	-10.6791
▁conduct	-10.6792
tag	-10.6792
▁hätte	-10.6794
▁manifest	-10.6796
▁Gre	-10.6797
gon	-10.6801
Cause	-10.6801
:26	-10.6802
grad	-10.6803
вать	-10.6805
▁39	-10.681
ense	-10.681
ange	-10.6811
ゴ	-10.6813
▁Tuesday	-10.6817
▁cualquier	-10.6817
▁किताब	-10.6817
▁tenemos	-10.6818
▁suspect	-10.6818
ua	-10.6825
どう	-10.6826
▁Got	-10.683
▁mujer	-10.6839
▁Program	-10.684
▁significa	-10.684
▁folgende	-10.6841
▁interested	-10.6843
▁link	-10.6845
ман	-10.6851
▁shown	-10.6852
▁teacher	-10.6852
aide	-10.6854
内	-10.6855
▁पूछ	-10.6855
▁pourquoi	-10.6855
▁vrai	-10.6856
▁вот	-10.6856
▁secure	-10.6856
:59	-10.6856
▁जाएँ	-10.6857
:50	-10.6858
त्र	-10.6858
AU	-10.6864
▁follows	-10.6864
юсь	-10.6867
▁ganz	-10.6873
▁seul	-10.6873
ья	-10.6876
▁donde	-10.6876
▁arrest	-10.6876
ир	-10.6876
lit	-10.6882
▁43	-10.6883
fo	-10.6883
argent	-10.6886
ata	-10.689
▁types	-10.6893
▁artículo	-10.6893
▁всегда	-10.6893
▁Может	-10.6893
▁रात	-10.6893
▁anybody	-10.6894
▁закон	-10.6896
кс	-10.6897
▁Click	-10.6898
tten	-10.6902
▁disbelieve	-10.6909
head	-10.6909
▁measure	-10.6914
▁Ré	-10.6914
▁operations	-10.6918
rich	-10.6918
▁Grund	-10.692
din	-10.6923
:02	-10.6924
▁partner	-10.693
▁lit	-10.6931
▁opportunity	-10.6931
arch	-10.6932
電話	-10.6938
▁1990	-10.6938
meter	-10.6941
▁Asia	-10.6942
:29	-10.6944
nder	-10.6944
cial	-10.6949
▁thus	-10.6951
▁suite	-10.6952
▁cadre	-10.6954
▁medio	-10.6957
89	-10.6957
▁covered	-10.696
▁Ч	-10.6965
пре	-10.6967
▁fu	-10.6968
ram	-10.6968
▁देखो	-10.6969
ini	-10.6971
▁produce	-10.6971
▁कहते	-10.6972
んです	-10.6976
▁paragraphe	-10.6977
ped	-10.6979
▁items	-10.6985
remos	-10.6987
ика	-10.6988
uit	-10.6988
aste	-10.6992
てくれ	-10.6993
ois	-10.6996
ace	-10.7
▁Ms	-10.7003
▁Best	-10.7004
▁Ak	-10.7004
▁risque	-10.7009
▁sujet	-10.701
ंद	-10.7011
▁contribution	-10.7011
▁device	-10.7012
ез	-10.7012
hether	-10.7015
▁fest	-10.7015
▁Alle	-10.7016
with	-10.702
▁manera	-10.7021
▁joint	-10.7021
▁Gal	-10.7021
▁mat	-10.7022
при	-10.7022
To	-10.7022
hol	-10.7024
▁Bel	-10.7025
▁blow	-10.7026
奴	-10.7029
link	-10.704
(1)	-10.704
できない	-10.7045
自	-10.7046
ender	-10.7046
▁Donnerstag	-10.7047
▁Three	-10.7047
▁ऐसे	-10.7048
通り	-10.7049
mark	-10.7049
▁refer	-10.7049
II	-10.705
▁internationale	-10.7054
▁Ella	-10.7056
▁Total	-10.7059
▁provides	-10.706
▁बि	-10.706
▁separate	-10.7065
▁camera	-10.7066
▁本当に	-10.7067
ización	-10.7068
ど	-10.7072
▁друг	-10.7072
▁nation	-10.7073
▁lassen	-10.7074
utter	-10.7076
▁41	-10.7077
तर	-10.7077
▁Department	-10.7086
▁Président	-10.7086
▁contrôle	-10.7086
▁चला	-10.7086
▁wine	-10.7086
したい	-10.7087
▁मर	-10.7092
▁ville	-10.7095
▁па	-10.7096
るの	-10.7096
▁Kar	-10.7097
▁rooms	-10.7101
▁problema	-10.7102
гра	-10.7102
▁rob	-10.7102
▁puedes	-10.7104
▁developing	-10.7107
year	-10.7107
▁Ð	-10.7108
▁могут	-10.7109
zz	-10.7109
▁générale	-10.7114
でしょ	-10.7116
сы	-10.7116
AP	-10.7118
▁grant	-10.7118
▁Bill	-10.7118
▁numbers	-10.712
▁Pan	-10.7121
▁domaine	-10.7122
ula	-10.7123
ур	-10.7123
▁хочешь	-10.7125
くれ	-10.7125
▁Freitag	-10.7125
oo	-10.7125
▁Freund	-10.7126
avais	-10.7126
▁Den	-10.7128
▁regular	-10.7128
ages	-10.7131
▁nuclear	-10.7136
▁$1	-10.7138
▁deliver	-10.7142
▁Text	-10.7143
ised	-10.7144
▁Prophet	-10.7145
9)	-10.7147
ford	-10.7148
▁Dieu	-10.7149
:18	-10.715
dan	-10.715
だな	-10.7152
▁effet	-10.7152
ыми	-10.716
▁ayuda	-10.7162
▁Wednesday	-10.7164
▁Should	-10.7164
▁Windows	-10.7166
▁James	-10.7166
▁règlement	-10.7166
▁आकार	-10.7166
ox	-10.7168
rado	-10.7172
それ	-10.7173
▁processus	-10.7173
▁Von	-10.7178
▁servants	-10.718
чу	-10.718
ニー	-10.7181
▁Working	-10.7187
ash	-10.7188
▁だから	-10.7191
ノ	-10.7191
bus	-10.7193
▁According	-10.7204
▁sometimes	-10.7204
:56	-10.7204
▁Port	-10.7204
emploi	-10.7208
▁père	-10.7209
▁Mag	-10.7213
ив	-10.7215
its	-10.7224
lim	-10.7225
▁cl	-10.7226
pper	-10.7226
▁mad	-10.7226
position	-10.7228
nom	-10.7228
▁gra	-10.723
▁Canno	-10.7234
▁develop	-10.7239
▁Nord	-10.724
▁referred	-10.7244
▁wealth	-10.7244
▁अपना	-10.7244
▁सबसे	-10.7244
SA	-10.7245
▁lower	-10.7245
こう	-10.7247
:36	-10.7249
lum	-10.7249
▁During	-10.7251
▁procedure	-10.7252
▁artist	-10.7261
бра	-10.7262
pin	-10.7262
▁passed	-10.7265
ум	-10.7268
▁reading	-10.7277
▁moved	-10.7281
▁financier	-10.7283
▁Something	-10.7283
▁Error	-10.7283
▁gift	-10.7283
ских	-10.7283
нес	-10.7286
▁мной	-10.7286
PS	-10.7286
Con	-10.7287
▁Price	-10.7293
ью	-10.7293
ять	-10.7295
▁Ре	-10.7295
टर	-10.7299
dit	-10.7299
schen	-10.7305
▁मे	-10.7309
▁habit	-10.7312
▁Run	-10.7314
学	-10.7316
▁broke	-10.7317
▁अज़ाब	-10.7319
▁gl	-10.732
:25	-10.7321
ric	-10.7321
▁fan	-10.7322
▁beyond	-10.7323
▁perhaps	-10.7323
▁unbelievers	-10.7323
▁économique	-10.7323
▁blue	-10.7323
tica	-10.7324
vol	-10.7325
win	-10.7325
▁click	-10.7325
▁weird	-10.7325
onne	-10.7327
ologie	-10.7328
▁Once	-10.7329
▁horse	-10.7331
pol	-10.7331
▁calls	-10.7333
▁Él	-10.7335
▁51	-10.7336
-4	-10.7336
▁drei	-10.7337
mod	-10.7337
▁Como	-10.734
▁imagine	-10.7341
bie	-10.7341
енно	-10.7344
▁©	-10.7345
▁loved	-10.7345
▁Е	-10.7347
▁आग	-10.7348
▁gens	-10.7352
▁stone	-10.7355
Sa	-10.7358
▁details	-10.736
▁island	-10.736
▁quit	-10.736
▁views	-10.7362
▁Reg	-10.7363
▁Actually	-10.7363
▁average	-10.7363
▁damage	-10.7363
▁सारे	-10.7363
▁aware	-10.7364
лы	-10.7364
CN	-10.7373
reich	-10.7373
▁LA	-10.7374
▁Min	-10.7376
аться	-10.7377
▁Creo	-10.738
:06	-10.738
▁Bad	-10.7384
ware	-10.7385
ika	-10.7386
▁Cour	-10.7392
▁हूं	-10.7403
▁contain	-10.7403
▁Str	-10.7404
вести	-10.7404
environnement	-10.7404
000	-10.7405
▁bro	-10.7408
rom	-10.7409
▁आपके	-10.741
bei	-10.741
▁44	-10.7411
▁dress	-10.7413
▁levels	-10.7414
RC	-10.7417
▁Party	-10.7417
▁llama	-10.7417
ics	-10.7418
▁Stand	-10.7419
▁named	-10.7426
:48	-10.7427
ление	-10.7428
▁dance	-10.7428
nnen	-10.7429
=1	-10.743
tour	-10.7434
▁Informationen	-10.744
明	-10.7442
▁worried	-10.7443
▁helped	-10.7444
än	-10.7445
क्स	-10.7445
悪い	-10.7446
ierte	-10.7447
idos	-10.745
▁cul	-10.7454
▁könnte	-10.7454
fort	-10.7455
▁такой	-10.7457
▁organizations	-10.7457
оп	-10.7462
▁implement	-10.7464
▁reflect	-10.7467
助け	-10.7467
गर	-10.7468
ivo	-10.7469
▁Bal	-10.747
▁net	-10.7477
ского	-10.7478
éri	-10.7481
定	-10.7483
▁ええ	-10.7484
▁Children	-10.7484
TR	-10.7485
▁Warum	-10.7486
▁watching	-10.7488
▁fla	-10.7489
har	-10.7491
▁52	-10.7497
▁deserve	-10.7498
▁ちょっと	-10.7502
▁сп	-10.7503
ベ	-10.7507
▁жив	-10.7507
▁वो	-10.7508
2010	-10.7511
▁mé	-10.7512
▁jo	-10.7513
▁Char	-10.7515
▁те	-10.7516
yn	-10.7519
icia	-10.752
ря	-10.7521
État	-10.7522
▁должно	-10.7524
▁области	-10.7524
▁fond	-10.7525
▁mountains	-10.7525
▁призна	-10.7526
▁somewhere	-10.7526
▁Plus	-10.7526
Quién	-10.7527
▁appointed	-10.7528
▁пар	-10.7528
▁Never	-10.7532
У	-10.7536
छ	-10.7537
▁ней	-10.7537
:57	-10.7541
▁hijo	-10.7541
quer	-10.7541
्व	-10.7546
ский	-10.7549
ook	-10.755
▁hearing	-10.7551
non	-10.7551
▁info	-10.7556
▁moyen	-10.7557
uld	-10.756
正	-10.7564
▁yesterday	-10.7565
▁disease	-10.7565
▁smell	-10.7565
▁parce	-10.7565
▁idiot	-10.7566
▁Main	-10.7569
Mi	-10.7571
▁彼が	-10.7571
▁improve	-10.7572
しました	-10.7573
▁रह	-10.7579
▁concern	-10.7579
▁lived	-10.7583
▁mg	-10.7584
ден	-10.7584
▁46	-10.7589
▁confirm	-10.759
kan	-10.759
▁warm	-10.7591
tim	-10.7595
ении	-10.7597
бу	-10.7598
▁一	-10.76
▁White	-10.7604
▁investigation	-10.7606
▁sistema	-10.7606
▁Therefore	-10.7606
ант	-10.7606
▁framework	-10.7606
ably	-10.7606
gal	-10.7606
▁lawyer	-10.7607
▁cash	-10.7607
nc	-10.7608
▁sitting	-10.7609
Ge	-10.7611
▁ク	-10.7612
▁अनु	-10.762
▁países	-10.7621
▁consideration	-10.7628
пад	-10.7632
▁rates	-10.7635
▁pat	-10.7635
▁Wer	-10.7637
▁agua	-10.7638
हर	-10.7639
▁пункт	-10.7641
だから	-10.7646
▁excellent	-10.7647
▁ज़मीन	-10.7647
▁दोनों	-10.7647
▁через	-10.7647
▁families	-10.7648
▁Message	-10.7649
:51	-10.7649
▁années	-10.7649
zeug	-10.765
▁planning	-10.765
gang	-10.765
мы	-10.7652
▁pack	-10.7653
▁तुमसे	-10.7653
▁clients	-10.7658
:13	-10.7659
▁Nick	-10.7659
:53	-10.7659
сс	-10.7663
▁65	-10.7663
gas	-10.7667
enden	-10.7672
iza	-10.7672
居	-10.7674
मी	-10.7675
:09	-10.7676
▁кар	-10.7678
▁OJ	-10.7679
撃	-10.7679
VE	-10.768
ज़ा	-10.7683
▁cla	-10.7683
▁मत	-10.7684
▁jours	-10.7686
夜	-10.7688
有	-10.7688
▁competition	-10.7689
▁entonces	-10.7689
▁mañana	-10.7689
▁Excuse	-10.7689
▁excuse	-10.7689
▁medical	-10.7689
▁dangerous	-10.7689
▁Someone	-10.769
▁इसमें	-10.769
▁тут	-10.7691
▁surface	-10.7692
RO	-10.7695
$	-10.77
▁terrorist	-10.77
euse	-10.7701
▁प्रति	-10.7703
▁Under	-10.7707
▁burn	-10.7707
▁над	-10.7708
eff	-10.7711
▁estamos	-10.7713
kom	-10.7713
▁Ж	-10.7713
née	-10.7714
場所	-10.7715
nahme	-10.7716
▁options	-10.7718
▁делать	-10.7721
▁farm	-10.7724
IL	-10.7725
▁driver	-10.7728
▁हमेशा	-10.773
▁obey	-10.7731
▁работы	-10.7732
ld	-10.7733
▁allí	-10.7733
▁dernier	-10.7735
▁करेंगे	-10.7736
शा	-10.7738
imos	-10.7741
▁official	-10.7742
▁collect	-10.7747
gh	-10.7747
न्द	-10.7748
▁suppose	-10.7751
▁remove	-10.7751
▁Soy	-10.7755
▁agreed	-10.7756
▁sale	-10.7757
▁Joe	-10.7758
rai	-10.776
▁pasa	-10.7763
mus	-10.7765
▁clearly	-10.7765
▁matters	-10.7769
▁fresh	-10.7772
▁Second	-10.7772
▁wollen	-10.7772
▁49	-10.7773
戦	-10.7773
ству	-10.7777
▁significant	-10.7777
▁Today	-10.778
▁région	-10.7782
▁happening	-10.7782
teurs	-10.7783
:55	-10.7783
11.	-10.7784
/3	-10.7788
ально	-10.7788
ncy	-10.7789
:37	-10.7792
lip	-10.7792
ней	-10.7793
▁starting	-10.7795
▁method	-10.7795
12.	-10.7798
uring	-10.78
ень	-10.78
かれ	-10.7804
▁arrive	-10.7805
▁meant	-10.7807
/17	-10.7808
▁hora	-10.7808
द्	-10.7808
igh	-10.781
▁serait	-10.7813
▁freedom	-10.7814
▁scene	-10.7814
▁female	-10.7814
▁smart	-10.7814
▁maximum	-10.7814
▁Quiero	-10.7814
▁initial	-10.7815
▁Search	-10.7815
▁concernant	-10.7816
▁Jun	-10.7818
ties	-10.7819
рез	-10.7821
▁sagte	-10.7821
▁comprend	-10.7823
under	-10.7825
▁poder	-10.7827
るんだ	-10.7831
▁fruit	-10.7837
100	-10.7837
▁tarde	-10.7838
0€	-10.7841
▁provision	-10.7841
жу	-10.7842
pic	-10.7843
ani	-10.7843
tico	-10.7844
:39	-10.7845
愛	-10.7847
▁cosa	-10.7848
ियाँ	-10.7852
▁Spiel	-10.7852
れる	-10.7854
stellung	-10.7854
▁admit	-10.7855
▁wrote	-10.7856
▁मौजूद	-10.7856
▁promote	-10.7856
▁fill	-10.7857
▁season	-10.7862
▁screen	-10.7863
arlo	-10.7868
について	-10.7868
▁Nice	-10.787
▁IT	-10.7872
▁мо	-10.7873
▁estos	-10.7876
▁Neu	-10.7876
▁wear	-10.7877
forum	-10.7878
eo	-10.7879
▁करे	-10.788
prim	-10.7881
▁primera	-10.7881
mes	-10.7884
mento	-10.7885
▁weak	-10.7887
UN	-10.7888
▁ним	-10.7888
▁gr	-10.789
▁previous	-10.789
▁Tage	-10.789
▁Region	-10.789
▁आज	-10.7892
々	-10.7894
▁organis	-10.7894
▁свои	-10.7896
med	-10.7896
▁birth	-10.7897
▁weil	-10.7898
▁संपर्क	-10.7898
▁volume	-10.7898
▁mankind	-10.7899
▁parts	-10.79
▁flight	-10.79
:35	-10.7901
0)	-10.7902
なく	-10.7905
hlen	-10.7906
▁dia	-10.7907
▁Zi	-10.7908
▁работа	-10.791
▁जोड़ें	-10.7913
PR	-10.7914
▁Ort	-10.7915
▁vari	-10.7916
▁Ger	-10.7918
▁threat	-10.7918
ET	-10.7921
▁хотел	-10.7924
▁nouvelle	-10.7924
▁58	-10.7924
▁formula	-10.7926
▁Leute	-10.7928
▁accepted	-10.7928
mu	-10.7928
och	-10.7928
▁Inc	-10.793
वे	-10.7936
▁Problem	-10.7938
spite	-10.7938
▁1992	-10.7938
▁Cal	-10.7939
▁likely	-10.7939
▁période	-10.794
▁description	-10.794
▁dernière	-10.794
▁विकल्प	-10.794
▁डाक	-10.794
▁Hereafter	-10.794
MA	-10.7942
▁Nobody	-10.7943
ップ	-10.7946
जे	-10.7946
ordre	-10.7946
▁देखा	-10.7947
何か	-10.7952
▁copy	-10.7954
An	-10.7957
▁Italy	-10.7963
▁étaient	-10.7964
кл	-10.7965
iers	-10.7966
hm	-10.7967
▁raise	-10.7967
:27	-10.7968
amiento	-10.7969
▁contains	-10.797
▁kommt	-10.7971
テ	-10.7972
▁mas	-10.7974
▁movement	-10.7979
▁origin	-10.798
arrêt	-10.7982
▁Tel	-10.7982
得	-10.7982
▁ST	-10.7982
▁жизнь	-10.7983
▁phase	-10.7983
▁Saint	-10.7984
CT	-10.7986
amarillas	-10.7986
")	-10.7986
▁title	-10.7987
▁proud	-10.7987
▁Island	-10.7992
ambi	-10.7995
gestellt	-10.7998
▁army	-10.8002
▁finished	-10.8003
пу	-10.8004
lect	-10.8012
▁passé	-10.8017
▁apart	-10.8022
▁trouver	-10.8025
▁Oktober	-10.8025
▁pouvoir	-10.8025
roll	-10.8026
▁veut	-10.8028
▁Mer	-10.8029
▁बदला	-10.8029
▁Vater	-10.803
▁degree	-10.803
▁Change	-10.8032
▁Next	-10.8032
▁Quelle	-10.8034
▁प्राप्त	-10.8036
udi	-10.8038
ーン	-10.804
:41	-10.8041
Oh	-10.8043
▁assist	-10.8044
:38	-10.8045
▁Juni	-10.8047
weg	-10.8048
hö	-10.8049
cke	-10.8049
▁madre	-10.805
▁fer	-10.805
▁Del	-10.8051
▁NO	-10.8052
:42	-10.8053
cup	-10.8053
フィ	-10.8054
▁Vie	-10.8057
▁présente	-10.8059
▁forgot	-10.8067
igo	-10.8067
王	-10.8068
▁должна	-10.8068
▁gentlemen	-10.8069
▁empty	-10.8071
▁Yet	-10.8071
▁usually	-10.8073
▁それが	-10.808
lage	-10.8086
▁writing	-10.8089
SI	-10.8089
▁俺	-10.8095
▁Commissioner	-10.8095
iel	-10.8097
blog	-10.8098
▁Geld	-10.8099
ではない	-10.8103
▁***	-10.8104
ंस	-10.8104
vision	-10.8107
igung	-10.8107
ella	-10.8108
▁1993	-10.8115
▁этих	-10.8116
zy	-10.8116
▁summer	-10.8117
▁mère	-10.8118
▁recent	-10.812
▁мир	-10.8121
media	-10.8122
▁seront	-10.8125
▁series	-10.8126
लो	-10.8127
ius	-10.8129
ban	-10.813
रो	-10.8131
▁forces	-10.8141
▁euro	-10.8144
▁miles	-10.8144
言って	-10.8144
ことが	-10.8147
▁どこ	-10.8149
▁150	-10.815
oh	-10.8151
▁desire	-10.8152
/2015	-10.8153
水	-10.8155
▁Gracias	-10.8155
▁church	-10.8155
▁बड़ी	-10.8155
▁opened	-10.8157
▁basic	-10.8158
▁(4)	-10.8165
pm	-10.8165
▁libre	-10.8169
▁Mein	-10.8169
:46	-10.8171
のに	-10.8171
lot	-10.8172
▁75	-10.8174
▁warning	-10.8174
▁ट	-10.8176
▁strength	-10.8176
▁shop	-10.8182
▁Bull	-10.8184
▁Bro	-10.8187
▁discussion	-10.8188
गो	-10.8189
EP	-10.8191
▁Fu	-10.8193
戻	-10.8193
▁(4	-10.8193
▁Big	-10.8194
▁existing	-10.8194
▁Hast	-10.8197
▁danger	-10.8198
▁Protocol	-10.8198
▁appreciate	-10.8198
▁attempt	-10.8198
▁speech	-10.8198
▁exemple	-10.8198
ami	-10.8199
▁hizo	-10.8199
▁Charlie	-10.8199
▁nu	-10.82
▁spent	-10.8205
▁standards	-10.8206
▁Apr	-10.821
切	-10.8214
▁साल	-10.8216
voir	-10.822
▁killer	-10.8221
Co	-10.8225
▁bio	-10.8226
▁hang	-10.823
ров	-10.8232
той	-10.8233
▁су	-10.8235
▁13.	-10.8239
▁Bring	-10.824
▁política	-10.8242
▁случае	-10.8242
▁यातना	-10.8242
▁pilot	-10.8243
▁package	-10.8246
Da	-10.8247
▁Nur	-10.8247
ук	-10.8248
▁Jane	-10.8248
▁effects	-10.8249
▁Хо	-10.825
▁программ	-10.8251
ес	-10.8253
stehen	-10.8254
▁suggest	-10.8255
▁ligne	-10.8255
▁проект	-10.8259
▁master	-10.8261
vier	-10.8261
▁пи	-10.8261
ax	-10.8266
()	-10.8266
реш	-10.8267
:43	-10.827
▁via	-10.8272
ndi	-10.8272
▁государств	-10.8273
прос	-10.8274
иль	-10.8275
▁Ро	-10.8276
тив	-10.8278
ъ	-10.8278
ney	-10.828
▁environmental	-10.828
▁Sure	-10.8284
▁GmbH	-10.8286
▁Präsident	-10.8286
▁province	-10.8286
▁simply	-10.8286
▁seguro	-10.8286
▁spring	-10.8287
▁kiss	-10.8288
▁pool	-10.8291
▁wide	-10.8293
▁collection	-10.8293
▁skin	-10.8294
考え	-10.8299
▁место	-10.8301
▁Video	-10.8302
bol	-10.8306
▁mil	-10.8308
homme	-10.831
ец	-10.8312
▁drug	-10.8314
▁quelques	-10.8314
▁Nor	-10.8315
rau	-10.8317
una	-10.8318
▁complain	-10.8323
▁дело	-10.8326
▁почему	-10.833
▁Earth	-10.833
▁complex	-10.833
▁draw	-10.833
送	-10.8332
▁guilty	-10.8332
▁खुदा	-10.8333
▁Quand	-10.8333
▁Services	-10.8334
▁pot	-10.8334
ヤ	-10.8334
▁ME	-10.8335
▁sounds	-10.8336
вор	-10.8336
▁होगी	-10.8337
▁weapons	-10.8339
殺	-10.834
▁participants	-10.8341
▁ref	-10.8341
उ	-10.8344
私は	-10.8345
-19	-10.8346
seiten	-10.8347
▁всем	-10.8348
▁border	-10.8348
▁BE	-10.8349
のために	-10.8349
▁Agent	-10.835
▁Version	-10.835
imm	-10.8352
:34	-10.8352
vio	-10.8354
ität	-10.8355
▁Green	-10.8356
マン	-10.8367
▁Note	-10.8369
▁fri	-10.8369
जि	-10.8373
▁yourselves	-10.8374
▁Почему	-10.8374
▁जगह	-10.8374
▁gleich	-10.8374
▁genau	-10.8374
だが	-10.8378
▁seulement	-10.8379
2011	-10.8379
先	-10.838
▁बोल	-10.8382
▁published	-10.8383
▁treat	-10.8384
▁fat	-10.8387
:47	-10.8388
ание	-10.8389
▁Force	-10.8391
来	-10.8391
▁ध	-10.8393
▁display	-10.8402
▁país	-10.8403
▁сер	-10.8404
▁ここ	-10.8405
ña	-10.8406
нь	-10.8409
▁puis	-10.841
▁successful	-10.8411
▁thousand	-10.8412
ancia	-10.8417
▁Russia	-10.8417
▁संख्या	-10.8418
▁advice	-10.8418
▁можешь	-10.8418
業	-10.8418
▁nadie	-10.8419
▁Section	-10.8422
▁conference	-10.8422
äng	-10.8425
▁Cat	-10.8425
▁Doctor	-10.8425
▁Whatever	-10.8426
:54	-10.8427
ject	-10.8428
▁59	-10.8429
▁Wort	-10.843
▁spirit	-10.8433
▁lying	-10.8433
▁Photo	-10.8436
ソン	-10.8436
▁Contact	-10.8439
▁remains	-10.8439
▁vision	-10.8447
▁meinen	-10.8447
уб	-10.8448
уж	-10.845
:33	-10.845
▁Part	-10.8454
▁sad	-10.8456
▁दिल	-10.8456
schl	-10.8458
君	-10.8458
zar	-10.8462
ван	-10.8462
==	-10.8462
▁स्थान	-10.8463
▁Хорошо	-10.8463
▁जरूरत	-10.8463
▁schön	-10.8463
▁style	-10.8464
▁इनकार	-10.8464
▁disbelievers	-10.8464
▁donné	-10.8464
▁employment	-10.8464
ncia	-10.8466
▁mesure	-10.8466
▁करेगा	-10.8466
ख़	-10.8467
▁quieres	-10.847
ladys	-10.8473
▁Link	-10.8475
▁SO	-10.8479
:52	-10.8481
▁grave	-10.8483
▁Louis	-10.8483
ei	-10.8484
▁Pass	-10.8484
▁granted	-10.8485
▁Voy	-10.8486
▁north	-10.8487
▁सु	-10.8489
▁hall	-10.8489
われ	-10.849
wert	-10.849
したの	-10.849
▁tard	-10.8494
▁Daten	-10.8496
rick	-10.8498
▁Action	-10.8498
▁especial	-10.8498
ала	-10.8499
что	-10.85
▁आया	-10.8508
面	-10.8508
▁breakfast	-10.8508
▁धरती	-10.8508
▁сюда	-10.8508
▁Unternehmen	-10.8508
▁彼らは	-10.8508
▁चयनित	-10.8509
▁जाएँगे	-10.8509
▁sexual	-10.8509
はない	-10.851
▁cur	-10.851
▁mentioned	-10.851
▁games	-10.8512
▁assessment	-10.8512
venir	-10.8512
▁billion	-10.8513
▁wahr	-10.8514
▁viele	-10.8516
nne	-10.8517
lant	-10.8517
▁Read	-10.8518
▁besides	-10.852
▁president	-10.852
▁वा	-10.8521
▁push	-10.8524
ilvia	-10.8526
ui	-10.8527
▁standing	-10.8529
▁escape	-10.8532
стве	-10.8533
UL	-10.8534
▁guests	-10.8537
▁bra	-10.8539
▁2012,	-10.8548
▁sollten	-10.855
ハ	-10.855
代	-10.8552
▁Samstag	-10.8553
▁distance	-10.8553
▁software	-10.8553
▁activity	-10.8553
izing	-10.8554
▁Person	-10.8554
▁stopped	-10.8554
▁prix	-10.8555
▁besser	-10.8555
▁directive	-10.8555
▁immediately	-10.8556
▁welche	-10.8558
▁47	-10.856
▁Help	-10.8563
▁em	-10.8563
बर	-10.8565
▁director	-10.8567
-12	-10.8571
▁busy	-10.8573
▁tend	-10.8576
▁Stay	-10.8576
▁correspond	-10.8577
пол	-10.8577
right	-10.8578
▁Shi	-10.8578
▁claim	-10.8579
▁parle	-10.8584
эй	-10.8584
Comment	-10.8585
▁stick	-10.8588
▁cry	-10.859
ár	-10.859
ेंगे	-10.8591
2013	-10.8592
cla	-10.8596
OM	-10.8598
▁haciendo	-10.8598
▁पीछे	-10.8598
▁honour	-10.8598
нии	-10.86
low	-10.8602
▁Kind	-10.8602
▁大丈夫	-10.8603
▁severe	-10.8604
PO	-10.8605
▁ум	-10.8606
▁Mehr	-10.8609
▁Turn	-10.861
▁importa	-10.861
ирован	-10.8611
▁ск	-10.8611
ार	-10.8611
▁prices	-10.8616
▁mujeres	-10.8617
▁mettre	-10.8627
nor	-10.8628
ball	-10.8628
OL	-10.8631
pf	-10.8634
stein	-10.8635
soever	-10.8636
▁miembros	-10.8638
▁основ	-10.8638
bot	-10.8641
rac	-10.8641
▁difference	-10.8642
身	-10.8643
世	-10.8644
▁proyecto	-10.8644
▁жизни	-10.8644
▁adapt	-10.8644
▁bodies	-10.8644
▁имеет	-10.8645
▁связи	-10.8645
▁pregunta	-10.8651
リア	-10.8652
事は	-10.8654
▁rise	-10.866
toi	-10.8664
たら	-10.8665
schw	-10.8666
▁Head	-10.8667
92	-10.8668
▁रे	-10.8669
IG	-10.8669
▁Grand	-10.8669
tory	-10.867
▁garden	-10.8672
Pro	-10.8672
▁カ	-10.8672
▁estas	-10.8674
デ	-10.8675
▁wall	-10.8677
▁Geh	-10.8678
इस	-10.868
NE	-10.8682
ают	-10.8686
▁Muhammad	-10.8689
御	-10.8689
▁argument	-10.8689
▁Before	-10.8689
▁Joined	-10.8689
▁Think	-10.869
▁representative	-10.869
▁fail	-10.8692
▁sommes	-10.8694
fund	-10.8698
▁completed	-10.8699
imp	-10.8701
शी	-10.8703
▁Bur	-10.8705
उस	-10.8707
▁beach	-10.8708
ène	-10.8708
naire	-10.871
やった	-10.8712
▁тот	-10.8714
▁gain	-10.872
▁Prime	-10.8721
▁cru	-10.8725
▁Flo	-10.8726
ист	-10.8726
tis	-10.8727
/16	-10.8728
ビー	-10.8729
Mo	-10.8731
▁रो	-10.8733
機	-10.8735
▁себе	-10.8735
▁earlier	-10.8735
▁Try	-10.8736
▁Transport	-10.8736
▁Everyone	-10.8736
▁middle	-10.8737
▁Nu	-10.8737
ёт	-10.8739
क्र	-10.8742
▁э	-10.8743
pul	-10.8746
▁weren	-10.8749
▁moon	-10.8749
▁tea	-10.8752
▁supported	-10.8754
▁ways	-10.8754
▁何を	-10.8756
нд	-10.8757
▁holding	-10.8761
▁realize	-10.8764
rang	-10.8764
決	-10.8765
▁hole	-10.8766
▁résultats	-10.8766
▁Tal	-10.8767
nehmen	-10.8767
▁animal	-10.8767
▁Santa	-10.8768
▁played	-10.8769
ned	-10.8771
場	-10.8771
graph	-10.8772
жден	-10.8772
load	-10.8773
NA	-10.8775
▁Hola	-10.8777
ぜ	-10.8778
▁British	-10.8781
▁impossible	-10.8781
▁готов	-10.8781
▁legislation	-10.8782
imiento	-10.8782
▁प्रकार	-10.8782
▁nueva	-10.8782
▁लग	-10.8783
▁हाथ	-10.8783
стра	-10.8784
щи	-10.8784
रि	-10.8786
▁Mission	-10.8792
▁लगे	-10.8793
▁Pharaoh	-10.8797
▁права	-10.8799
ole	-10.8804
▁quick	-10.8805
▁designed	-10.8816
ias	-10.8817
नि	-10.8821
▁सुन	-10.8822
▁slow	-10.8823
▁values	-10.8825
▁sang	-10.8826
▁Remember	-10.8828
▁advantage	-10.8828
▁pouvez	-10.8828
▁district	-10.8828
▁presence	-10.8828
▁podemos	-10.8828
▁semaine	-10.8828
▁Follow	-10.8828
▁эту	-10.8828
▁Research	-10.8828
▁Arm	-10.8829
▁Бр	-10.8829
зв	-10.883
▁два	-10.883
▁Tor	-10.883
▁mass	-10.8833
▁lleva	-10.8835
▁quickly	-10.8836
ही	-10.8837
agit	-10.8837
▁ice	-10.8841
ines	-10.8843
kon	-10.8846
▁expert	-10.8851
▁eh	-10.8854
▁::	-10.8854
信	-10.8854
▁fund	-10.8859
▁ihrer	-10.886
▁Todo	-10.886
▁quelqu	-10.8865
йте	-10.8866
▁trouve	-10.8867
▁dicho	-10.8868
▁400	-10.8869
▁Whil	-10.8872
▁Kr	-10.8873
▁desarrollo	-10.8874
▁database	-10.8874
▁annual	-10.8874
▁Verordnung	-10.8875
▁Boy	-10.8876
▁Charles	-10.8876
▁Organization	-10.8876
▁terre	-10.8877
▁sentence	-10.8879
▁Chinese	-10.8879
▁देता	-10.888
▁Spain	-10.8881
▁income	-10.8881
▁पी	-10.8882
▁Ur	-10.8882
▁truck	-10.8883
▁commitment	-10.8883
▁corner	-10.8887
mel	-10.8891
▁способ	-10.8891
ению	-10.8892
同	-10.8894
late	-10.8894
▁ей	-10.8895
▁permit	-10.8896
bro	-10.8897
uß	-10.8897
▁publication	-10.8902
:%	-10.8902
▁maintain	-10.8906
gro	-10.8907
変	-10.8908
\	-10.8912
ун	-10.8913
emp	-10.8919
▁Monsieur	-10.8921
▁Treaty	-10.8921
▁pleasure	-10.8921
月	-10.8921
関係	-10.8921
▁Download	-10.8921
▁SA	-10.8921
▁micro	-10.8922
▁उनका	-10.8923
▁jump	-10.8925
cido	-10.8925
▁presented	-10.8925
▁आगे	-10.8927
ान	-10.8931
かれらは	-10.8932
▁prior	-10.8932
ём	-10.8932
▁Cap	-10.8932
▁nine	-10.8933
▁Ap	-10.8935
▁रहो	-10.8935
▁viol	-10.8937
▁seiner	-10.8939
▁mars	-10.8939
▁End	-10.894
▁Abraham	-10.8941
▁Loi	-10.8941
▁क्योंकि	-10.8943
uche	-10.8951
しく	-10.8953
ists	-10.8954
▁ai	-10.8954
▁पहुँच	-10.896
▁heat	-10.896
lier	-10.8963
▁Presidente	-10.8967
:58	-10.8968
放	-10.8968
▁truly	-10.8968
▁encounter	-10.8968
▁bet	-10.8968
▁Où	-10.8968
▁чего	-10.8968
▁menu	-10.8969
▁anywhere	-10.8969
▁ayudar	-10.897
▁दुनिया	-10.897
▁डि	-10.897
▁Ph	-10.8971
▁Bla	-10.8972
▁Совета	-10.8975
▁weg	-10.8975
▁amended	-10.8978
かも	-10.898
▁quería	-10.898
PE	-10.8984
▁Image	-10.8984
別	-10.8984
▁updated	-10.8984
сон	-10.8985
рен	-10.8987
▁recht	-10.8988
над	-10.8989
▁closed	-10.8989
дать	-10.8991
▁hor	-10.8992
▁Star	-10.8992
▁2004,	-10.8994
▁names	-10.8996
モ	-10.8997
rung	-10.8997
rán	-10.8998
▁spot	-10.9001
▁hoy	-10.9001
▁pursu	-10.9002
▁totally	-10.9002
▁Ou	-10.9005
的	-10.9006
▁Fla	-10.9007
▁सेट	-10.9007
▁обо	-10.9008
▁African	-10.9009
▁Ра	-10.9009
pit	-10.9015
▁applicable	-10.9015
▁Kingdom	-10.9015
hren	-10.9015
▁delegation	-10.9015
▁policies	-10.9015
を見	-10.9016
▁Anzahl	-10.9016
▁Import	-10.9017
▁engine	-10.9018
▁Nun	-10.9018
▁images	-10.9019
vil	-10.902
нее	-10.9021
ugh	-10.9022
▁君が	-10.9022
gram	-10.9022
▁Sy	-10.9025
बल	-10.9027
開	-10.9028
бор	-10.9028
▁load	-10.9028
▁Во	-10.9029
▁छ	-10.9031
hand	-10.9034
▁Play	-10.9039
ян	-10.904
▁release	-10.9041
▁emb	-10.9043
▁prêt	-10.9044
ear	-10.9047
EM	-10.9051
▁petite	-10.9052
残	-10.9055
▁beim	-10.9055
कि	-10.9056
key	-10.9058
genommen	-10.9059
▁Бо	-10.906
▁analysis	-10.9062
▁essential	-10.9062
▁William	-10.9062
▁société	-10.9063
▁उनमें	-10.9063
▁みんな	-10.9063
パ	-10.9064
▁meetings	-10.9065
▁caught	-10.9065
スター	-10.9066
abord	-10.9066
▁neuen	-10.9066
-5	-10.9071
▁produit	-10.9071
ional	-10.9071
bert	-10.9078
ग्र	-10.9078
▁ceux	-10.9078
話を	-10.9079
ory	-10.9082
▁Weg	-10.9087
▁sources	-10.909
▁industrial	-10.9091
▁22,	-10.9094
▁perform	-10.9096
.4.	-10.9097
▁डिस्क	-10.9099
ент	-10.9099
8/	-10.91
▁вопрос	-10.9101
NS	-10.9104
ース	-10.9107
▁gehört	-10.911
▁minimum	-10.911
▁seguridad	-10.911
▁toda	-10.911
▁bathroom	-10.911
▁Baby	-10.9112
▁specified	-10.9112
▁बता	-10.9113
▁दोस्त	-10.9116
ager	-10.9117
▁park	-10.9118
▁wedding	-10.9118
▁Tú	-10.912
なる	-10.9121
▁hacerlo	-10.9125
▁Генерально	-10.9127
える	-10.9128
▁vier	-10.9129
当	-10.913
▁relat	-10.913
inc	-10.9133
▁Mme	-10.914
あなたの	-10.9141
лог	-10.9142
▁Thu	-10.9144
▁appear	-10.9151
term	-10.9151
rage	-10.9153
NG	-10.9153
▁बह	-10.9157
▁número	-10.9158
頭	-10.9158
▁минут	-10.9158
▁ведь	-10.9158
▁publique	-10.9158
ío	-10.9158
▁57	-10.9158
立	-10.9161
▁nobody	-10.9161
▁Wasser	-10.9162
▁cro	-10.9163
▁Schw	-10.9168
▁unless	-10.9168
/08/	-10.917
IE	-10.9172
raum	-10.9172
▁internal	-10.9174
▁2015,	-10.9176
▁Real	-10.9179
▁placed	-10.918
чн	-10.9184
▁surprise	-10.9185
vir	-10.9185
▁broken	-10.9186
▁Pu	-10.9187
▁pictures	-10.919
▁Many	-10.9191
かった	-10.9191
кт	-10.9198
になった	-10.9201
聞いて	-10.9202
守	-10.9203
解	-10.9205
▁ourselves	-10.9206
▁तैयार	-10.9206
ué	-10.9206
▁relations	-10.9208
▁ticket	-10.9208
▁pueda	-10.9209
सू	-10.921
▁Master	-10.9213
▁historia	-10.9213
▁Spa	-10.9215
▁mai	-10.9216
vic	-10.9218
▁unjust	-10.9219
itud	-10.922
▁Han	-10.9221
▁Long	-10.9225
▁green	-10.9225
▁FBI	-10.9225
iez	-10.9226
CC	-10.9228
PA	-10.9232
▁nun	-10.9234
▁брат	-10.9234
▁ここに	-10.9239
erie	-10.9241
▁cancer	-10.9243
aría	-10.9244
र्क	-10.9244
nov	-10.925
lei	-10.925
▁गु	-10.9251
▁दृश्य	-10.9254
化	-10.9254
▁bought	-10.9254
▁depend	-10.9254
▁fool	-10.9255
▁interview	-10.9255
▁Had	-10.9256
▁forgiveness	-10.9256
▁времени	-10.9257
ii	-10.9262
▁та	-10.9262
▁деле	-10.9263
▁Document	-10.9267
▁cart	-10.9276
▁स्थिति	-10.9277
してた	-10.9278
▁Six	-10.9278
▁lay	-10.9279
▁intent	-10.9281
йти	-10.9283
▁nationale	-10.9286
▁Па	-10.9287
っと	-10.9287
ates	-10.9291
▁books	-10.9291
▁ई	-10.9293
Bl	-10.9293
▁Enter	-10.9293
▁existe	-10.9293
▁उप	-10.9296
verse	-10.9296
▁Qué	-10.9297
▁Pop	-10.9298
返	-10.9303
▁behalf	-10.9303
▁worst	-10.9303
▁глав	-10.9303
▁Leave	-10.9303
▁commission	-10.9303
▁konnte	-10.9304
来て	-10.9311
▁Mat	-10.9311
rig	-10.9313
▁Bericht	-10.9313
▁Parties	-10.9313
▁Под	-10.9315
だって	-10.9318
▁Sea	-10.9321
▁Bru	-10.9324
▁roll	-10.9331
-04	-10.9332
heim	-10.9334
idas	-10.9334
▁сам	-10.9334
▁habla	-10.9334
kh	-10.934
▁Sé	-10.9341
▁flu	-10.9344
▁appel	-10.9346
Each	-10.9348
▁initiatives	-10.9349
▁ком	-10.9351
▁south	-10.9351
直	-10.9351
▁केवल	-10.9352
▁Henry	-10.9352
▁battle	-10.9352
知らない	-10.9352
mont	-10.9353
▁instrument	-10.9354
eck	-10.9355
▁Off	-10.9356
▁seule	-10.9357
▁Em	-10.9358
▁throughout	-10.936
▁我々は	-10.936
▁recently	-10.9361
▁requests	-10.9361
▁अंत	-10.9364
▁अच्छे	-10.9368
▁distribution	-10.9368
▁manager	-10.9371
9/	-10.9373
▁recommend	-10.9379
оз	-10.9382
avoir	-10.9383
忘れ	-10.9385
▁Create	-10.9385
▁element	-10.939
▁bill	-10.9391
▁pasado	-10.9397
9€	-10.94
▁56	-10.94
▁exercise	-10.9401
▁guided	-10.9401
▁feed	-10.9401
▁ersten	-10.9402
▁Mutter	-10.9404
▁sowie	-10.9405
rro	-10.9405
▁visto	-10.9406
▁Apartment	-10.9406
ुल	-10.9407
▁wonderful	-10.9408
▁connect	-10.9409
▁Far	-10.941
▁bound	-10.9412
нс	-10.9414
▁misma	-10.9418
▁pure	-10.9423
▁amigo	-10.9424
dad	-10.9424
face	-10.9425
▁pop	-10.9425
/2010	-10.9427
▁доклад	-10.9427
gua	-10.9427
あり	-10.9431
▁Als	-10.9436
▁kam	-10.944
isten	-10.944
ировать	-10.9443
айте	-10.9443
ソ	-10.9444
py	-10.9444
▁haga	-10.9448
進	-10.945
▁während	-10.945
▁порядке	-10.945
▁honey	-10.945
▁liegt	-10.9451
Union	-10.9451
▁Room	-10.9452
▁Truth	-10.9452
▁ответ	-10.9452
cap	-10.9453
▁heures	-10.9455
えて	-10.9456
▁जिसने	-10.9456
▁retir	-10.9457
▁EC	-10.9461
人が	-10.9463
▁अन्य	-10.9466
-0	-10.9467
▁dentro	-10.9473
▁Top	-10.9476
2016	-10.9478
..."	-10.9479
▁Puede	-10.948
▁trata	-10.9481
▁Fue	-10.9481
▁Ber	-10.9485
▁leg	-10.9486
▁cultural	-10.9488
4/	-10.9489
▁僕	-10.9489
geben	-10.949
▁Mont	-10.9491
▁benefits	-10.9494
▁95	-10.9495
Allah	-10.9497
▁rôle	-10.9499
▁último	-10.9499
▁password	-10.95
▁अतः	-10.95
▁davon	-10.95
▁अरे	-10.9501
▁finger	-10.9504
・・	-10.9504
/11/	-10.9505
▁recommendations	-10.9505
▁zone	-10.951
▁बढ़	-10.9519
▁derecho	-10.952
ザ	-10.9521
▁DVD	-10.9526
▁ideas	-10.953
rop	-10.9533
▁Hall	-10.9534
▁talked	-10.9537
шу	-10.9543
▁お前は	-10.9543
appelle	-10.9545
本当に	-10.9548
探	-10.9549
▁Welcome	-10.9549
▁strategy	-10.9549
▁अच्छी	-10.9549
▁क़ौम	-10.9549
▁wild	-10.9549
▁Richard	-10.955
▁regret	-10.955
出て	-10.9552
▁vois	-10.9553
нос	-10.956
▁54	-10.9561
цы	-10.9565
▁forest	-10.957
▁俺の	-10.9571
▁ос	-10.9572
▁op	-10.9573
▁wohl	-10.9573
▁ban	-10.958
уз	-10.9583
rais	-10.9583
iter	-10.9584
ился	-10.9586
▁Bitte	-10.9591
▁interesting	-10.9592
▁sing	-10.9592
▁र	-10.9599
▁развития	-10.9599
▁आकाश	-10.9599
▁सामने	-10.9599
▁popular	-10.9599
▁prévu	-10.9599
▁कारण	-10.96
▁debt	-10.9601
▁funciona	-10.9601
▁Его	-10.9602
ías	-10.9603
▁सिवा	-10.9604
from	-10.9605
▁Porque	-10.9605
▁understanding	-10.9608
▁Love	-10.9608
tente	-10.961
star	-10.9612
▁replaced	-10.9612
▁establish	-10.9619
▁fit	-10.962
▁kleine	-10.9621
▁effort	-10.9621
лин	-10.9623
▁खोज	-10.9624
▁officer	-10.9625
▁Key	-10.9625
▁alarm	-10.9626
▁дел	-10.9629
▁continued	-10.9633
▁сто	-10.9635
quel	-10.9638
▁primer	-10.9638
▁reject	-10.9638
▁certificate	-10.9639
▁commun	-10.964
info	-10.9643
kar	-10.9644
▁permanent	-10.9644
▁Test	-10.9646
▁llevar	-10.9648
▁Perhaps	-10.9649
▁período	-10.9649
▁Tribunal	-10.9649
▁posible	-10.9649
ены	-10.9651
▁1991	-10.9653
▁titre	-10.9654
見た	-10.9654
▁sec	-10.9655
▁showed	-10.9657
▁リ	-10.9657
раз	-10.9659
Я	-10.9664
gli	-10.9666
▁%2	-10.9666
▁おい	-10.967
run	-10.9671
▁propre	-10.9672
▁male	-10.9673
▁fighting	-10.9675
▁रोक	-10.9676
ими	-10.9679
über	-10.9679
▁जीवन	-10.968
▁articles	-10.9681
kg	-10.9683
▁Fuck	-10.9686
▁agent	-10.9689
wand	-10.9693
GE	-10.9697
高	-10.9697
▁Ban	-10.9698
▁Ладно	-10.97
▁कोशिश	-10.97
▁innocent	-10.97
▁heavy	-10.97
▁sample	-10.97
▁gerade	-10.97
▁promotion	-10.97
box	-10.9701
▁proposition	-10.9702
2001	-10.9702
▁इससे	-10.9703
ulation	-10.9704
▁oh	-10.9705
▁taux	-10.9708
▁Alex	-10.9708
OP	-10.9709
向	-10.971
▁>>	-10.9712
してくれ	-10.9713
していた	-10.9714
▁Color	-10.9715
▁haya	-10.9721
▁Arbeits	-10.9725
गल	-10.9727
▁пор	-10.9729
fra	-10.973
▁fil	-10.9734
range	-10.9737
тро	-10.974
ola	-10.9741
▁tab	-10.9741
▁Anti	-10.9745
▁僕は	-10.9745
ここに	-10.9748
▁гор	-10.975
▁уверен	-10.9751
▁richtig	-10.9751
▁बनाया	-10.9752
▁grupo	-10.9752
▁Кар	-10.9752
▁отношении	-10.9753
▁wake	-10.9754
spiel	-10.9754
▁लोड	-10.9754
▁Life	-10.9755
▁trick	-10.9758
▁schnell	-10.9759
iones	-10.9761
ीय	-10.9763
▁Ende	-10.9766
▁見	-10.9766
行け	-10.9769
▁#3	-10.9771
▁Solo	-10.9773
▁Са	-10.9773
最後	-10.9775
ky	-10.9777
▁ऑ	-10.9779
▁orden	-10.9779
▁Mil	-10.9781
content	-10.9783
▁fuel	-10.9784
▁indicate	-10.9784
必要	-10.9786
▁бе	-10.9786
▁Except	-10.9788
▁Ray	-10.9791
▁deja	-10.9791
pping	-10.9791
▁bereits	-10.9793
rad	-10.9797
aut	-10.9798
▁embargo	-10.9802
▁School	-10.9802
▁submit	-10.9803
▁hacia	-10.9806
▁lock	-10.9809
Un	-10.9812
▁rare	-10.9813
enta	-10.9814
▁returns	-10.9814
utilisation	-10.9817
овать	-10.982
▁Lady	-10.9821
▁delivered	-10.9823
िस	-10.9825
tors	-10.9827
▁strange	-10.983
▁consist	-10.9831
▁Rome	-10.9831
кон	-10.9834
▁erste	-10.9834
avi	-10.9836
▁thereof	-10.9837
▁Ã	-10.9837
▁regarding	-10.9839
dium	-10.9844
▁Foto	-10.9846
▁européen	-10.9847
▁64	-10.9847
images	-10.9848
▁オ	-10.9851
空	-10.9853
▁economy	-10.9853
▁protocol	-10.9853
▁Agreement	-10.9853
▁qualité	-10.9853
売	-10.9853
▁memory	-10.9853
▁luego	-10.9853
▁victims	-10.9853
▁बीच	-10.9853
▁ressources	-10.9853
▁других	-10.9854
▁निकल	-10.9855
¡	-10.9857
▁Print	-10.9862
▁propos	-10.9863
▁こんな	-10.9863
▁ihren	-10.9864
▁huge	-10.9865
▁Bureau	-10.9866
まだ	-10.9868
▁何も	-10.9871
ях	-10.9873
▁Pay	-10.9873
▁Media	-10.9879
▁GO	-10.9879
▁folk	-10.988
▁choses	-10.9881
▁Sho	-10.9886
▁IV	-10.9889
▁Film	-10.989
एम	-10.989
▁ди	-10.9891
▁fourni	-10.9892
akt	-10.9892
▁download	-10.9894
▁sup	-10.9899
取り	-10.99
▁animals	-10.9903
▁contribute	-10.9904
▁mechanism	-10.9904
▁Спасибо	-10.9904
▁hidden	-10.9904
▁quarter	-10.9905
▁supply	-10.9905
▁Clear	-10.9905
▁finance	-10.9905
僕	-10.9907
▁dije	-10.9908
griff	-10.9908
▁painful	-10.9909
▁Quran	-10.991
▁quién	-10.9912
▁volver	-10.9916
▁places	-10.9917
▁lucky	-10.9921
▁25,	-10.9929
そうだ	-10.993
▁removed	-10.993
/12	-10.9932
ome	-10.9934
▁tradition	-10.9937
▁saber	-10.9938
▁reco	-10.9938
сь	-10.9938
▁Н	-10.994
DC	-10.9942
ポ	-10.9943
ète	-10.9946
зов	-10.9953
▁facilities	-10.9956
▁पृष्ठ	-10.9956
▁contigo	-10.9956
感じ	-10.9956
gul	-10.9957
▁Christmas	-10.9957
том	-10.9959
`	-10.996
Ñ	-10.996
名前	-10.9961
1/	-10.9961
神	-10.9961
▁手	-10.9962
icos	-10.9963
▁presente	-10.9964
yant	-10.9965
нет	-10.9966
cula	-10.9966
死んだ	-10.9969
▁materials	-10.997
▁Really	-10.9973
▁Data	-10.9974
▁2013,	-10.9976
▁PC	-10.9977
ために	-10.9979
レン	-10.9979
▁sait	-10.9979
Que	-10.9981
ペ	-10.9982
▁meaning	-10.9983
▁sites	-10.9983
▁citizens	-10.9985
bal	-10.9986
rri	-10.9987
▁chosen	-10.9987
-01	-10.9987
▁Stu	-10.9991
ラー	-10.9992
CR	-10.9993
▁persona	-10.9993
▁bureau	-10.9994
▁пла	-10.9995
▁finding	-10.9996
get	-10.9998
say	-11.0001
/2008	-11.0002
▁Van	-11.0002
tric	-11.0005
集	-11.0008
▁razón	-11.0008
▁renseignements	-11.0008
▁Street	-11.0008
▁dialogue	-11.0009
▁Nunca	-11.001
ike	-11.0013
-20%	-11.0014
▁owner	-11.0016
▁dónde	-11.0022
RS	-11.0023
ete	-11.0025
▁length	-11.0026
▁rejected	-11.0026
▁entry	-11.0026
point	-11.0026
▁созда	-11.0026
var	-11.0029
▁hero	-11.0029
essen	-11.003
▁tired	-11.0031
uz	-11.0034
▁Lot	-11.0036
▁applications	-11.0037
▁CON	-11.0039
If	-11.004
▁alguna	-11.0041
▁Type	-11.0043
ied	-11.0051
▁visits	-11.0054
setzen	-11.0057
▁careful	-11.0057
▁(5)	-11.0059
ues	-11.0059
▁experiment	-11.0061
▁preocupa	-11.0061
▁amazing	-11.0061
▁studies	-11.0061
逃げ	-11.0061
▁Remove	-11.0061
▁prefer	-11.0064
▁Women	-11.0064
▁email	-11.0065
▁marry	-11.0065
ロー	-11.0066
▁chica	-11.0071
यों	-11.0071
▁Online	-11.0073
▁Wow	-11.0074
▁units	-11.0076
▁tel	-11.0078
avez	-11.008
▁Lass	-11.008
▁Personen	-11.0086
▁pair	-11.0086
्यू	-11.0088
▁arms	-11.0089
▁fixed	-11.0091
EE	-11.0092
aje	-11.0094
nia	-11.0094
thy	-11.0096
▁Jim	-11.0097
vas	-11.0101
▁Kan	-11.0104
▁Пред	-11.0107
fahren	-11.0111
▁funds	-11.0113
成	-11.0113
▁[1]	-11.0113
▁smoke	-11.0113
▁reporting	-11.0114
▁Watch	-11.0114
▁split	-11.0114
▁committed	-11.0114
▁лишь	-11.0114
▁default	-11.0119
bon	-11.0119
▁バ	-11.0119
▁период	-11.0122
▁Ziel	-11.0122
▁кор	-11.0123
▁annex	-11.0128
ska	-11.0131
SH	-11.0133
▁кого	-11.0135
連れて	-11.0135
rico	-11.0136
▁certains	-11.0139
anza	-11.0143
▁observ	-11.0146
▁custom	-11.0146
▁tomar	-11.0146
stan	-11.0149
laub	-11.0152
▁говорит	-11.0153
dam	-11.0154
gno	-11.0154
tier	-11.0155
▁आए	-11.0156
oli	-11.0157
ита	-11.0158
ください	-11.0158
▁Still	-11.016
▁participate	-11.016
just	-11.0162
iver	-11.0162
entreprise	-11.0163
もう	-11.0164
▁Bob	-11.0166
▁décembre	-11.0166
▁fundamental	-11.0166
▁Official	-11.0166
▁पसंद	-11.0166
▁clothes	-11.0166
情報	-11.0166
▁species	-11.0167
▁celui	-11.0168
▁Christian	-11.0168
▁Daddy	-11.0168
▁début	-11.0169
▁neu	-11.0169
▁gesehen	-11.0169
▁plein	-11.0172
душ	-11.0173
▁दें	-11.0174
ления	-11.0175
され	-11.0176
▁Л	-11.0179
▁Close	-11.0179
▁hommes	-11.018
chan	-11.0181
▁Cam	-11.0182
▁Emp	-11.0183
▁Ag	-11.0184
▁खा	-11.0185
▁53	-11.0186
▁जी	-11.019
gent	-11.0193
▁invited	-11.0194
▁produced	-11.0195
▁gross	-11.0195
▁envi	-11.0199
▁seinen	-11.0199
▁SE	-11.0204
▁glass	-11.0205
▁мог	-11.0207
town	-11.0208
esse	-11.0215
意	-11.0218
▁sport	-11.0219
重	-11.0219
▁Sicherheit	-11.0219
▁symbol	-11.0219
▁вместе	-11.0219
▁वास्तव	-11.0219
▁medicine	-11.0219
▁gods	-11.022
▁Unknown	-11.022
▁camino	-11.022
▁उसमें	-11.022
▁veces	-11.0221
▁airport	-11.0222
ックス	-11.0223
▁turns	-11.0224
▁hemos	-11.0225
З	-11.0229
rent	-11.023
bur	-11.0234
あった	-11.0235
▁sagt	-11.0237
▁juin	-11.0238
▁laid	-11.0238
▁Mus	-11.0238
▁Ц	-11.0239
やって	-11.024
▁killing	-11.0245
ому	-11.0245
▁भेज	-11.0249
▁Pra	-11.0255
▁sales	-11.0261
▁Spe	-11.0264
▁offered	-11.0269
jar	-11.0271
部	-11.0271
▁Spanish	-11.0273
accès	-11.0273
▁muerto	-11.0273
▁Просто	-11.0273
▁Agency	-11.0273
▁issued	-11.0274
▁sufficient	-11.0274
▁Iraq	-11.0277
でした	-11.0278
mbo	-11.028
▁fou	-11.0281
зн	-11.0281
▁grab	-11.0284
बु	-11.0287
▁keinen	-11.0289
that	-11.0289
▁cal	-11.029
ющих	-11.0291
▁ideal	-11.0292
AB	-11.0293
MAN	-11.0294
vr	-11.0294
▁ladies	-11.0296
hydro	-11.0299
stellen	-11.0301
▁teach	-11.0302
दी	-11.0305
ेगा	-11.0309
▁metal	-11.031
нуть	-11.0314
▁char	-11.0314
vec	-11.0314
▁reasons	-11.0315
▁donner	-11.0315
▁pur	-11.0316
▁employees	-11.0319
▁abge	-11.0321
▁===	-11.0322
▁contributions	-11.0322
実	-11.0322
理	-11.0323
йся	-11.0325
ルー	-11.0325
rim	-11.0326
▁Australia	-11.0327
▁Journal	-11.0327
▁Resurrection	-11.0327
▁También	-11.0327
▁responsable	-11.0327
▁असफल	-11.0327
▁gracias	-11.0327
▁jedoch	-11.0327
▁rural	-11.0327
ファイル	-11.0327
▁Hat	-11.0327
▁Absatz	-11.0328
osa	-11.0329
▁decisions	-11.033
rab	-11.0331
▁моя	-11.0331
ели	-11.0331
▁1)	-11.0332
▁Light	-11.0335
other	-11.0336
मैं	-11.0337
▁Ни	-11.0338
рат	-11.0341
ological	-11.0341
▁truc	-11.0341
▁selon	-11.0345
▁Ан	-11.0346
gehen	-11.0346
след	-11.0348
▁сказала	-11.0349
eta	-11.0353
▁जिसक	-11.0354
यर	-11.0356
▁require	-11.0358
への	-11.0363
▁Комитет	-11.0364
▁indica	-11.0365
▁tenu	-11.0368
▁challenge	-11.0368
▁одно	-11.0376
tiques	-11.0377
語	-11.0381
軍	-11.0381
▁driving	-11.0381
▁recompense	-11.0381
▁США	-11.0381
▁которая	-11.0381
▁आसमान	-11.0381
▁मूसा	-11.0381
火	-11.0381
Dónde	-11.0381
▁brief	-11.0381
▁образом	-11.0381
▁पकड़	-11.0381
▁emergency	-11.0381
▁твой	-11.0381
▁dispute	-11.0381
▁blame	-11.0381
▁cerca	-11.0382
▁डे	-11.0383
▁permission	-11.0384
▁Mother	-11.0386
▁Peace	-11.0386
▁Oct	-11.039
▁dû	-11.039
tta	-11.039
▁cities	-11.0392
2005	-11.0392
▁sigue	-11.0392
ello	-11.0396
gré	-11.0399
For	-11.0403
▁nouvelles	-11.0403
हम	-11.0403
ink	-11.0405
▁खोल	-11.0405
ところ	-11.0406
аж	-11.0409
500	-11.041
▁Point	-11.0413
▁recognize	-11.0414
aine	-11.0418
▁loan	-11.0419
▁Mill	-11.042
▁जोड़	-11.0421
rf	-11.0422
▁river	-11.0425
▁стр	-11.0429
▁dur	-11.0434
小	-11.0435
▁última	-11.0435
▁деятельности	-11.0435
▁बल्कि	-11.0435
▁policía	-11.0435
▁Scott	-11.0435
▁voiture	-11.0435
▁lunch	-11.0435
lung	-11.0436
▁Another	-11.0437
▁работу	-11.0437
▁Usted	-11.0438
▁klar	-11.0438
▁सम	-11.0439
ort	-11.044
▁weapon	-11.0443
▁regions	-11.0444
▁nuit	-11.0446
▁prise	-11.045
▁led	-11.0451
mov	-11.0451
▁résolution	-11.0451
▁goods	-11.0452
▁Bereich	-11.0453
pur	-11.0453
▁rot	-11.0458
▁ON	-11.046
tail	-11.0462
/2011	-11.0463
▁wearing	-11.0464
CA	-11.0468
▁Mm	-11.0468
▁начал	-11.0469
▁центр	-11.0469
▁connais	-11.0471
▁principle	-11.0479
▁Ol	-11.0482
運	-11.0484
▁MA	-11.0489
уча	-11.0489
▁व्यक्ति	-11.0489
▁कमांड	-11.049
ギ	-11.049
▁निकाल	-11.049
▁traitement	-11.049
ischer	-11.0491
▁install	-11.0495
▁Year	-11.0495
bilidad	-11.0496
Au	-11.0497
▁Team	-11.0499
▁homme	-11.05
▁क़	-11.05
cour	-11.05
▁Kom	-11.05
▁strengthen	-11.0501
▁pose	-11.0503
▁delivery	-11.0505
▁सूचना	-11.0505
▁raus	-11.0506
▁Joseph	-11.0506
HR	-11.0506
▁ओ	-11.0507
られ	-11.051
▁Wise	-11.0514
▁Deutsch	-11.0516
iga	-11.0517
own	-11.0518
рк	-11.052
then	-11.0521
ような	-11.0526
▁terrorism	-11.0527
uda	-11.0528
нию	-11.0528
cl	-11.0529
▁flat	-11.0531
ego	-11.0532
емся	-11.0532
▁बन	-11.0532
▁cara	-11.0534
▁amor	-11.0535
それを	-11.0535
▁vehicle	-11.0536
▁porte	-11.0536
次	-11.0536
mble	-11.0536
ье	-11.0537
▁permet	-11.0537
ッド	-11.0537
▁solutions	-11.0538
▁следующ	-11.0543
▁donne	-11.0544
▁оста	-11.0544
救	-11.0544
▁vielleicht	-11.0545
▁Everybody	-11.0545
▁безопасности	-11.0545
▁birthday	-11.0545
▁occasion	-11.0546
▁Power	-11.0548
▁registr	-11.0551
▁links	-11.0551
。「	-11.0553
▁भर	-11.0553
2/	-11.0555
▁gate	-11.0556
▁народ	-11.0557
▁Isn	-11.0557
▁problemas	-11.0557
▁2017	-11.0564
▁greatest	-11.0565
ाया	-11.0571
▁lines	-11.0572
▁Med	-11.0575
▁gemacht	-11.0577
▁opening	-11.0578
傷	-11.0579
/5	-11.058
эн	-11.0582
▁speaking	-11.0583
▁Ба	-11.0586
下さい	-11.0586
nous	-11.0588
▁俺が	-11.0589
phe	-11.059
無い	-11.0591
▁Latin	-11.0592
▁उठा	-11.0593
LO	-11.0595
2014	-11.06
▁можем	-11.06
▁शुरू	-11.06
▁incident	-11.06
▁такое	-11.0605
▁faces	-11.0608
▁cup	-11.061
▁manière	-11.061
▁projets	-11.0611
われは	-11.0611
prob	-11.0612
たの	-11.0613
ホ	-11.0614
▁Daniel	-11.0614
▁Nov	-11.0618
▁chair	-11.0618
▁Queen	-11.0619
▁Sport	-11.062
▁unserer	-11.0621
▁कल	-11.0621
чет	-11.0621
Mar	-11.0625
乗	-11.0625
▁vient	-11.0625
▁Hav	-11.0625
▁दिखा	-11.0625
▁120	-11.0629
▁encourage	-11.063
されて	-11.0634
bility	-11.0637
▁сделал	-11.0639
appel	-11.0639
▁manner	-11.0641
▁einge	-11.0643
▁tough	-11.0643
▁möglich	-11.0647
▁tool	-11.0649
▁rend	-11.0649
organ	-11.0649
based	-11.065
▁dort	-11.0653
▁кажд	-11.0654
▁अमेरिका	-11.0655
▁channel	-11.0655
▁детей	-11.0655
▁Support	-11.0656
部屋	-11.0656
▁मार्ग	-11.0656
▁получил	-11.0656
bor	-11.0656
▁dafür	-11.0656
ATION	-11.0657
▁limited	-11.0657
▁कहाँ	-11.0658
oir	-11.066
▁देते	-11.066
нер	-11.066
/2013	-11.0662
▁गलत	-11.0663
▁geben	-11.0665
ена	-11.0665
▁liar	-11.0666
▁propose	-11.0666
fully	-11.067
Ar	-11.0672
▁realidad	-11.0672
ация	-11.0673
▁भाग	-11.0673
▁suffer	-11.0673
▁sake	-11.0676
▁remind	-11.0678
▁released	-11.068
mate	-11.068
▁Phil	-11.0681
▁liste	-11.0682
rog	-11.0683
持って	-11.0688
eva	-11.0689
▁comments	-11.069
▁बन्द	-11.0691
anz	-11.0693
▁missed	-11.0693
▁trace	-11.0693
heure	-11.0694
legen	-11.0695
tuvo	-11.0695
▁Ali	-11.0698
▁workers	-11.0705
▁सो	-11.0708
▁false	-11.0711
▁conversation	-11.0711
▁proportion	-11.0711
▁conmigo	-11.0711
▁आई	-11.0712
bat	-11.0712
▁резолюции	-11.0713
▁estate	-11.0714
▁дом	-11.0716
unter	-11.0716
-10	-11.0718
▁обще	-11.0718
▁fly	-11.0722
бр	-11.0725
違う	-11.0729
wise	-11.0729
nic	-11.0732
▁century	-11.0732
▁actor	-11.0733
année	-11.0733
▁utilisé	-11.0735
ワ	-11.0737
▁unser	-11.0738
▁estima	-11.0738
?”	-11.0739
ума	-11.074
▁мира	-11.0741
eben	-11.0745
dar	-11.0746
▁aún	-11.0747
▁horas	-11.0748
▁Раз	-11.0749
werk	-11.0756
EU	-11.0756
▁フ	-11.0759
ника	-11.0759
▁scale	-11.0762
ас	-11.0765
▁installation	-11.0766
рок	-11.0767
Ü	-11.0767
▁campaign	-11.0767
▁क्षेत्र	-11.0767
▁Company	-11.0768
▁praise	-11.0768
▁appointment	-11.077
▁evaluation	-11.0771
▁esos	-11.0775
platz	-11.0776
▁Naciones	-11.0776
вес	-11.0777
▁acaba	-11.0777
「	-11.0777
誰	-11.0778
▁あ	-11.078
▁celle	-11.0782
▁Rest	-11.0782
cate	-11.0783
▁signed	-11.0783
▁mer	-11.0784
ENT	-11.0784
▁Namen	-11.0784
र्द	-11.0788
▁Nacht	-11.0789
▁Гр	-11.0792
Quieres	-11.0794
▁какой	-11.0797
レイ	-11.0799
▁Де	-11.08
Po	-11.0803
भी	-11.0804
под	-11.0804
▁CE	-11.0806
くる	-11.081
miss	-11.0813
ín	-11.0815
とも	-11.0815
gun	-11.0817
▁बदल	-11.0819
овой	-11.082
▁मिटा	-11.0822
▁u	-11.0823
▁यू	-11.0823
▁Dezember	-11.0824
血	-11.0824
▁назад	-11.0824
▁kitchen	-11.0824
stadt	-11.0825
▁слишком	-11.0825
▁Class	-11.0825
▁priority	-11.0826
▁equipo	-11.0826
▁cual	-11.0827
▁Water	-11.0829
▁entered	-11.083
▁ensemble	-11.0831
▁найти	-11.0832
▁canadienne	-11.0833
gelbe	-11.0843
▁VI	-11.0844
mount	-11.0846
▁अप	-11.0847
tina	-11.0847
▁Fer	-11.0848
▁представлен	-11.0851
тр	-11.0851
▁Arch	-11.0851
oma	-11.0856
▁mate	-11.0856
▁str	-11.0857
EEC	-11.0858
/2006	-11.0858
▁accordan	-11.0859
▁administration	-11.086
▁Too	-11.0861
▁highest	-11.0865
▁nuestros	-11.0867
▁Parlament	-11.087
出来	-11.087
▁Аллах	-11.0871
07/	-11.0873
食	-11.0874
望	-11.088
▁पूरा	-11.0881
▁reçu	-11.0881
ï	-11.0881
であろう	-11.0881
▁abandon	-11.0881
▁transform	-11.0881
▁chef	-11.0882
▁planned	-11.0883
▁corps	-11.0884
▁broad	-11.0884
▁entreprises	-11.0885
▁моей	-11.0885
▁traditional	-11.0886
▁addressed	-11.0886
pal	-11.0887
▁dazu	-11.0887
▁cancel	-11.0888
uni	-11.089
▁communications	-11.0891
▁Kat	-11.0892
▁dose	-11.0893
▁relation	-11.0893
▁forme	-11.0894
▁influence	-11.0894
law	-11.0894
▁expressed	-11.0897
教	-11.0901
▁Rule	-11.0905
▁eux	-11.0912
▁chain	-11.0916
俺	-11.0916
かい	-11.0918
фа	-11.0921
guide	-11.0924
▁-¿	-11.0925
▁counter	-11.0929
▁Product	-11.0932
▁associate	-11.0933
▁Meine	-11.0935
▁occur	-11.0937
▁Давай	-11.0938
▁although	-11.0938
▁easily	-11.0938
▁marriage	-11.0938
▁particulier	-11.0938
▁निस्संदेह	-11.0938
▁relax	-11.0938
▁следует	-11.0938
▁hermano	-11.0938
▁Tenemos	-11.0939
▁empresa	-11.0939
date	-11.0941
एस	-11.0942
druck	-11.0943
▁Deb	-11.0944
▁もっと	-11.0946
▁Arab	-11.0946
▁страны	-11.0948
▁drugs	-11.095
▁Кон	-11.0952
▁onto	-11.0952
lev	-11.0953
▁lange	-11.0953
▁исп	-11.0955
▁Мар	-11.0958
▁aujourd	-11.0959
vention	-11.0962
良い	-11.0962
▁independent	-11.0964
ская	-11.0965
crit	-11.0966
»,	-11.0966
▁glaube	-11.0968
isme	-11.0971
nisse	-11.0972
industrie	-11.0974
▁Luc	-11.0974
topic	-11.0975
▁MO	-11.0976
bul	-11.0976
▁किस	-11.0977
▁jeunes	-11.0977
生き	-11.098
▁stress	-11.0982
▁frei	-11.0982
arbeit	-11.0982
▁appears	-11.0983
▁root	-11.0983
шел	-11.0986
ピ	-11.0986
-6	-11.0986
▁blog	-11.0986
▁année	-11.0991
▁earn	-11.0992
▁includes	-11.0995
▁grandes	-11.0995
▁proceed	-11.0995
1⁄4	-11.0995
▁Telefon	-11.0996
▁physical	-11.0996
▁girlfriend	-11.0996
▁सहेजें	-11.0996
▁Unidas	-11.0998
▁identified	-11.0998
▁Ram	-11.0999
▁offen	-11.1
▁voll	-11.1
3/	-11.1001
すぐ	-11.1001
ので	-11.1003
▁photograph	-11.1003
▁approved	-11.1004
▁Edit	-11.1006
rice	-11.1007
▁River	-11.1008
▁kon	-11.1008
▁Kur	-11.1009
▁цен	-11.1009
▁walking	-11.101
▁requires	-11.1012
пы	-11.1015
▁お前の	-11.1021
wood	-11.1022
rry	-11.1023
ski	-11.1024
▁Maria	-11.1027
igne	-11.1028
▁Vot	-11.1032
▁contrat	-11.1033
▁discuss	-11.1034
▁defined	-11.1035
gabe	-11.1035
シャ	-11.1036
▁refuge	-11.1037
▁Lake	-11.1038
▁detect	-11.1045
▁algunos	-11.1046
元	-11.1048
▁forms	-11.1051
▁wenig	-11.1051
culo	-11.1052
娘	-11.1053
▁column	-11.1053
意味	-11.1053
punkt	-11.1054
▁Control	-11.1054
▁bedroom	-11.1054
▁mental	-11.1054
▁gardens	-11.1054
▁Ле	-11.1055
OW	-11.1057
2012	-11.1057
▁cab	-11.1059
▁dust	-11.1059
▁shower	-11.1061
▁जाते	-11.1062
▁einmal	-11.1065
cat	-11.1065
▁demandé	-11.1071
▁milk	-11.1071
schein	-11.1071
のように	-11.1073
PC	-11.1074
▁owe	-11.1076
ismo	-11.1081
▁assure	-11.1081
▁Qur	-11.1083
uy	-11.1086
2000	-11.109
▁reduce	-11.1091
EA	-11.1091
▁gre	-11.1098
dores	-11.1104
きた	-11.1107
▁initiative	-11.1108
▁あんた	-11.1109
▁लाए	-11.111
aught	-11.111
▁cri	-11.111
ゲ	-11.1111
▁Museum	-11.1111
▁Jetzt	-11.1111
Add	-11.1112
▁Deutschland	-11.1113
vy	-11.1113
▁saving	-11.1114
▁Где	-11.1114
treten	-11.1116
DR	-11.1118
стер	-11.1119
▁ढ	-11.1119
рав	-11.1119
▁रू	-11.1121
▁100%	-11.1121
▁career	-11.1123
▁इं	-11.1126
viv	-11.1126
▁HE	-11.1128
▁setting	-11.1128
стрел	-11.1131
вой	-11.1131
▁soir	-11.1131
▁determined	-11.1132
нем	-11.1132
▁गा	-11.1134
ось	-11.1137
わけ	-11.1138
▁हे	-11.1143
▁gab	-11.1144
▁tenga	-11.1145
▁ausge	-11.1147
▁advance	-11.1149
▁होना	-11.1149
ないと	-11.115
▁हि	-11.1151
▁elements	-11.1153
▁Sand	-11.1153
付	-11.1154
east	-11.1158
स्थ	-11.116
▁lift	-11.1164
such	-11.1165
лл	-11.1165
法	-11.1169
ून	-11.1169
▁Although	-11.117
▁Entscheidung	-11.117
▁Google	-11.117
▁procédure	-11.117
▁licence	-11.117
▁Meeting	-11.117
▁slave	-11.117
彼ら	-11.117
▁Прав	-11.1171
▁Chief	-11.1171
ほど	-11.1172
▁правда	-11.1173
▁pleased	-11.1175
▁sería	-11.1178
imo	-11.1178
▁Satan	-11.118
▁factor	-11.1181
▁steht	-11.1181
/11	-11.1182
▁ख़	-11.1188
▁flag	-11.119
шла	-11.1193
poli	-11.1193
▁ज़	-11.1195
▁ko	-11.1196
curso	-11.1196
web	-11.1198
▁誰	-11.12
▁रि	-11.12
▁パ	-11.1201
ुर	-11.1208
▁express	-11.1208
▁learned	-11.1209
▁Gold	-11.1215
ál	-11.1217
いく	-11.1218
card	-11.1222
▁Didn	-11.1223
▁lang	-11.1225
yp	-11.1226
▁relative	-11.1226
▁hasn	-11.1226
ню	-11.1227
▁Ministry	-11.1229
▁demasiado	-11.1229
▁oportunidad	-11.1229
白	-11.1229
▁domestic	-11.1229
▁technologies	-11.1229
▁destination	-11.1229
▁ministre	-11.1229
聞いた	-11.1229
方法	-11.1229
träge	-11.1229
▁HIV	-11.123
ятся	-11.123
▁2014,	-11.1231
▁Federal	-11.1231
тен	-11.1236
れた	-11.1237
▁Tar	-11.1238
мон	-11.124
▁spoke	-11.1242
手を	-11.1242
▁chat	-11.1242
tum	-11.1242
gri	-11.1246
вет	-11.1248
сси	-11.125
hir	-11.1251
▁fils	-11.1251
▁コ	-11.1253
▁ill	-11.1254
स्क	-11.1254
▁खोलें	-11.1254
même	-11.1255
▁funding	-11.1256
▁Cela	-11.1257
TC	-11.1259
last	-11.1263
▁наш	-11.1263
▁pages	-11.1264
▁llegar	-11.1266
▁lado	-11.1267
▁तब	-11.1268
BA	-11.1269
▁weitere	-11.1272
ाँ	-11.1272
▁1989	-11.1274
▁procedures	-11.1275
ala	-11.1278
めた	-11.1279
▁laugh	-11.128
▁fac	-11.1282
цен	-11.1283
▁col	-11.1285
▁Bay	-11.1287
▁Vielleicht	-11.1288
▁definitely	-11.1288
▁сессии	-11.1288
▁Church	-11.1288
▁люди	-11.1288
▁willing	-11.1289
▁tête	-11.1289
▁उसको	-11.129
はどう	-11.129
уш	-11.1292
ेन	-11.1293
▁pensé	-11.1294
▁haut	-11.1294
▁réunion	-11.1295
▁temp	-11.1296
▁Wind	-11.1296
▁label	-11.1297
▁Villa	-11.1298
▁62	-11.13
▁Vale	-11.13
▁convention	-11.1301
▁Cast	-11.1301
▁Western	-11.1301
▁rue	-11.1303
धा	-11.1303
▁prob	-11.1304
raz	-11.1304
▁FOR	-11.1304
サー	-11.1307
▁familiar	-11.1308
▁useful	-11.1308
nden	-11.1308
▁vin	-11.131
▁prend	-11.1312
hä	-11.1314
最	-11.1315
▁orders	-11.1316
ART	-11.1319
取	-11.1321
dal	-11.1327
/12/	-11.133
よね	-11.133
▁Bou	-11.1331
main	-11.1332
サン	-11.1333
▁Frage	-11.1333
фе	-11.1334
▁einige	-11.1339
▁Shut	-11.1341
▁mari	-11.1342
▁Nay	-11.1342
▁dry	-11.1344
rí	-11.1344
▁insist	-11.1347
天	-11.1347
▁Entwicklung	-11.1347
▁suficiente	-11.1347
▁वक्त	-11.1347
▁cambio	-11.1347
▁angry	-11.1348
▁Constitution	-11.1348
▁Austria	-11.1348
▁बड़े	-11.1348
▁acerca	-11.1348
▁temperature	-11.1348
▁GMT	-11.1348
▁division	-11.1348
▁Division	-11.1349
▁Machine	-11.1349
▁bajo	-11.135
だけだ	-11.1352
来る	-11.1356
.2.	-11.136
objet	-11.1361
▁Anna	-11.1361
▁fur	-11.1365
するの	-11.1367
▁Unies	-11.1371
▁Hour	-11.1371
▁Ski	-11.1375
▁(18	-11.1376
何を	-11.1376
▁Rose	-11.1377
Su	-11.1379
引き	-11.138
ember	-11.1381
тан	-11.1387
▁celebr	-11.1389
Wo	-11.1389
▁update	-11.1394
▁determine	-11.1395
▁Allez	-11.1396
▁Januar	-11.1396
coming	-11.1398
▁primero	-11.1398
▁дома	-11.1402
▁experts	-11.1402
▁EN	-11.1402
▁muchas	-11.1403
TO	-11.1404
▁बचा	-11.1405
▁traffic	-11.1407
▁sac	-11.1407
▁Detective	-11.1407
▁approval	-11.1407
▁holiday	-11.1407
点	-11.1407
▁insurance	-11.1407
▁Sometimes	-11.1407
▁album	-11.1407
फा	-11.1408
тон	-11.1408
▁electronic	-11.1408
▁Standard	-11.1408
technolog	-11.1409
doers	-11.1409
▁taught	-11.1409
▁выбор	-11.1411
▁भेजा	-11.1411
/2012	-11.1414
▁Gri	-11.1417
ड़े	-11.1419
▁nations	-11.1422
print	-11.1423
oxy	-11.1425
Si	-11.1425
▁bestimmt	-11.1425
▁achieve	-11.1425
▁CA	-11.1426
▁brothers	-11.1427
path	-11.1428
▁AG	-11.1429
▁wishes	-11.1429
ेंट	-11.1433
venu	-11.1435
lick	-11.1437
▁Merci	-11.1437
▁школ	-11.1438
▁payment	-11.1439
mination	-11.144
▁fonds	-11.1442
▁род	-11.1442
BC	-11.1443
UM	-11.1443
になって	-11.1444
▁agents	-11.1444
नो	-11.1445
▁Indian	-11.1446
▁monitor	-11.1446
far	-11.1448
west	-11.1448
médi	-11.145
2003	-11.145
après	-11.1451
grade	-11.1455
zahl	-11.1455
▁ruin	-11.1456
める	-11.1456
ंज	-11.1458
▁Jean	-11.1458
телей	-11.1458
▁quien	-11.1461
▁proof	-11.1462
▁queda	-11.1467
急	-11.1467
▁voulez	-11.1467
▁Sonntag	-11.1467
▁knock	-11.1467
▁тогда	-11.1467
ヒ	-11.1467
▁famous	-11.1467
▁situación	-11.1467
▁applied	-11.1467
▁committee	-11.1468
▁representatives	-11.1468
▁Center	-11.1468
CP	-11.1469
▁erst	-11.147
以上	-11.1471
▁आओ	-11.1471
▁Sarah	-11.1472
CD	-11.1472
▁alternative	-11.1472
▁denied	-11.1474
rid	-11.1476
▁61	-11.1476
cies	-11.1477
▁खाता	-11.1482
▁exception	-11.1485
ttle	-11.1486
▁Line	-11.1487
ило	-11.1487
haft	-11.1488
▁associated	-11.1492
itch	-11.1493
▁operate	-11.1495
empl	-11.1496
▁ok	-11.1499
▁convert	-11.15
duction	-11.1501
▁plate	-11.1501
▁kannst	-11.1503
▁revelations	-11.1503
▁derechos	-11.1504
▁मो	-11.1504
レス	-11.1505
уда	-11.1507
aries	-11.1507
▁acting	-11.1507
▁growing	-11.1507
von	-11.1508
▁возможно	-11.1509
▁ustedes	-11.151
▁older	-11.1511
▁leaders	-11.1511
▁kick	-11.1512
▁bother	-11.1512
▁कहने	-11.1514
▁noted	-11.1514
員	-11.1515
▁Buch	-11.1516
/2014	-11.1518
ешься	-11.1522
▁fra	-11.1523
▁Game	-11.1526
べ	-11.1527
fon	-11.1527
屋	-11.1528
許	-11.1528
▁Gemeinschaft	-11.1528
▁Mittwoch	-11.1528
▁प्रारंभ	-11.1528
▁liquid	-11.1528
▁Haupt	-11.1528
▁bottle	-11.1529
▁ancient	-11.1529
жал	-11.1529
▁poli	-11.153
/10/	-11.1531
▁nivel	-11.1532
▁extremely	-11.1532
▁solid	-11.1532
▁aider	-11.1535
▁aliment	-11.1535
знач	-11.1538
▁28,	-11.154
▁permis	-11.1541
▁paar	-11.1542
▁mol	-11.1543
に行く	-11.1543
ève	-11.1546
ительно	-11.155
▁cards	-11.1551
▁Must	-11.1553
▁espera	-11.1553
ないわ	-11.1557
▁Corr	-11.1557
めて	-11.1557
一人	-11.1566
lp	-11.1566
▁63	-11.1567
▁aucun	-11.1567
(2)	-11.1569
-7	-11.157
▁leid	-11.1572
▁meat	-11.1577
IA	-11.158
bild	-11.1584
isé	-11.1585
more	-11.1586
者は	-11.1587
▁mountain	-11.1587
罪	-11.1589
▁शायद	-11.1589
理由	-11.1589
▁poverty	-11.1589
▁Потому	-11.1589
▁Теперь	-11.1589
▁किन्तु	-11.1589
▁Thomas	-11.1589
約束	-11.1589
▁administrative	-11.1589
▁surveillance	-11.1589
AIDS	-11.1589
▁Ly	-11.159
▁Parlement	-11.159
▁जबकि	-11.159
▁dabei	-11.1591
▁hija	-11.1593
▁commune	-11.1593
user	-11.1595
िका	-11.1595
▁(6)	-11.1597
▁capable	-11.1597
▁goal	-11.1598
▁Cho	-11.1599
down	-11.1604
count	-11.1606
▁Chris	-11.1607
▁Both	-11.1607
▁pretend	-11.1607
わない	-11.1607
post	-11.1608
▁документ	-11.1608
▁monitoring	-11.1611
ND	-11.1614
पै	-11.1615
▁conven	-11.1615
ellen	-11.1616
fern	-11.1616
▁string	-11.1617
▁répond	-11.1617
▁ваш	-11.1619
▁Estado	-11.162
▁sab	-11.162
▁Gut	-11.1623
▁politiques	-11.1623
उन	-11.1624
▁Era	-11.1625
/1	-11.1625
▁мест	-11.1625
ダー	-11.1625
▁стол	-11.1632
tine	-11.1633
▁बनाएँ	-11.1633
जन	-11.1635
files	-11.164
▁Wall	-11.1642
मे	-11.1645
ющие	-11.1645
▁Papa	-11.1647
近	-11.1649
ites	-11.1649
▁बुरा	-11.165
▁labor	-11.165
母	-11.165
足	-11.165
記	-11.165
声	-11.165
▁जैसे	-11.165
▁झूठ	-11.165
準備	-11.165
▁bottom	-11.165
▁federal	-11.165
▁guerre	-11.165
▁appeal	-11.165
▁повестк	-11.1651
▁repent	-11.1651
▁trouvé	-11.1651
▁réponse	-11.1651
hood	-11.1651
▁labour	-11.1651
▁Net	-11.1651
▁seguir	-11.1652
पूरी	-11.1652
▁montant	-11.1654
gging	-11.1654
▁Mitgliedstaaten	-11.1655
▁Justice	-11.1655
▁Sohn	-11.1655
▁прямо	-11.1656
entre	-11.1658
わよ	-11.1659
wp	-11.1659
▁तुमको	-11.1659
▁Guide	-11.166
case	-11.1661
▁pieces	-11.1663
श्	-11.1663
iller	-11.1669
▁suck	-11.1675
▁stars	-11.1676
▁Sab	-11.1678
▁Ä	-11.1681
せる	-11.1681
▁ブ	-11.1682
的な	-11.1682
band	-11.1682
▁concerns	-11.1685
itaire	-11.1686
▁ganze	-11.1688
keit	-11.1695
▁Institute	-11.1695
▁बी	-11.17
▁commit	-11.17
お前	-11.1701
llow	-11.1702
▁vot	-11.1702
▁sending	-11.1703
▁aspects	-11.1703
cut	-11.1704
したら	-11.1705
▁Вам	-11.1707
▁Unto	-11.1708
▁важно	-11.171
船	-11.1712
勝	-11.1712
▁expenditure	-11.1712
▁numéro	-11.1712
▁которых	-11.1712
礼	-11.1712
▁знать	-11.1712
▁conseil	-11.1712
▁немного	-11.1713
▁coordination	-11.1713
▁fellow	-11.1713
▁Carl	-11.1714
▁bright	-11.1714
aging	-11.1717
▁Design	-11.1719
▁свой	-11.1719
лег	-11.172
rons	-11.1724
があった	-11.1725
▁Place	-11.1731
▁Washington	-11.1731
しか	-11.1733
▁Roman	-11.1738
erg	-11.1745
eaux	-11.1748
▁Unit	-11.175
lica	-11.1755
▁states	-11.1758
ため	-11.1759
▁highly	-11.176
▁défini	-11.176
она	-11.1761
▁cit	-11.1761
▁Совет	-11.1765
йтесь	-11.1766
▁Want	-11.1768
▁自分	-11.1769
全	-11.177
EX	-11.1772
▁сторон	-11.1772
▁audit	-11.1773
新	-11.1774
感	-11.1774
報	-11.1774
危険	-11.1774
▁igual	-11.1774
▁мужчин	-11.1774
▁Привет	-11.1775
▁chastisement	-11.1775
上げ	-11.1775
▁régime	-11.1775
Puedo	-11.1776
▁потом	-11.1776
▁hör	-11.1776
▁snow	-11.1777
▁percent	-11.1777
▁powerful	-11.1779
殺人	-11.1781
▁fiscal	-11.1781
▁ста	-11.1786
▁Kill	-11.1786
▁wh	-11.1786
▁seinem	-11.1786
toria	-11.1786
лан	-11.1787
▁sei	-11.1789
▁Abend	-11.1795
▁Job	-11.1795
▁форм	-11.1798
▁cops	-11.1802
nar	-11.1804
を持って	-11.1805
▁nearly	-11.1806
られない	-11.1807
▁described	-11.1807
▁1:	-11.1809
▁terme	-11.1809
▁hombres	-11.1809
фор	-11.181
▁−	-11.181
ían	-11.1811
ough	-11.1811
pped	-11.1812
▁dachte	-11.1816
▁दूसरे	-11.1819
▁そうだ	-11.182
пал	-11.1821
▁esas	-11.1822
try	-11.1822
▁invest	-11.1823
▁große	-11.1824
▁Full	-11.1824
direct	-11.1825
script	-11.1827
DS	-11.1829
▁Fahr	-11.1829
▁relatives	-11.183
dra	-11.1831
出す	-11.1832
▁бес	-11.1835
要	-11.1837
▁Custom	-11.1837
▁millones	-11.1837
▁novembre	-11.1837
▁external	-11.1837
▁प्यार	-11.1837
▁しかし	-11.1837
▁muerte	-11.1837
▁さあ	-11.1837
▁जाएगी	-11.1838
▁2:	-11.1839
▁Ren	-11.1841
命	-11.1841
▁Thou	-11.1842
▁selection	-11.1843
▁talent	-11.1845
▁1980	-11.1846
▁Bett	-11.1848
▁Ham	-11.1848
▁собира	-11.1848
वार	-11.1849
▁लिख	-11.1852
私	-11.1852
▁checked	-11.1853
▁problèmes	-11.1855
ロン	-11.1858
▁Danny	-11.1859
▁Access	-11.1861
тся	-11.1861
▁contained	-11.1863
▁heading	-11.1867
▁думал	-11.1869
ELL	-11.187
Ф	-11.1872
FI	-11.1873
izado	-11.1874
sses	-11.1877
ге	-11.1878
ides	-11.1879
▁Kal	-11.188
▁Mad	-11.1881
強	-11.1882
▁それを	-11.1882
▁Бе	-11.1884
▁poste	-11.1885
matic	-11.189
▁необходимо	-11.1894
これ	-11.1895
▁laws	-11.1896
инг	-11.1898
▁2)	-11.1898
万	-11.19
▁ejemplo	-11.19
▁hurry	-11.19
▁license	-11.19
▁Foreign	-11.19
▁puerta	-11.19
▁cheap	-11.19
	-11.19
teilung	-11.19
▁твои	-11.19
▁Little	-11.19
▁मगर	-11.1901
▁operating	-11.1901
▁particip	-11.1902
▁herself	-11.1903
▁mobile	-11.1903
izar	-11.1905
▁wage	-11.1907
▁Italian	-11.1909
▁Op	-11.1911
▁causa	-11.1912
パー	-11.1915
▁0%	-11.1915
▁discrimination	-11.1917
▁Association	-11.1918
▁esté	-11.1918
▁établi	-11.1921
дь	-11.1922
/02/	-11.1922
▁больш	-11.1923
▁unos	-11.1923
を見て	-11.1923
лад	-11.1924
▁fruits	-11.1928
dessus	-11.1929
िश	-11.193
uh	-11.1931
еш	-11.1934
▁लि	-11.1936
setzt	-11.1937
▁meiner	-11.1941
char	-11.1941
évaluation	-11.1943
▁changement	-11.1946
▁hol	-11.1947
▁Sto	-11.1948
▁joke	-11.1949
UC	-11.1949
▁Нам	-11.1951
▁cycle	-11.1951
edu	-11.1954
▁prop	-11.1955
putting	-11.1956
▁exact	-11.1958
▁デ	-11.1961
行って	-11.1962
▁Breakfast	-11.1963
▁помочь	-11.1963
室	-11.1963
▁cabeza	-11.1963
▁juillet	-11.1963
時に	-11.1963
▁descend	-11.1963
▁survey	-11.1963
▁मिटाएँ	-11.1963
▁colour	-11.1963
▁रखते	-11.1964
▁tele	-11.1964
▁télé	-11.1964
とき	-11.1965
▁tongue	-11.1965
▁score	-11.1965
▁fueron	-11.1968
▁filter	-11.1969
させ	-11.197
ации	-11.197
▁よく	-11.197
▁County	-11.1971
▁leader	-11.1972
のこと	-11.1972
▁कार	-11.1974
ехал	-11.1974
▁नए	-11.1976
▁Из	-11.1978
▁彼女の	-11.198
ям	-11.198
▁एक्स	-11.1981
ked	-11.1984
▁boo	-11.1986
▁closer	-11.1986
▁technique	-11.1988
ेस	-11.1989
▁перв	-11.1991
▁carte	-11.1994
tention	-11.1994
चे	-11.1995
▁誰も	-11.1998
▁mor	-11.2
▁Estaba	-11.2001
fold	-11.2002
ог	-11.2003
чь	-11.2003
овал	-11.2004
/7	-11.2005
Unis	-11.2005
lay	-11.2009
▁entend	-11.201
▁None	-11.201
▁expression	-11.2013
▁хорош	-11.2019
たんだ	-11.2023
▁otras	-11.2023
3%	-11.2024
нг	-11.2025
▁соглас	-11.2026
ο	-11.2027
▁criteria	-11.2027
▁dimension	-11.2027
▁perspective	-11.2027
▁twice	-11.2027
▁बेहतर	-11.2027
▁Aquí	-11.2027
▁café	-11.2027
言葉	-11.2027
▁момент	-11.2027
▁bastard	-11.2027
▁daily	-11.2027
част	-11.2028
▁Unión	-11.2029
▁preserv	-11.203
▁solve	-11.2031
▁Server	-11.2032
tien	-11.2032
▁своих	-11.2032
▁crew	-11.2033
▁favorite	-11.2034
▁государства	-11.2034
▁хочет	-11.204
free	-11.2041
▁彼	-11.2044
▁multiple	-11.2044
かり	-11.2046
▁recommended	-11.2048
▁brings	-11.2049
▁soutien	-11.2053
▁Bus	-11.2054
wan	-11.2059
▁(0	-11.2059
▁manage	-11.206
пусти	-11.2062
ziehen	-11.2063
«	-11.2068
わね	-11.2069
▁posts	-11.2081
▁leading	-11.2085
▁Jul	-11.2086
▁आयत	-11.209
妻	-11.2091
▁MwSt	-11.2091
▁Science	-11.2091
▁français	-11.2091
▁Знаешь	-11.2091
▁ज्यादा	-11.2091
▁drunk	-11.2091
▁Business	-11.2091
▁चुके	-11.2091
▁buddy	-11.2091
▁apostle	-11.2091
▁strike	-11.2091
▁язык	-11.2091
▁वाली	-11.2091
▁Question	-11.2092
▁devant	-11.2092
три	-11.2094
TM	-11.2094
▁проблем	-11.2096
stone	-11.21
ión	-11.2102
cier	-11.2102
▁Tue	-11.2102
▁shape	-11.2104
▁レ	-11.2104
▁wise	-11.2109
▁interests	-11.2111
▁dein	-11.2112
▁ここで	-11.2115
▁lors	-11.2116
▁keeping	-11.2119
▁tape	-11.2122
▁Trade	-11.2123
lop	-11.2124
▁bail	-11.2125
hydr	-11.2127
ाइट	-11.2128
▁Hol	-11.2131
All	-11.2131
▁SU	-11.2132
アッラー	-11.2133
эр	-11.2134
▁jemand	-11.2135
▁mut	-11.2136
лив	-11.2137
hold	-11.2138
annexe	-11.2138
行き	-11.2139
एक	-11.2142
ュー	-11.2144
aka	-11.2145
▁Matt	-11.2146
▁gana	-11.2146
かれは	-11.2147
образ	-11.2149
hält	-11.2151
▁Mass	-11.2153
ढ़	-11.2154
▁papá	-11.2155
▁possibility	-11.2155
▁качестве	-11.2155
▁мистер	-11.2155
▁Geschichte	-11.2155
▁Hilfe	-11.2155
▁Club	-11.2155
▁capacité	-11.2155
▁primary	-11.2156
▁ओह	-11.2161
▁helping	-11.2162
仕	-11.2162
▁salir	-11.2163
▁ली	-11.2166
▁principles	-11.2167
▁clase	-11.2168
▁minor	-11.2169
▁Order	-11.2169
▁Option	-11.217
WP	-11.2174
iro	-11.2174
▁Old	-11.2178
-06	-11.218
▁treated	-11.218
▁radi	-11.2181
▁видел	-11.2182
▁medium	-11.2182
▁intended	-11.2183
▁affected	-11.2187
▁arrived	-11.2195
sol	-11.2196
zug	-11.2197
子供	-11.2199
▁можете	-11.2201
▁buen	-11.2203
рь	-11.2205
▁ある	-11.2206
worth	-11.2207
▁どうして	-11.2209
lio	-11.2212
▁jeden	-11.2213
max	-11.2214
▁assume	-11.2216
▁accounts	-11.2216
▁вопросам	-11.2216
ников	-11.2217
sitz	-11.2217
知ってる	-11.2217
ские	-11.2217
▁एल	-11.2218
▁choisi	-11.2219
▁rid	-11.222
▁bietet	-11.222
▁segundo	-11.222
▁signature	-11.222
▁मतलब	-11.222
▁remote	-11.222
▁Somebody	-11.222
▁boyfriend	-11.2221
▁Jimmy	-11.2221
▁भाई	-11.2221
▁Chairman	-11.2221
▁chief	-11.2221
▁Evolution	-11.2221
▁Anyway	-11.2222
▁filled	-11.2225
▁passer	-11.2225
▁pension	-11.2227
▁bigger	-11.2228
PT	-11.223
▁establishment	-11.223
の中	-11.2235
меча	-11.2236
इन	-11.2236
इल	-11.2237
▁Familie	-11.2237
▁эта	-11.2239
▁motor	-11.2239
▁дев	-11.2243
▁शा	-11.2244
रों	-11.2245
▁obligations	-11.2246
erung	-11.2248
▁inner	-11.2248
▁nécessaire	-11.2252
▁Ла	-11.2253
▁самом	-11.2257
▁meinem	-11.226
▁("	-11.226
▁говорил	-11.2266
rück	-11.2266
minister	-11.2266
▁urban	-11.2267
mobili	-11.2267
बो	-11.2269
▁cierto	-11.227
ब्	-11.227
щих	-11.2272
▁चाहे	-11.2274
cciones	-11.2275
िम	-11.2275
▁PRO	-11.2279
出来る	-11.2279
/19	-11.2279
▁sollen	-11.2281
ания	-11.2283
ood	-11.2283
▁comfort	-11.2284
▁彼女	-11.2285
EST	-11.2285
▁सहेज	-11.2285
RES	-11.2285
▁потреб	-11.2286
渡	-11.2286
選	-11.2286
▁Mexico	-11.2286
公	-11.2286
計画	-11.2286
▁решение	-11.2286
▁Failed	-11.2286
▁Network	-11.2286
▁दिए	-11.2286
▁communities	-11.2286
▁scheme	-11.2286
▁shame	-11.2286
▁crap	-11.2287
▁देगा	-11.2288
▁dying	-11.2289
▁Wood	-11.2289
▁राह	-11.229
▁стороны	-11.229
▁Ken	-11.2291
▁valor	-11.2292
▁Ac	-11.2292
▁WE	-11.2293
ieux	-11.2294
▁पूर्ण	-11.2295
born	-11.2298
▁Simon	-11.2299
▁Rock	-11.2301
▁Ask	-11.2301
▁directory	-11.2302
ची	-11.2303
Ra	-11.2305
NC	-11.2306
solve	-11.2307
▁violation	-11.2308
▁Bri	-11.2308
▁Sag	-11.2309
▁voie	-11.2311
▁journalist	-11.2315
どこ	-11.2319
Our	-11.2326
▁चार	-11.2329
▁poly	-11.2329
дав	-11.233
チャ	-11.233
Э	-11.2331
▁organiz	-11.2331
▁stehen	-11.2333
▁warn	-11.2335
▁revi	-11.2335
▁पट्टी	-11.2336
▁पढ़	-11.2337
▁Holy	-11.2338
▁internet	-11.2338
▁CH	-11.2341
▁jede	-11.2341
▁Eli	-11.2342
▁Ach	-11.2344
▁знал	-11.2344
▁truthful	-11.2345
アン	-11.2347
étude	-11.2348
ひ	-11.235
gor	-11.235
▁86	-11.2351
▁Education	-11.2351
▁Paradise	-11.2351
▁corazón	-11.2351
▁côté	-11.2351
▁septembre	-11.2351
▁परिणाम	-11.2351
▁снова	-11.2351
▁chemical	-11.2351
▁cloud	-11.2352
▁Mel	-11.2353
▁concert	-11.2353
▁virus	-11.2353
▁failure	-11.2353
▁причин	-11.2353
▁रखा	-11.2354
▁household	-11.2355
▁preparation	-11.2355
▁invite	-11.2357
▁wa	-11.2358
▁1988	-11.2359
याँ	-11.2361
事件	-11.2361
▁Minuten	-11.2362
верн	-11.2362
▁Vol	-11.2365
ями	-11.2365
ème	-11.2367
▁reduced	-11.2375
!!!	-11.2376
▁dump	-11.2378
▁право	-11.238
▁हाल	-11.2383
▁स्व	-11.2384
▁три	-11.2386
nza	-11.239
▁franc	-11.2391
▁bringing	-11.2393
▁Cuba	-11.2394
Europe	-11.2395
puesto	-11.2398
にして	-11.2399
gger	-11.2399
जर	-11.24
iden	-11.2401
▁->	-11.2402
ается	-11.2402
▁canadien	-11.2407
▁avis	-11.241
▁Mari	-11.2412
है	-11.2415
真	-11.2417
▁существ	-11.2417
▁switch	-11.2418
▁Spirit	-11.2418
▁пожалуйста	-11.2418
▁afternoon	-11.2418
▁freak	-11.2418
▁Rück	-11.2418
▁shock	-11.2418
▁beauty	-11.2419
▁minutos	-11.2419
レー	-11.2419
▁collaboration	-11.2421
▁institution	-11.2422
▁précis	-11.2423
▁reduction	-11.2423
▁KDE	-11.2424
▁weekend	-11.2424
▁पड़	-11.2424
▁Grace	-11.2426
▁proposals	-11.2428
▁значит	-11.2428
ivity	-11.2429
▁pardon	-11.2431
▁ging	-11.2432
▁(5	-11.2432
▁inclu	-11.2435
▁steps	-11.2436
ирует	-11.2436
▁discussed	-11.2437
▁81	-11.2437
дов	-11.2439
ること	-11.2439
ूर	-11.2441
▁Tony	-11.2444
Ja	-11.2445
/2004	-11.2446
▁Yu	-11.2446
▁savez	-11.2447
▁हों	-11.2451
▁माँ	-11.2451
▁Volk	-11.2453
▁ありがとう	-11.2457
bio	-11.2459
Х	-11.246
▁joy	-11.2461
▁maps	-11.2462
01.	-11.2464
▁served	-11.2466
▁behold	-11.2468
▁matar	-11.2469
▁Tour	-11.247
▁Ann	-11.2471
FF	-11.2474
食べ	-11.2474
▁languages	-11.2477
pers	-11.2483
▁causes	-11.2484
関	-11.2484
連絡	-11.2484
▁square	-11.2484
背	-11.2484
▁notamment	-11.2484
uploads	-11.2484
assurance	-11.2484
▁Тебе	-11.2485
/0/	-11.2485
stat	-11.2487
ppen	-11.2488
▁brand	-11.2488
mobil	-11.249
▁retour	-11.2491
▁vent	-11.2491
▁はい	-11.2492
▁pensar	-11.2493
▁users	-11.2497
▁delay	-11.2502
UNG	-11.2504
क्या	-11.2504
ड़ी	-11.2505
ori	-11.2508
▁uniform	-11.2513
usa	-11.2514
/15	-11.252
すれば	-11.252
▁analyse	-11.2521
▁youth	-11.2522
ング	-11.2522
sort	-11.2523
▁association	-11.2524
▁подход	-11.2526
▁etwa	-11.2526
ジャ	-11.2528
-9	-11.2531
hnen	-11.2531
▁denen	-11.2532
▁quel	-11.2533
▁tear	-11.2535
ники	-11.2536
▁Mur	-11.2537
▁verb	-11.2539
ились	-11.2539
▁archive	-11.254
▁Kra	-11.254
Ver	-11.2541
▁Че	-11.2542
école	-11.2544
6/	-11.2545
5€	-11.2546
VI	-11.2546
▁सह	-11.2548
▁obliga	-11.2551
民	-11.2551
速	-11.2551
▁circumstances	-11.2551
▁difícil	-11.2551
▁pueblo	-11.2551
▁Тогда	-11.2551
▁पंक्ति	-11.2551
▁Permanent	-11.2551
▁identify	-11.2551
▁じゃあ	-11.2551
▁Voices	-11.2551
▁Professor	-11.2551
▁illegal	-11.2551
▁élevé	-11.2551
▁quatre	-11.2551
▁advise	-11.2552
gallery	-11.2552
zimmer	-11.2552
▁Nav	-11.2552
んじゃない	-11.2553
▁ロ	-11.2553
▁comfortable	-11.2554
▁Га	-11.2554
▁assez	-11.2556
ましょう	-11.2556
▁tight	-11.2557
▁Ис	-11.2558
▁आयात	-11.2559
▁houses	-11.256
▁Four	-11.256
labor	-11.2565
▁Fax	-11.2566
▁practical	-11.2567
とか	-11.257
ён	-11.257
ово	-11.2572
▁действительно	-11.2575
aj	-11.2575
▁hum	-11.2576
▁listening	-11.2579
roid	-11.2579
ますか	-11.2583
▁quedar	-11.2583
state	-11.2584
▁Muy	-11.2584
▁leaves	-11.2585
▁Этот	-11.2586
hou	-11.2586
▁coche	-11.2586
Car	-11.2587
▁desk	-11.259
езд	-11.2592
▁помог	-11.2594
▁organisation	-11.2596
▁neck	-11.2598
▁medidas	-11.2599
TT	-11.26
elo	-11.2601
▁poner	-11.2602
ेड	-11.2604
▁Noah	-11.2608
▁jeder	-11.2608
▁carbon	-11.2612
▁Wohnung	-11.2613
सर	-11.2613
▁Whoa	-11.2615
付け	-11.2615
▁मि	-11.2616
▁allows	-11.2617
▁respecto	-11.2617
▁mid	-11.2619
文	-11.2619
品	-11.2619
組	-11.2619
▁entfernt	-11.2619
▁todavía	-11.2619
▁médico	-11.2619
▁Website	-11.2619
理解	-11.2619
▁Executive	-11.2619
▁Display	-11.2619
/01/	-11.262
▁definition	-11.2622
▁voyage	-11.2622
▁langue	-11.2625
▁Down	-11.2625
▁formal	-11.2625
ply	-11.2625
▁près	-11.2628
▁Todos	-11.2628
schä	-11.2632
▁хотела	-11.2635
some	-11.2636
▁User	-11.2637
ृ	-11.2639
▁informed	-11.2643
िर	-11.2645
▁loose	-11.2646
▁ラ	-11.2648
しよう	-11.2648
тур	-11.2649
▁modo	-11.265
▁Eric	-11.2651
force	-11.2654
▁notes	-11.2658
rica	-11.2664
aurais	-11.2665
affaire	-11.2666
▁conclusion	-11.2666
カー	-11.2667
▁Path	-11.2669
▁exit	-11.267
▁trail	-11.267
▁oui	-11.267
▁viene	-11.2671
▁casi	-11.2672
verdad	-11.2674
ул	-11.2675
▁liked	-11.2675
▁Boo	-11.2677
ending	-11.2678
▁интерес	-11.2682
▁customers	-11.2685
性	-11.2686
▁horrible	-11.2687
▁hubiera	-11.2687
▁purchase	-11.2687
▁свобод	-11.2687
▁इसलिए	-11.2687
▁उपयोक्ता	-11.2687
▁ज़रूर	-11.2687
なきゃ	-11.2687
▁Pacific	-11.2687
▁cuerpo	-11.2687
▁ocurr	-11.2687
▁olvid	-11.2687
▁responsabilité	-11.2687
▁दस्तावेज़	-11.2687
▁smile	-11.2687
▁bath	-11.2687
好き	-11.2687
▁Damn	-11.2688
▁sieht	-11.2688
▁Folder	-11.2688
▁Ryan	-11.2689
▁несколько	-11.269
▁Эти	-11.269
▁Harry	-11.2692
▁outcome	-11.2692
▁bur	-11.2693
▁erhalten	-11.2693
life	-11.2693
gna	-11.2694
▁मोड	-11.2698
gur	-11.2698
起こ	-11.2701
▁Hause	-11.2702
▁gaz	-11.2704
▁сме	-11.2704
▁выполн	-11.2706
10%	-11.2706
▁examen	-11.2707
idades	-11.2708
▁proper	-11.2709
08/16	-11.2709
見て	-11.271
▁Dev	-11.2711
PP	-11.2711
cie	-11.2712
rian	-11.2714
▁देने	-11.2714
▁prueba	-11.2714
気に	-11.2716
▁achieved	-11.2718
▁height	-11.2719
mid	-11.272
▁player	-11.2722
▁opera	-11.2723
шь	-11.2725
gio	-11.2726
rain	-11.2726
▁तेर	-11.2726
▁Ontario	-11.2727
▁85	-11.2729
phone	-11.273
▁siguiente	-11.2732
енный	-11.2732
▁ド	-11.2733
▁punish	-11.2734
▁prepare	-11.2735
▁instruments	-11.2735
рак	-11.2736
LES	-11.2738
Li	-11.2742
▁beiden	-11.2742
▁Auch	-11.2747
▁2003,	-11.2747
▁ordered	-11.2752
ウン	-11.2755
▁encuentra	-11.2755
▁pequeño	-11.2755
▁único	-11.2755
▁परिवर्तन	-11.2755
▁सकती	-11.2755
寝	-11.2755
Ó	-11.2755
▁Quizá	-11.2755
▁Wirtschaft	-11.2755
▁shift	-11.2756
落ち	-11.2756
女性	-11.2756
▁sins	-11.2756
▁Бог	-11.2757
▁bridge	-11.2757
▁sleeping	-11.2757
activité	-11.2758
▁coin	-11.2758
▁cinq	-11.2759
▁datos	-11.2759
▁comité	-11.276
▁Operation	-11.276
▁कर्म	-11.2762
▁78	-11.2766
▁Sh	-11.2767
▁आपका	-11.2768
▁Iran	-11.2769
fil	-11.277
▁urgent	-11.2773
▁88	-11.2774
▁reaction	-11.2775
▁profile	-11.2778
बे	-11.278
▁私たちは	-11.278
▁DES	-11.2782
▁Mir	-11.2783
▁reden	-11.2783
round	-11.2784
▁candidate	-11.2792
sam	-11.2793
なし	-11.2794
MB	-11.2797
Bo	-11.2801
▁Blue	-11.2801
▁recorded	-11.2805
▁resource	-11.2806
▁adoption	-11.2806
▁refuse	-11.2809
ज़ी	-11.281
私に	-11.281
▁traité	-11.2811
û	-11.2811
arios	-11.2812
▁possess	-11.2812
▁Europea	-11.2814
▁знает	-11.2815
हे	-11.2816
▁Previous	-11.2816
▁Ref	-11.2818
▁lista	-11.282
▁66	-11.2821
ño	-11.2823
▁Portugal	-11.2824
▁Position	-11.2824
▁accommodation	-11.2824
▁principio	-11.2824
▁वीडियो	-11.2824
▁Energy	-11.2824
▁विषय	-11.2824
▁Anything	-11.2824
▁wheel	-11.2824
▁Punkt	-11.2825
▁Muslim	-11.2825
▁यक़ीनन	-11.2825
▁оп	-11.2825
▁coopération	-11.2825
▁Rapport	-11.2826
▁mus	-11.2826
▁Address	-11.2826
▁Review	-11.2829
▁meilleur	-11.283
▁Dem	-11.2831
▁edit	-11.2832
▁знаете	-11.2834
his	-11.2834
▁consultations	-11.2835
▁bleiben	-11.2836
▁rental	-11.2837
▁Bio	-11.2837
▁blessing	-11.2838
▁realmente	-11.2839
иц	-11.284
▁खुद	-11.2842
vez	-11.2842
▁Chance	-11.2843
▁defend	-11.2843
▁muchos	-11.2846
▁Там	-11.2848
ूँ	-11.2849
▁रखें	-11.285
▁Produkte	-11.2851
рис	-11.2852
▁reminder	-11.2855
▁revenu	-11.2855
мот	-11.2856
rar	-11.2858
>>>	-11.2858
▁mix	-11.286
▁seized	-11.2862
▁techniques	-11.2866
電	-11.2867
▁メ	-11.2868
400	-11.2869
▁96	-11.287
RY	-11.287
ると	-11.2871
▁मह	-11.2871
▁niño	-11.2874
▁bord	-11.2875
▁Flu	-11.2876
▁oeuvre	-11.2877
にいる	-11.288
▁texte	-11.2882
issant	-11.2886
楽	-11.2893
рем	-11.2893
▁counsel	-11.2894
▁méthode	-11.2894
▁जानकारी	-11.2894
▁फाइल	-11.2894
▁avril	-11.2894
▁tierra	-11.2894
▁Until	-11.2894
▁topic	-11.2894
▁Gr	-11.2896
क़यामत	-11.2896
▁Filter	-11.2896
いました	-11.2897
▁ベ	-11.2898
ließ	-11.2899
▁Brian	-11.2904
▁Ло	-11.2905
▁муж	-11.2906
▁brauchen	-11.2907
टो	-11.2909
▁octobre	-11.291
▁violent	-11.2911
gne	-11.2911
lassen	-11.2912
▁Much	-11.2914
rah	-11.2915
▁programs	-11.2916
▁Tim	-11.2917
▁largest	-11.2918
▁Texas	-11.2918
▁recognized	-11.2921
▁Mind	-11.2923
▁Environment	-11.2924
oire	-11.2925
答え	-11.2928
▁Ст	-11.2932
▁eating	-11.2933
▁стоит	-11.2936
▁や	-11.2938
night	-11.2938
▁exists	-11.2939
▁amigos	-11.294
ूल	-11.2942
ALL	-11.2943
▁Schl	-11.2946
▁Liber	-11.2946
even	-11.2947
あなたは	-11.2949
▁noise	-11.295
ってくれ	-11.2952
▁pig	-11.2953
BS	-11.2954
1%	-11.2955
▁fui	-11.2956
▁международно	-11.2956
voi	-11.2956
्ज	-11.296
ically	-11.296
boy	-11.2962
▁salt	-11.2963
▁Luxembourg	-11.2964
▁pregnant	-11.2964
▁représente	-11.2964
▁college	-11.2964
▁souvent	-11.2964
役	-11.2964
結婚	-11.2964
安全	-11.2964
▁Japanese	-11.2964
▁Account	-11.2964
▁Alexander	-11.2964
▁mandat	-11.2964
▁torture	-11.2964
▁लिये	-11.2964
▁Beispiel	-11.2964
▁juego	-11.2964
▁everywhere	-11.2965
▁sustainable	-11.2965
▁concerne	-11.2966
▁पानी	-11.2966
▁Tommy	-11.2967
▁Кром	-11.2967
▁71	-11.2967
▁Victor	-11.2967
chu	-11.2969
/6	-11.297
▁открыт	-11.2971
▁cama	-11.2972
Die	-11.2972
▁1985	-11.2972
▁Mobile	-11.2975
▁процесс	-11.2975
▁पहुँचा	-11.2976
Ex	-11.2977
▁spa	-11.2978
▁objectives	-11.298
▁tema	-11.2984
▁Fle	-11.2986
ाव	-11.2986
PL	-11.2987
पे	-11.2987
▁locked	-11.2988
▁devil	-11.2989
hur	-11.2989
▁seriously	-11.2989
▁выход	-11.299
▁Ci	-11.2992
▁confi	-11.2995
▁состав	-11.2996
ände	-11.2997
▁drinking	-11.2997
▁lib	-11.2997
▁row	-11.2998
▁gute	-11.3002
▁paint	-11.3006
тки	-11.3007
▁Пол	-11.3009
▁examin	-11.3009
▁cars	-11.301
▁parking	-11.301
ANT	-11.301
писан	-11.3011
▁彼を	-11.3014
▁jug	-11.3015
▁После	-11.3017
page	-11.3018
▁stayed	-11.3019
▁bow	-11.302
ddle	-11.3021
▁सुना	-11.3023
examen	-11.3024
▁Ihren	-11.3024
Next	-11.3024
▁records	-11.3025
adores	-11.3026
DO	-11.3027
म्ब	-11.3028
▁пом	-11.303
引	-11.303
▁servi	-11.3033
▁どんな	-11.3034
exercice	-11.3034
expérience	-11.3034
▁Affairs	-11.3034
▁financière	-11.3034
▁प्रमाणपत्र	-11.3034
▁destruction	-11.3034
▁gefunden	-11.3034
▁breast	-11.3034
▁kingdom	-11.3034
▁матери	-11.3034
▁biggest	-11.3034
▁vessel	-11.3034
▁helfen	-11.3034
▁enhance	-11.3034
▁Besides	-11.3034
▁suivi	-11.3035
こそ	-11.3035
▁écrit	-11.3035
▁Police	-11.3035
▁Platz	-11.3036
▁branch	-11.3036
▁домой	-11.3037
▁Roger	-11.3039
▁वालों	-11.3041
▁Korea	-11.3042
▁Stunden	-11.3044
▁fee	-11.3046
▁idée	-11.3047
▁detailed	-11.3049
中に	-11.3051
▁Wed	-11.3051
▁sand	-11.3052
▁overall	-11.3054
▁komm	-11.3054
▁рук	-11.3055
▁बुला	-11.3056
uses	-11.3056
▁kurz	-11.3057
text	-11.3058
теле	-11.306
▁garanti	-11.306
▁Chapter	-11.3063
▁nehmen	-11.3064
▁président	-11.3064
jahr	-11.3065
▁trend	-11.3067
▁breath	-11.3069
▁dude	-11.307
▁amendments	-11.307
▁мер	-11.3071
лон	-11.3073
मत	-11.3074
▁Typ	-11.3074
▁shoes	-11.3074
ouvre	-11.3077
rien	-11.3077
隊	-11.3077
ちゃ	-11.3077
▁musst	-11.3078
▁pasar	-11.3078
▁compared	-11.3078
▁transition	-11.308
▁jail	-11.308
▁Termin	-11.308
sky	-11.308
▁ле	-11.3081
▁Officer	-11.3082
sig	-11.3082
▁sitio	-11.3082
▁médica	-11.3083
▁describe	-11.3084
▁Dave	-11.3084
куп	-11.3084
▁rose	-11.3086
2017	-11.3086
▁lovely	-11.3089
र्ट	-11.3089
ड़ा	-11.3089
▁faites	-11.3091
▁objective	-11.3092
▁след	-11.3093
▁Haut	-11.3094
ваться	-11.3096
ensemble	-11.3096
▁कु	-11.3097
BO	-11.3099
の中に	-11.31
TION	-11.3103
▁continues	-11.3103
暗	-11.3105
▁approximate	-11.3105
▁déclaration	-11.3105
▁ministère	-11.3105
▁Всё	-11.3105
第	-11.3105
▁पुकार	-11.3105
▁Hör	-11.3106
▁instance	-11.3106
▁pattern	-11.3106
▁говорить	-11.3108
▁600	-11.3108
▁Whoever	-11.3108
▁Export	-11.3109
▁परि	-11.311
▁certaines	-11.311
▁67	-11.3112
ありません	-11.3115
▁thousands	-11.3116
▁stu	-11.3117
何も	-11.312
人を	-11.312
egra	-11.3122
▁toward	-11.3124
▁climate	-11.3124
▁होकर	-11.3126
つか	-11.3128
▁acid	-11.3128
みたい	-11.3128
ería	-11.3128
▁子供	-11.3129
см	-11.3131
suite	-11.3131
rack	-11.3131
лей	-11.3133
▁होते	-11.3134
вания	-11.314
ttes	-11.3141
▁этому	-11.3141
gged	-11.3141
▁jobs	-11.3143
▁mighty	-11.3143
agen	-11.3147
▁皆	-11.3148
▁Five	-11.3149
つもり	-11.3149
▁commence	-11.3151
Hi	-11.3152
▁игра	-11.3152
▁Lee	-11.3155
▁MB	-11.3156
ierten	-11.3156
près	-11.3156
awn	-11.3157
енных	-11.3157
есс	-11.3157
дите	-11.3158
るわ	-11.3158
mmen	-11.3158
▁plants	-11.3159
▁obtain	-11.3162
lá	-11.3163
apport	-11.3166
iera	-11.3167
MO	-11.3167
▁fini	-11.3167
世界	-11.3168
大丈夫	-11.3168
िए	-11.3173
▁своим	-11.3173
るか	-11.3174
▁वस्तु	-11.3176
張	-11.3177
▁Representative	-11.3177
▁grateful	-11.3177
▁mientras	-11.3177
▁Безопасности	-11.3177
▁cuatro	-11.3177
▁janvier	-11.3177
▁enemies	-11.3177
最初	-11.3177
▁falta	-11.3177
▁Ker	-11.3177
▁PA	-11.3177
▁darauf	-11.3177
▁spell	-11.3178
▁crack	-11.318
▁nouveaux	-11.3182
racht	-11.3183
▁Finally	-11.3184
▁editor	-11.3184
▁ear	-11.3185
▁intention	-11.3185
▁invent	-11.3186
FE	-11.3187
yan	-11.3188
ATE	-11.3188
▁aurait	-11.3189
▁72	-11.319
▁feelings	-11.3194
auto	-11.3195
lten	-11.3197
ngún	-11.3197
▁Bild	-11.3197
гар	-11.3197
▁acts	-11.3197
ード	-11.3201
▁CR	-11.3203
▁algunas	-11.3203
/13	-11.3204
▁dealing	-11.3207
▁rev	-11.3208
アル	-11.3209
▁LE	-11.3211
▁marked	-11.3212
▁coat	-11.3213
▁tests	-11.3214
▁Hill	-11.3215
▁полу	-11.3215
使	-11.3216
を受け	-11.3216
ющий	-11.3218
NO	-11.3221
▁input	-11.3223
▁Woche	-11.3225
▁clo	-11.3227
▁steal	-11.3228
ぐ	-11.3229
лия	-11.323
っていた	-11.3231
Ч	-11.3232
▁repeat	-11.3232
者の	-11.3232
▁picked	-11.3233
▁launch	-11.3235
IB	-11.3236
झ	-11.3241
वान	-11.3244
▁кое	-11.3245
ほ	-11.3246
New	-11.3247
朝	-11.3248
盗	-11.3248
▁Mädchen	-11.3248
▁judgment	-11.3248
▁principe	-11.3248
▁सक्रिय	-11.3248
▁England	-11.3248
▁Gesamt	-11.3248
選択	-11.3248
▁relación	-11.3249
title	-11.3249
▁команд	-11.3249
死ぬ	-11.3249
▁resident	-11.3249
▁transaction	-11.3249
тя	-11.3251
▁ECU	-11.3251
▁suddenly	-11.3253
▁alter	-11.3253
▁genre	-11.3253
voll	-11.3254
ेशन	-11.3255
▁Ton	-11.3257
▁audio	-11.3258
▁Brand	-11.326
▁laquelle	-11.326
ander	-11.3261
trans	-11.3263
▁250	-11.3264
▁लें	-11.3266
TV	-11.327
▁paz	-11.327
ском	-11.3271
▁Shaw	-11.3272
▁enable	-11.3272
▁introduced	-11.3273
aving	-11.3276
ски	-11.3278
дж	-11.3278
аг	-11.3278
▁rapports	-11.3279
▁цел	-11.3281
ava	-11.3281
чик	-11.3283
▁gather	-11.3283
▁बदलें	-11.3283
彼の	-11.3284
▁turning	-11.3286
▁раздел	-11.3287
▁Pré	-11.3287
▁групп	-11.3287
▁motion	-11.3288
▁visible	-11.329
▁Quel	-11.3292
▁#5	-11.3293
▁Meer	-11.3294
▁aura	-11.3294
▁COM	-11.3295
▁complet	-11.3296
▁exceed	-11.33
▁Hy	-11.3302
▁Bol	-11.3303
▁पे	-11.3305
▁Frauen	-11.3307
▁Те	-11.3308
adresse	-11.3311
iness	-11.3312
NI	-11.3313
lv	-11.3313
ジュ	-11.3314
番	-11.3316
folge	-11.3318
▁вз	-11.3319
▁Fra	-11.3319
Ne	-11.332
ऊ	-11.3321
式	-11.3321
▁chambre	-11.3321
▁твоя	-11.3321
▁телефон	-11.3321
▁शब्द	-11.3321
▁Indi	-11.3321
▁誰か	-11.3322
уль	-11.3322
▁Item	-11.3323
▁देखने	-11.3323
порт	-11.3324
▁Mama	-11.333
-03-	-11.333
▁podía	-11.333
▁город	-11.3332
▁Gegen	-11.3332
▁ご	-11.3334
▁Ар	-11.3337
▁dare	-11.3337
ナー	-11.3338
▁calcul	-11.3339
mbra	-11.334
▁upset	-11.3342
▁reality	-11.3343
▁私たち	-11.3349
▁Sache	-11.335
▁methods	-11.3352
▁arrested	-11.3353
▁candidat	-11.3356
▁latest	-11.3356
tale	-11.3359
▁spare	-11.3363
нием	-11.3364
リスト	-11.3367
rand	-11.3367
धी	-11.3368
▁обе	-11.3368
2.2	-11.337
言い	-11.3371
▁rester	-11.3373
FR	-11.3373
hé	-11.3374
そこ	-11.3375
aison	-11.3375
рет	-11.3378
▁semble	-11.338
ряд	-11.3383
टे	-11.3384
▁tip	-11.3384
▁bullet	-11.3385
▁ability	-11.3387
▁noble	-11.3388
application	-11.3389
▁municipal	-11.3392
▁consultation	-11.3393
美	-11.3394
断	-11.3394
表	-11.3394
▁Chicago	-11.3394
▁Kosovo	-11.3394
▁Projekt	-11.3394
▁Restaurant	-11.3394
▁extension	-11.3394
犬	-11.3394
▁apoyo	-11.3394
Assemblée	-11.3394
▁mercado	-11.3394
▁superior	-11.3394
▁aucune	-11.3395
▁तीन	-11.3395
ено	-11.3395
▁roof	-11.3396
▁Та	-11.3397
▁votes	-11.3397
stern	-11.3397
▁plugin	-11.3398
▁बनाने	-11.3399
▁झ	-11.3401
▁claro	-11.3401
cation	-11.3402
▁Copy	-11.3405
▁mini	-11.3408
илась	-11.3408
▁Liebe	-11.3411
▁challenges	-11.3411
▁sugar	-11.3414
ँह	-11.3416
ベル	-11.3417
तः	-11.3419
置	-11.3419
ワー	-11.3422
ONU	-11.3423
/18	-11.3424
▁California	-11.3426
▁sentir	-11.3427
▁Hard	-11.3427
▁elles	-11.3428
▁schi	-11.3429
はず	-11.3432
帰	-11.3433
handel	-11.3437
aki	-11.3437
させる	-11.3438
▁имею	-11.3439
uchen	-11.3439
bank	-11.3441
▁rod	-11.3441
▁cook	-11.3445
▁rig	-11.3445
思い	-11.3446
▁Gil	-11.3447
jan	-11.3448
дар	-11.3448
▁extend	-11.3452
▁wave	-11.3454
▁soft	-11.3454
яет	-11.3454
▁lord	-11.3455
IST	-11.3455
tron	-11.3456
彼は	-11.3459
▁substance	-11.3459
住	-11.346
▁कै	-11.3461
That	-11.3464
ром	-11.3465
終	-11.3467
▁Brussels	-11.3467
▁Maintenant	-11.3467
▁परियोजना	-11.3467
dictionary	-11.3467
ウェ	-11.3467
▁Angst	-11.3468
▁mierda	-11.3468
▁référence	-11.3468
▁sondern	-11.3468
▁Armenia	-11.3468
▁Draft	-11.3468
▁देंगे	-11.3469
▁paix	-11.3469
仲間	-11.347
▁Feb	-11.347
ंत	-11.3472
▁सोच	-11.3472
▁termina	-11.3474
pdf	-11.3475
▁これが	-11.3476
pid	-11.3477
▁поз	-11.3478
▁Prof	-11.3479
▁skills	-11.3479
▁cable	-11.348
▁registered	-11.348
▁Walter	-11.348
▁iron	-11.3482
graf	-11.3483
метр	-11.3483
▁peur	-11.3483
▁passiert	-11.3484
иг	-11.3485
▁77	-11.3486
▁wirst	-11.3487
▁tourist	-11.349
かない	-11.349
atory	-11.349
▁llamar	-11.349
cular	-11.3492
▁mío	-11.3492
あなたを	-11.3494
▁mock	-11.3503
stelle	-11.3504
нный	-11.3506
▁無	-11.3506
しています	-11.3506
るな	-11.3507
▁何が	-11.3507
bilité	-11.3509
amine	-11.3511
▁remained	-11.3513
▁avaient	-11.3516
ファ	-11.3516
▁urge	-11.3519
miento	-11.3522
▁gang	-11.3522
ography	-11.3522
▁Rep	-11.3524
▁tut	-11.3525
▁Berg	-11.3527
ですね	-11.3534
▁notification	-11.3535
▁fabric	-11.3536
▁provisional	-11.3537
енные	-11.3537
intérêt	-11.3538
予	-11.3541
期	-11.3541
▁रखो	-11.3541
▁fácil	-11.3542
▁tranquil	-11.3542
▁информацию	-11.3542
▁स्क्रीन	-11.3542
▁Energie	-11.3542
▁Agenda	-11.3542
▁crash	-11.3542
▁Middle	-11.3543
имся	-11.3545
▁другой	-11.3546
▁otherwise	-11.3546
▁absolutely	-11.3546
гре	-11.3547
▁Dinge	-11.3548
च्च	-11.3549
aré	-11.3549
abilité	-11.3553
aya	-11.3554
▁sofort	-11.3557
▁soldiers	-11.3558
▁poll	-11.3564
лом	-11.3566
▁89	-11.3566
▁サ	-11.3566
▁puesto	-11.3566
▁Regional	-11.3568
▁uncle	-11.3572
ける	-11.3572
▁estudi	-11.3574
▁conducted	-11.3575
なくて	-11.3575
現	-11.3578
▁Alan	-11.3579
km	-11.3582
овых	-11.3588
▁officers	-11.3588
▁Info	-11.3593
▁reserve	-11.3596
▁allen	-11.3596
▁0.01	-11.3599
▁800	-11.3601
▁discover	-11.3603
▁wound	-11.3603
▁dispositions	-11.3605
▁Rand	-11.3605
▁76	-11.3607
▁Current	-11.3608
▁Pl	-11.3609
▁Danke	-11.3611
▁student	-11.3612
▁Durch	-11.3614
息子	-11.3614
▁ただ	-11.3614
voy	-11.3614
organisation	-11.3615
薬	-11.3616
▁difficile	-11.3616
▁objetivo	-11.3616
▁एवोल्यूशन	-11.3616
常	-11.3616
▁Policy	-11.3616
▁preuve	-11.3616
▁companion	-11.3616
くらい	-11.3616
▁Turkey	-11.3616
ridge	-11.3616
▁miracle	-11.3616
▁rescue	-11.3616
▁occurred	-11.3617
事が	-11.3617
▁burden	-11.3618
持	-11.3619
ктив	-11.3619
▁системы	-11.3619
▁background	-11.3619
▁concentration	-11.3619
▁देखते	-11.362
▁bond	-11.362
▁sail	-11.3621
ドル	-11.3622
覚えて	-11.3623
now	-11.3626
れない	-11.3627
▁statut	-11.3628
LY	-11.3628
▁пост	-11.3629
▁свет	-11.3629
▁jeu	-11.363
▁करके	-11.3631
tritt	-11.3631
stimmung	-11.3632
सि	-11.3634
▁Kid	-11.3634
▁affaires	-11.3636
ologi	-11.3637
▁learning	-11.3637
▁processes	-11.3637
▁minister	-11.3639
iten	-11.3643
ара	-11.3644
▁infrastructure	-11.3646
entrée	-11.3648
的に	-11.3648
▁incorpora	-11.3649
▁mano	-11.365
बार	-11.3651
space	-11.3654
▁llega	-11.3655
▁burning	-11.3655
▁hotels	-11.3656
▁joined	-11.366
▁सद	-11.366
ками	-11.3661
▁गुण	-11.3664
▁murdered	-11.3665
▁iba	-11.3666
person	-11.3669
タイ	-11.367
▁Hor	-11.3672
/05/20	-11.3675
▁blanc	-11.3675
Je	-11.3676
▁warner	-11.3676
зу	-11.3676
▁FI	-11.3678
oper	-11.3682
stoff	-11.3682
▁prest	-11.3683
▁increasing	-11.3683
たくない	-11.3684
欲しい	-11.3685
▁elections	-11.3686
件	-11.3689
▁membre	-11.3689
▁category	-11.3691
▁única	-11.3691
▁agencies	-11.3691
▁poison	-11.3691
▁Step	-11.3692
▁Ку	-11.3693
Tiene	-11.3693
misión	-11.3693
▁своего	-11.3693
▁scar	-11.3694
ßt	-11.3694
amour	-11.3695
▁определен	-11.3696
▁majority	-11.3696
▁Vic	-11.3697
▁dépenses	-11.3699
▁grace	-11.3699
▁Winter	-11.37
élé	-11.3701
▁vehicles	-11.3704
買	-11.3704
6%	-11.3704
なければ	-11.3705
▁mandate	-11.3705
▁keys	-11.3706
Sabes	-11.3706
▁мои	-11.3706
ij	-11.3706
▁よし	-11.371
blo	-11.3712
▁podrá	-11.3712
▁टे	-11.3713
▁テ	-11.3714
/06/20	-11.372
▁Ukraine	-11.3721
▁surprised	-11.3724
▁Trust	-11.3727
apa	-11.3727
▁disk	-11.3731
▁CIA	-11.3732
▁彼女が	-11.3734
▁groupes	-11.3739
▁расс	-11.3741
▁сын	-11.3743
TU	-11.3748
▁#4	-11.3748
्रि	-11.3751
▁$2	-11.3752
▁Kir	-11.3753
▁мед	-11.3754
▁amis	-11.3757
▁Angel	-11.3757
Está	-11.3758
мин	-11.3758
▁神	-11.376
音	-11.3767
▁समूह	-11.3767
▁Antwort	-11.3767
▁providing	-11.3767
setzung	-11.3767
▁प्रदान	-11.3768
Muhammad	-11.3768
先生	-11.3768
▁खाली	-11.3768
▁direkt	-11.3768
▁Brother	-11.3768
▁corruption	-11.3769
▁submission	-11.3769
▁reservation	-11.377
аешь	-11.3771
▁hook	-11.3771
▁cub	-11.3771
▁copie	-11.3774
pending	-11.3774
▁gay	-11.3774
▁drag	-11.3775
कर्ता	-11.3775
рон	-11.3779
▁Enable	-11.378
▁darf	-11.3781
▁output	-11.3785
▁होती	-11.3786
話し	-11.3789
▁conclusions	-11.3795
laden	-11.3796
▁tools	-11.3798
▁EX	-11.3798
▁implemented	-11.3799
▁बैठ	-11.3799
▁मेल	-11.3801
lichkeit	-11.3801
IVE	-11.3802
▁Sil	-11.3802
▁стать	-11.3802
nelle	-11.3803
trieb	-11.3805
kov	-11.3806
▁drawn	-11.3806
▁Или	-11.3807
==*	-11.3808
▁Lang	-11.3808
▁ello	-11.381
tische	-11.3811
▁измен	-11.3811
▁trabajar	-11.3812
▁занима	-11.3816
▁Description	-11.3818
よく	-11.3819
▁allez	-11.382
र्ड	-11.3821
伝え	-11.3824
▁Mé	-11.3825
▁protected	-11.3825
▁RA	-11.3826
▁Conf	-11.3826
▁worden	-11.3827
彼女を	-11.3827
600	-11.3827
▁moral	-11.3829
FO	-11.383
▁Fred	-11.383
▁ended	-11.3832
9%	-11.3835
▁Prince	-11.3838
▁settings	-11.3838
any	-11.3839
止	-11.3841
▁losers	-11.3841
▁चयन	-11.3842
AF	-11.3843
証	-11.3843
情	-11.3843
▁Financial	-11.3843
▁satellite	-11.3843
▁travaux	-11.3843
▁завтра	-11.3843
▁कहीं	-11.3843
▁वास्ते	-11.3843
▁विन्यास	-11.3843
歳	-11.3843
▁entitled	-11.3843
▁अलग	-11.3844
▁चुका	-11.3844
▁component	-11.3844
▁darüber	-11.3844
▁hoping	-11.3844
▁Update	-11.3845
▁называ	-11.3845
ジェ	-11.3845
▁जल्दी	-11.3845
▁Resource	-11.3845
▁которо	-11.385
▁financement	-11.385
▁いつ	-11.3851
▁таких	-11.3851
▁sabía	-11.3851
quen	-11.3852
▁Oye	-11.3852
ピー	-11.3853
▁frame	-11.3854
▁rapporteur	-11.3855
待	-11.3856
▁Hong	-11.3856
onia	-11.3857
▁offering	-11.3858
▁usual	-11.3859
version	-11.3862
aille	-11.3862
▁staying	-11.3864
▁panel	-11.3864
water	-11.3865
▁conf	-11.3866
hard	-11.3867
▁spécial	-11.3869
mine	-11.3869
là	-11.3869
▁Madame	-11.3871
▁practices	-11.3873
▁ру	-11.3877
▁принима	-11.3877
▁allein	-11.3879
▁pulled	-11.388
ложен	-11.3883
と思った	-11.3883
bed	-11.3886
▁Size	-11.3886
モン	-11.3888
▁willst	-11.389
▁चुन	-11.389
▁features	-11.3893
▁Station	-11.3894
▁shooting	-11.3895
RU	-11.3897
▁Cur	-11.39
あなたがたは	-11.3901
▁internacional	-11.3904
Com	-11.3908
azo	-11.3908
RM	-11.3909
顔	-11.3911
▁Gran	-11.3911
▁Doc	-11.3912
▁agreements	-11.3912
ган	-11.3915
▁visitor	-11.3915
▁мил	-11.3917
わたし	-11.3919
▁affair	-11.392
▁пыта	-11.392
我	-11.392
破	-11.392
▁Reglamento	-11.392
▁Software	-11.392
▁communautaire	-11.392
▁gemeinsam	-11.392
▁Только	-11.392
▁फ़िल्टर	-11.392
▁भगवान	-11.392
▁combination	-11.392
▁Nähe	-11.392
▁decrease	-11.392
▁forecast	-11.392
全員	-11.3921
▁emerge	-11.3921
▁livre	-11.3921
▁vigil	-11.3921
▁encanta	-11.3921
▁cousin	-11.3921
▁Delete	-11.3922
▁verses	-11.3922
▁उनपर	-11.3923
weather	-11.3923
▁बिना	-11.3924
▁awful	-11.3925
▁Night	-11.3926
▁angel	-11.3927
200	-11.3927
नाम	-11.3927
▁हक़	-11.3927
▁вопросы	-11.3927
▁simul	-11.3928
▁winter	-11.3931
▁libro	-11.3932
schau	-11.3934
▁такие	-11.3936
▁Tier	-11.3936
pot	-11.3937
hab	-11.3939
▁あなたに	-11.3941
私を	-11.3942
▁Band	-11.3942
リス	-11.3942
toxic	-11.3944
▁legs	-11.3946
▁tendrá	-11.3947
▁AS	-11.3947
Mu	-11.3948
▁pon	-11.3948
▁Sit	-11.3951
long	-11.3951
einander	-11.3952
ダメ	-11.3953
▁lab	-11.3953
▁papa	-11.3953
▁tasks	-11.3954
▁Garden	-11.3954
戻って	-11.3959
▁сообщ	-11.3961
FC	-11.3966
▁vista	-11.3968
Man	-11.397
ует	-11.3973
▁leben	-11.3975
यी	-11.3977
▁mec	-11.3983
歩	-11.3984
HA	-11.3987
eller	-11.3987
डा	-11.3988
▁parent	-11.3989
▁Helen	-11.399
hof	-11.399
rape	-11.3993
▁Herrn	-11.3995
▁negative	-11.3996
ॉन	-11.3997
ried	-11.3998
士	-11.3998
約	-11.3998
夢	-11.3998
▁HTML	-11.3998
▁dólares	-11.3998
▁enterprise	-11.3998
▁plupart	-11.3998
▁siquiera	-11.3998
▁समाप्त	-11.3998
▁opportunities	-11.3998
▁Application	-11.3998
▁Krieg	-11.3998
▁Always	-11.3998
▁Однако	-11.3998
▁Choose	-11.3998
▁точно	-11.3999
▁captain	-11.3999
▁долл	-11.4
▁Mittel	-11.4
▁stuck	-11.4002
友達	-11.4002
▁palabra	-11.4002
आई	-11.4003
bringen	-11.4004
gov	-11.4004
▁suitable	-11.4005
Estás	-11.4006
▁FR	-11.4007
цу	-11.4008
▁Ergebnisse	-11.4009
▁crea	-11.401
▁flash	-11.401
ático	-11.4011
▁bevor	-11.4016
▁Vas	-11.4016
▁arrivé	-11.4017
▁ante	-11.4018
▁Ю	-11.4019
loo	-11.402
▁AB	-11.4022
Mail	-11.4025
▁deben	-11.4027
▁Sign	-11.4027
▁award	-11.4028
▁Fol	-11.403
lov	-11.4031
▁couch	-11.4031
02-	-11.4032
यह	-11.4033
▁Sav	-11.4034
▁né	-11.4035
▁visite	-11.4039
एल	-11.4041
読	-11.4042
▁лиц	-11.4043
▁Alles	-11.4044
еб	-11.4045
On	-11.4045
バカ	-11.4045
üsse	-11.4046
нным	-11.405
पि	-11.4052
▁ママ	-11.4054
▁engagement	-11.4055
वह	-11.4056
▁letzte	-11.4056
▁पड़े	-11.4057
▁seemed	-11.4057
typ	-11.4058
▁жела	-11.4058
▁気	-11.406
▁Gro	-11.4061
▁dio	-11.4062
▁パパ	-11.4062
▁belle	-11.4064
▁Keine	-11.4064
処	-11.4072
puesta	-11.4072
▁PDF	-11.4073
travé	-11.4074
▁maxim	-11.4075
ルド	-11.4076
調	-11.4076
昨	-11.4076
線	-11.4076
論	-11.4076
▁Palestinian	-11.4076
▁divorce	-11.4076
▁línea	-11.4076
▁maintenance	-11.4076
▁necesario	-11.4076
▁доступ	-11.4076
▁поговорить	-11.4076
▁ninguna	-11.4076
▁уровне	-11.4076
▁restrict	-11.4076
▁Third	-11.4076
▁journey	-11.4077
▁деньги	-11.4077
▁faible	-11.4077
▁другие	-11.4079
▁Food	-11.4079
krieg	-11.408
▁(8)	-11.408
cru	-11.4081
▁части	-11.4081
▁election	-11.4082
▁sacrifice	-11.4084
▁lamp	-11.4085
▁Jake	-11.4086
▁Hmm	-11.4086
▁देना	-11.4086
power	-11.4086
▁92	-11.4087
vu	-11.4088
जिसमें	-11.4091
▁clé	-11.4093
▁सच	-11.4093
伝	-11.4095
Sch	-11.4095
uti	-11.4097
01/17	-11.4101
▁fourth	-11.4101
にある	-11.4103
▁charges	-11.4106
▁pet	-11.4106
▁customer	-11.4108
чувств	-11.411
▁laisser	-11.411
▁managed	-11.4113
▁Reise	-11.4114
cola	-11.4114
▁イ	-11.4119
▁conclu	-11.4119
बू	-11.412
▁travers	-11.4121
▁ignore	-11.4121
▁existence	-11.4126
▁Tele	-11.4127
▁wegen	-11.4129
▁Vice	-11.4132
▁Pon	-11.4133
▁इसी	-11.4136
tech	-11.4137
WA	-11.414
▁replace	-11.4141
рыв	-11.4142
つけ	-11.4142
+2	-11.4142
▁geh	-11.4143
▁Februar	-11.4144
▁全て	-11.4146
▁passage	-11.4152
▁Young	-11.4153
▁walked	-11.4154
ことだ	-11.4154
色	-11.4155
交	-11.4155
▁Richtlinie	-11.4155
▁communauté	-11.4155
▁possibilité	-11.4155
▁информации	-11.4155
▁помощи	-11.4155
海	-11.4155
▁Anwendung	-11.4155
▁patience	-11.4155
かもしれない	-11.4155
確認	-11.4155
▁79	-11.4155
▁Result	-11.4155
▁figura	-11.4155
▁Egypt	-11.4156
▁gustaría	-11.4156
▁fallen	-11.4156
▁facile	-11.4157
▁совет	-11.4157
▁अन	-11.4157
▁Nah	-11.4159
分からない	-11.4159
0.00	-11.4159
grund	-11.4159
▁отец	-11.4159
तुम	-11.4162
▁messenger	-11.4163
▁detail	-11.4164
▁vital	-11.4164
arm	-11.4165
ёр	-11.4165
▁grade	-11.4168
ики	-11.4168
▁ocupa	-11.417
▁Hal	-11.417
▁bones	-11.4171
craft	-11.4172
▁Parce	-11.4173
LS	-11.4173
buch	-11.4174
してください	-11.4174
▁他の	-11.4175
あなた	-11.4176
▁fields	-11.4176
▁Staat	-11.4177
▁Regel	-11.4177
писал	-11.4179
▁unbe	-11.4182
▁Win	-11.4185
▁individuals	-11.4186
▁10:00	-11.4186
▁aufge	-11.4187
▁gal	-11.4188
▁82	-11.4188
дель	-11.4189
rix	-11.419
Go	-11.4193
aña	-11.42
chie	-11.4201
▁letzten	-11.4201
▁joue	-11.4202
を見た	-11.4204
▁selling	-11.4205
クソ	-11.4206
ント	-11.4208
▁feu	-11.4209
▁travaille	-11.421
▁critical	-11.4213
▁survive	-11.4213
▁gene	-11.4213
▁productos	-11.4214
ろう	-11.4214
▁Original	-11.4215
さない	-11.4216
▁आने	-11.4216
ようと	-11.4217
pack	-11.4218
▁abuse	-11.4221
▁Fine	-11.4221
と言った	-11.4223
▁satisf	-11.4223
▁positions	-11.4227
tab	-11.4227
angle	-11.4229
▁offre	-11.4229
after	-11.423
▁foundation	-11.423
▁MI	-11.4231
持ち	-11.4231
Ö	-11.4232
▁stated	-11.4232
安	-11.4234
▁87	-11.4234
μ	-11.4234
▁Judgment	-11.4234
▁fünf	-11.4234
▁plutôt	-11.4234
▁Думаю	-11.4234
▁слышал	-11.4234
▁जवाब	-11.4234
▁tidings	-11.4234
▁guerra	-11.4234
▁proceso	-11.4234
▁<<<	-11.4234
▁cinco	-11.4234
▁файл	-11.4234
▁suicide	-11.4234
ाज़िल	-11.4235
▁señal	-11.4235
▁Ireland	-11.4236
▁aide	-11.4236
▁私を	-11.4237
▁expand	-11.4237
▁+49	-11.4238
science	-11.4238
leur	-11.4239
▁McC	-11.4239
▁проблемы	-11.424
▁gender	-11.4241
▁именно	-11.4241
▁Word	-11.4243
▁substances	-11.4243
▁डाला	-11.4243
話した	-11.4245
▁Market	-11.4245
кра	-11.4245
▁Unless	-11.4247
▁figured	-11.4248
▁имя	-11.4248
▁cree	-11.4249
▁ну	-11.4249
えた	-11.4249
▁Opera	-11.4252
▁trees	-11.4255
क्रम	-11.4256
▁sheet	-11.4257
тка	-11.4257
▁一緒に	-11.4257
▁sentido	-11.4257
▁cargo	-11.4258
▁weniger	-11.4259
▁bug	-11.426
は何	-11.4262
gesetzt	-11.4262
▁invit	-11.4264
éné	-11.4264
▁Aaron	-11.4264
мор	-11.4265
▁anglais	-11.4268
▁becoming	-11.4269
-8	-11.427
▁ту	-11.4273
▁ami	-11.4274
▁mou	-11.4278
▁Programm	-11.4279
トン	-11.428
▁demander	-11.4281
rique	-11.4281
▁regulations	-11.4282
▁JO	-11.4284
дан	-11.4287
▁tag	-11.4287
horn	-11.4288
▁west	-11.4289
▁Jung	-11.4289
▁違う	-11.4289
バイ	-11.4289
deck	-11.4292
座	-11.4294
▁generation	-11.4299
лек	-11.4305
▁Bis	-11.4309
Ho	-11.4309
▁Pf	-11.431
▁Steve	-11.4311
▁components	-11.4314
pla	-11.4314
指	-11.4314
店	-11.4314
街	-11.4314
走	-11.4314
▁Barcelona	-11.4314
▁Lieutenant	-11.4314
▁Pakistan	-11.4314
▁pequeña	-11.4314
▁stratégie	-11.4314
▁वर्तमान	-11.4314
▁victory	-11.4314
encyclopedia	-11.4314
▁commerce	-11.4314
▁Major	-11.4314
▁afford	-11.4314
tremulo	-11.4314
▁Consider	-11.4314
▁फोन	-11.4315
▁configuration	-11.4315
▁रहेंगे	-11.4315
▁réussi	-11.4315
▁hungry	-11.4315
nah	-11.4315
▁Greek	-11.4316
न्न	-11.4316
▁maladie	-11.4316
▁detective	-11.4316
▁Unsere	-11.4316
▁Ye	-11.4317
/9	-11.4317
vient	-11.4318
▁लेकर	-11.432
マー	-11.432
▁examine	-11.432
wal	-11.432
▁obviously	-11.4321
▁Local	-11.4322
▁छा	-11.4322
MENT	-11.4324
▁которое	-11.4324
全て	-11.4325
▁core	-11.4325
▁मूल्य	-11.4326
▁Après	-11.4326
▁futuro	-11.4329
▁arrangements	-11.4329
▁bringen	-11.4331
▁statements	-11.4331
▁Commander	-11.4332
फो	-11.4332
ящ	-11.4332
/14	-11.4334
▁warum	-11.4335
tell	-11.4335
पन	-11.4336
▁IP	-11.4336
UP	-11.4337
▁Industrie	-11.4338
だわ	-11.4339
▁bull	-11.434
もない	-11.4342
▁Pur	-11.4343
話して	-11.4343
▁Map	-11.4344
▁chicos	-11.4344
exploitation	-11.4345
▁purposes	-11.4345
GA	-11.4346
かしら	-11.4348
аем	-11.4348
▁Kenn	-11.4349
▁consumer	-11.4349
▁tank	-11.435
téri	-11.435
▁Serie	-11.4351
agne	-11.4352
▁दु	-11.4358
▁ml	-11.436
▁12/	-11.4361
▁услуг	-11.4364
▁Content	-11.4365
▁dig	-11.4365
▁Pack	-11.4365
▁Area	-11.4367
銃	-11.437
▁своем	-11.437
▁courant	-11.437
ализ	-11.4373
hole	-11.4374
feld	-11.4377
▁armas	-11.4379
▁efficient	-11.438
友人	-11.4386
ブラ	-11.4386
▁Extra	-11.4388
▁Ваш	-11.4391
夫	-11.4395
इस्तेमाल	-11.4395
Á	-11.4395
▁Belarus	-11.4395
schutz	-11.4395
▁resolución	-11.4395
▁являются	-11.4395
▁Protection	-11.4395
▁partnership	-11.4396
▁argue	-11.4396
▁chapter	-11.4398
▁Uncle	-11.4399
▁GR	-11.4399
ハン	-11.4401
▁1986	-11.4402
▁plot	-11.4402
active	-11.4403
▁Gene	-11.4404
▁crimes	-11.4404
▁नई	-11.4405
▁टॉ	-11.4406
▁счет	-11.4407
▁убил	-11.4409
ILL	-11.4409
ritt	-11.4409
▁decline	-11.4412
▁Blut	-11.4413
▁march	-11.4416
▁bereit	-11.4418
▁functions	-11.4419
▁installed	-11.442
हरा	-11.4421
▁Ти	-11.4426
▁いいえ	-11.4426
product	-11.4429
▁Kol	-11.4429
▁Fl	-11.4429
крас	-11.4431
zieh	-11.4434
▁рад	-11.4439
uj	-11.4441
ât	-11.4441
nach	-11.4442
dauer	-11.4443
▁делает	-11.4444
▁स्प	-11.4446
рос	-11.4447
▁negotiations	-11.4447
брос	-11.4449
▁Ру	-11.4451
▁gars	-11.4454
▁ход	-11.4455
▁Site	-11.4457
▁sino	-11.4462
irá	-11.4462
Who	-11.4464
▁Multi	-11.4464
▁amend	-11.4466
ounce	-11.4468
▁curse	-11.4473
ッチ	-11.4474
味	-11.4476
▁Además	-11.4476
▁Communication	-11.4476
▁alcohol	-11.4476
▁gobierno	-11.4476
▁possibly	-11.4476
▁religious	-11.4476
▁думаешь	-11.4476
▁mamá	-11.4476
▁Facebook	-11.4476
▁außer	-11.4476
▁trigger	-11.4476
▁Manager	-11.4478
▁Airport	-11.4478
7%	-11.4479
▁ought	-11.4479
▁VAT	-11.4479
▁machines	-11.448
सन	-11.4481
▁propia	-11.4481
▁Kor	-11.4481
自分の	-11.4482
知っている	-11.4483
▁Dra	-11.4484
▁announced	-11.4487
▁लड़	-11.4488
world	-11.4488
▁Weiß	-11.4489
licher	-11.449
▁trou	-11.449
▁Пока	-11.4493
▁teeth	-11.4494
When	-11.4494
train	-11.4494
▁liebe	-11.4494
्रे	-11.4494
tres	-11.4496
SO	-11.4496
▁пят	-11.45
▁entendu	-11.4504
нные	-11.4504
▁painting	-11.4504
▁две	-11.4507
▁Personal	-11.4507
の事	-11.4508
ировал	-11.451
ग़	-11.451
▁deposit	-11.4512
▁fut	-11.4513
▁servicios	-11.4513
rov	-11.4514
EUR	-11.4516
▁creatures	-11.4518
▁Sk	-11.4519
▁माल	-11.4519
▁bike	-11.4521
▁Chan	-11.4522
▁nein	-11.4523
SD	-11.4524
▁Knowing	-11.4526
▁hijos	-11.4527
рог	-11.4528
▁universe	-11.4528
話す	-11.453
▁Rein	-11.4533
appui	-11.4537
aster	-11.4541
分かる	-11.4542
▁leicht	-11.4544
サイ	-11.4545
чный	-11.4545
щу	-11.4547
▁Ana	-11.4549
енной	-11.4552
éis	-11.4553
find	-11.4554
SR	-11.4554
реб	-11.4554
がいる	-11.4555
嫌	-11.4555
▁Event	-11.4557
казать	-11.4557
平	-11.4558
保	-11.4558
▁कुंजी	-11.4558
再	-11.4558
▁Männer	-11.4558
▁Secrétaire	-11.4558
▁natürlich	-11.4558
▁scream	-11.4558
▁Сейчас	-11.4558
▁плохо	-11.4558
▁секретаря	-11.4558
▁फ़ॉन्ट	-11.4558
énergie	-11.4558
▁stories	-11.4558
▁люблю	-11.4558
▁решения	-11.4558
▁Greece	-11.4558
▁ладно	-11.4558
▁Smith	-11.4558
▁Figure	-11.4558
▁श्री	-11.4558
▁hiding	-11.4558
▁digital	-11.4558
▁Groß	-11.4558
▁temporary	-11.4559
▁esposa	-11.4559
▁собой	-11.4559
▁papel	-11.4559
▁zona	-11.456
▁vaya	-11.456
▁принял	-11.456
▁Partner	-11.456
▁shared	-11.4561
▁группы	-11.4563
▁dicta	-11.4563
▁понял	-11.4563
▁sprechen	-11.4564
▁viens	-11.4564
▁それに	-11.4566
हार	-11.4566
▁Ty	-11.4566
дра	-11.4567
▁outre	-11.4568
▁renew	-11.4568
▁84	-11.4569
▁dirty	-11.457
▁Afghanistan	-11.457
▁Training	-11.4572
▁Track	-11.4574
7/	-11.4575
нул	-11.4578
▁deinen	-11.458
▁Licht	-11.4582
awa	-11.4586
▁Peut	-11.4587
▁गिर	-11.4592
dding	-11.4592
mut	-11.4592
ったの	-11.4592
君の	-11.4592
でき	-11.4599
▁Пар	-11.46
LL	-11.4601
▁weit	-11.4602
▁tuer	-11.4603
殺し	-11.4604
▁cou	-11.4606
▁Ник	-11.4606
wed	-11.4608
zone	-11.4609
▁Know	-11.461
クラ	-11.4614
▁опас	-11.4615
▁Bye	-11.4616
▁showing	-11.4618
▁ー	-11.4618
▁schedule	-11.462
ference	-11.462
▁environ	-11.462
▁spin	-11.4621
▁ради	-11.4622
ву	-11.4623
▁chap	-11.4624
▁lucha	-11.4628
GB	-11.4629
ケー	-11.463
dora	-11.4631
▁Bat	-11.4631
-07-	-11.4631
quin	-11.4632
▁meilleure	-11.4634
2002	-11.4638
▁सके	-11.4639
頼	-11.464
▁efecto	-11.4641
▁Поэтому	-11.4641
▁кажется	-11.4641
▁конечно	-11.4641
▁собственн	-11.4641
▁Umwelt	-11.4641
▁storage	-11.4641
優	-11.4641
感謝	-11.4641
▁Emily	-11.4641
▁नक़ल	-11.4641
▁prostrate	-11.4641
▁Consult	-11.4641
▁Clark	-11.4641
▁kidding	-11.4641
わからない	-11.4641
▁(7)	-11.4641
▁magazine	-11.4641
▁Burn	-11.4642
▁intervention	-11.4642
дом	-11.4642
▁perdu	-11.4643
まま	-11.4643
▁darling	-11.4645
▁फेर	-11.4645
▁Unidos	-11.4645
一番	-11.4646
▁claims	-11.4648
ってた	-11.4648
▁endroit	-11.4649
▁Members	-11.4649
▁खो	-11.4649
aï	-11.465
Why	-11.4656
▁variable	-11.4656
▁98	-11.4657
tischen	-11.4657
▁Ball	-11.4657
▁hinter	-11.4658
300	-11.466
ूद	-11.466
▁хо	-11.4662
自分	-11.4663
ドア	-11.4663
▁warned	-11.4667
▁humanos	-11.4671
つの	-11.4671
тин	-11.4671
▁importe	-11.4676
Er	-11.4676
▁suivants	-11.4677
▁psych	-11.4679
▁शि	-11.4679
▁testing	-11.4679
▁sangre	-11.468
私が	-11.4685
▁crees	-11.4685
▁Parti	-11.4688
▁solche	-11.469
▁tué	-11.4691
▁witnesses	-11.4691
бол	-11.4692
▁servir	-11.4692
▁Kim	-11.4692
▁présenté	-11.4693
▁रहने	-11.4695
▁structures	-11.4696
How	-11.4697
uten	-11.4698
▁tableau	-11.4699
енного	-11.4703
▁AN	-11.4703
▁Eu	-11.4703
▁leads	-11.4707
▁disappear	-11.4707
▁nacional	-11.4709
▁weather	-11.4721
▁unable	-11.4721
▁помощь	-11.4721
▁avail	-11.4722
▁manque	-11.4722
▁जाँच	-11.4723
éducation	-11.4724
▁Netherlands	-11.4724
▁Secretariat	-11.4724
▁excited	-11.4724
▁humanitarian	-11.4724
▁longtemps	-11.4724
▁अक्षम	-11.4724
▁स्वीकार	-11.4724
ざ	-11.4724
ふ	-11.4724
▁Jordan	-11.4724
▁यहां	-11.4724
▁विश्वास	-11.4724
▁ошиб	-11.4724
設定	-11.4724
▁направлен	-11.4725
▁dropped	-11.4725
schaffen	-11.4725
▁будем	-11.4725
▁collective	-11.4727
iere	-11.4727
▁knee	-11.4727
▁odd	-11.4727
म्प	-11.4729
▁kilo	-11.4729
▁mood	-11.4729
▁меры	-11.473
▁कहो	-11.473
▁creer	-11.4732
▁Мак	-11.4732
8%	-11.4733
-20	-11.4734
▁क्लिक	-11.4735
▁Bern	-11.4736
▁Weil	-11.4737
▁Base	-11.4737
▁Inhalt	-11.4741
▁marche	-11.4742
▁frais	-11.4743
▁Camp	-11.4744
▁abide	-11.4744
▁新しい	-11.4744
échange	-11.4746
▁soient	-11.4748
▁#6	-11.4748
▁foto	-11.4748
▁Frei	-11.4748
▁earned	-11.4749
▁人	-11.4749
▁assistant	-11.4751
▁improvement	-11.4751
onic	-11.4753
▁üb	-11.4754
▁ミ	-11.4757
▁teaching	-11.4757
▁letters	-11.4757
dies	-11.4758
▁meisten	-11.4761
▁KB	-11.4762
ному	-11.4764
▁glauben	-11.4765
ですよ	-11.4768
▁Hé	-11.4768
▁हटा	-11.477
डे	-11.4776
▁weißt	-11.4783
▁Donc	-11.4785
दान	-11.4786
▁birds	-11.4787
入れ	-11.4789
▁Command	-11.479
rine	-11.4794
▁बद	-11.4794
2%	-11.4797
▁messengers	-11.48
/05	-11.48
▁Наш	-11.4801
ाने	-11.4802
national	-11.4802
dición	-11.4802
клад	-11.4804
んだよ	-11.4805
ようだ	-11.4807
▁одна	-11.4807
好	-11.4807
▁Kong	-11.4808
壊	-11.4808
enseignement	-11.4808
休	-11.4808
▁Ordnung	-11.4808
▁adequate	-11.4808
▁escuela	-11.4808
▁pièce	-11.4808
▁plenty	-11.4808
▁अवैध	-11.4808
▁जिन्होंन	-11.4808
▁पंचांग	-11.4808
▁प्लगइन	-11.4808
extérieur	-11.4808
▁まあ	-11.4808
▁Session	-11.4808
▁Expert	-11.4808
▁deuxième	-11.4809
▁steel	-11.4809
▁dossier	-11.4809
▁agricultural	-11.4809
▁meses	-11.4809
▁पिता	-11.4809
▁incluso	-11.481
▁instructions	-11.481
▁могли	-11.4811
▁पाया	-11.4812
▁Final	-11.4812
▁forgotten	-11.4813
▁durable	-11.4815
▁Kate	-11.4815
▁eran	-11.4815
ница	-11.4816
▁программы	-11.4816
多	-11.4817
▁séance	-11.4817
がない	-11.4818
▁consistent	-11.482
▁answered	-11.4821
▁serio	-11.4821
▁Fisch	-11.4826
いません	-11.4826
続	-11.4828
▁mur	-11.4828
................	-11.4829
▁fühl	-11.4831
▁Zwei	-11.4831
либо	-11.4832
▁Load	-11.4834
▁forced	-11.4835
▁connu	-11.4837
bay	-11.4838
fire	-11.4838
▁HO	-11.4838
laufen	-11.4839
cida	-11.484
▁Zahl	-11.4841
▁जमा	-11.4842
▁indicated	-11.4845
▁アン	-11.4846
▁vive	-11.4848
achten	-11.4849
▁Forgiving	-11.4849
▁recall	-11.4849
▁гер	-11.485
▁großen	-11.4852
▁celebrate	-11.4852
▁Groupe	-11.4853
spire	-11.4854
▁contents	-11.4855
▁出	-11.4856
▁propio	-11.4857
一つ	-11.4862
▁良い	-11.4862
▁healthy	-11.4863
▁2.1	-11.4867
スク	-11.4867
▁Hallo	-11.4869
кий	-11.4872
▁Esa	-11.4873
▁キ	-11.4873
▁जिनक	-11.4873
▁Wohn	-11.4874
▁publish	-11.4876
pra	-11.4877
bad	-11.4879
▁humain	-11.4884
を与え	-11.4884
====	-11.4887
▁allem	-11.4888
chant	-11.489
▁pasó	-11.4891
скор	-11.4891
親	-11.4892
▁Pal	-11.4892
▁झुठला	-11.4892
▁prohibit	-11.4893
▁соответствии	-11.4893
▁इतना	-11.4893
眠	-11.4893
静	-11.4893
▁fuerza	-11.4893
▁variety	-11.4893
▁climb	-11.4893
▁silence	-11.4893
▁Kunst	-11.4893
▁जहाँ	-11.4893
▁football	-11.4893
vait	-11.4894
▁einzige	-11.4894
▁Ouais	-11.4894
▁devons	-11.4895
▁repair	-11.4896
निश्चित	-11.4896
▁operator	-11.4898
▁работе	-11.4901
▁examination	-11.4901
▁давай	-11.4902
▁contest	-11.4902
▁Sex	-11.4903
▁respite	-11.4904
▁chicken	-11.4905
▁demon	-11.4905
▁presentation	-11.4906
▁introduce	-11.4906
▁ears	-11.4908
▁само	-11.4913
umer	-11.4914
▁जहन्नुम	-11.4914
ミー	-11.4915
▁Ри	-11.4917
▁Way	-11.4917
▁distribu	-11.4917
рам	-11.4921
▁connected	-11.4922
fri	-11.4923
▁Rob	-11.4924
▁таким	-11.4924
かれら	-11.4926
▁Fragen	-11.4927
だけど	-11.4927
▁NOT	-11.4928
▁vite	-11.4929
वाद	-11.4929
-05-	-11.4929
▁siendo	-11.4931
▁falling	-11.4931
▁Kann	-11.4932
रत	-11.4932
▁organisations	-11.4932
二	-11.4933
▁jouer	-11.4936
▁hunt	-11.4936
べき	-11.4938
コン	-11.4938
▁gotten	-11.4941
priv	-11.4943
▁pipe	-11.4945
cil	-11.4945
ssent	-11.4947
▁Bilder	-11.4948
1.1	-11.4949
▁chercher	-11.4949
▁私に	-11.4951
अर	-11.4953
▁grown	-11.4953
まった	-11.4957
▁attacks	-11.4957
stimmt	-11.4958
▁bras	-11.4958
ガー	-11.4959
Yes	-11.4959
cast	-11.4961
▁aside	-11.4966
覚	-11.4971
▁Jess	-11.4973
入って	-11.4973
tisch	-11.4974
▁differ	-11.4975
▁govern	-11.4975
思う	-11.4975
▁loco	-11.4976
▁listed	-11.4976
▁район	-11.4977
共	-11.4978
任	-11.4978
å	-11.4978
ぼ	-11.4978
笑	-11.4978
▁vigueur	-11.4978
▁अत्यन्	-11.4978
産	-11.4978
怒	-11.4978
▁случилось	-11.4978
▁genug	-11.4978
▁respuesta	-11.4978
▁chacun	-11.4979
▁парень	-11.4979
▁Regierung	-11.4979
▁leadership	-11.4979
行こう	-11.4979
▁Musik	-11.4979
cule	-11.4979
わかる	-11.498
出来ない	-11.498
▁miedo	-11.498
▁priorité	-11.498
▁compensation	-11.498
орд	-11.4982
▁statt	-11.4985
▁actividades	-11.4985
▁जारी	-11.4986
▁gesch	-11.4987
▁portion	-11.4987
▁Rot	-11.4987
▁Front	-11.4987
▁sala	-11.4987
geführt	-11.4988
▁никак	-11.4989
▁monster	-11.499
▁scan	-11.4991
intégr	-11.4991
र्स	-11.4994
PI	-11.4996
1.3	-11.4998
▁daran	-11.4998
家族	-11.4999
ООН	-11.5
gene	-11.5002
▁visited	-11.5004
れて	-11.5004
▁decidi	-11.5007
▁ley	-11.5007
▁orient	-11.5013
cop	-11.5018
▁Mode	-11.5018
プロ	-11.5018
トラ	-11.502
objectif	-11.502
▁Ди	-11.5026
frei	-11.5027
avait	-11.5032
▁Markt	-11.5033
weise	-11.5034
▁centro	-11.5035
ICA	-11.5035
▁fishing	-11.5038
▁(20	-11.5039
arán	-11.504
num	-11.5041
neu	-11.5042
▁1000	-11.5042
▁(*	-11.5042
▁instant	-11.5043
BR	-11.5045
▁Aren	-11.5048
▁Dean	-11.505
оже	-11.5052
rlo	-11.5053
▁いつも	-11.5055
cado	-11.5056
ज्	-11.5057
тели	-11.5059
lab	-11.5059
▁headed	-11.506
▁resist	-11.5063
経	-11.5064
schließlich	-11.5064
économie	-11.5064
▁arrogant	-11.5064
▁goddamn	-11.5064
▁बच्चे	-11.5064
▁मालूम	-11.5064
▁सक्षम	-11.5064
ヴィ	-11.5064
▁Happy	-11.5064
▁easier	-11.5064
▁вещи	-11.5065
▁bunch	-11.5065
▁television	-11.5065
Afrique	-11.5065
フェ	-11.5065
▁expense	-11.5065
▁Finland	-11.5065
участник	-11.5065
▁जांच	-11.5066
▁disaster	-11.5066
▁estimated	-11.5066
▁туда	-11.5067
▁sword	-11.5067
▁Supp	-11.5067
▁Organisation	-11.5067
▁одного	-11.5068
▁creating	-11.5068
▁priest	-11.5068
▁indique	-11.5068
▁aprend	-11.5069
▁отчет	-11.5069
▁persist	-11.507
AG	-11.5071
▁Said	-11.5072
▁Count	-11.5076
▁meal	-11.5076
▁Terri	-11.5076
▁juge	-11.5078
にとって	-11.5079
▁Paper	-11.508
▁わかった	-11.508
ющим	-11.5081
入り	-11.5083
▁свое	-11.5084
▁Radio	-11.5086
Office	-11.5086
▁organized	-11.5087
▁regime	-11.5087
▁もちろん	-11.5088
それは	-11.5089
color	-11.5091
▁тому	-11.5091
▁Huh	-11.5092
bett	-11.5092
▁dated	-11.5093
▁critic	-11.5094
▁performed	-11.5095
▁feature	-11.5096
0,00	-11.5099
私達	-11.5101
▁stable	-11.5102
やり	-11.5103
▁pied	-11.5112
▁shirt	-11.5115
▁dumb	-11.5115
▁guest	-11.5115
▁führt	-11.5117
люб	-11.5118
▁पार	-11.5119
くなった	-11.5122
▁charm	-11.5122
SL	-11.5122
смотреть	-11.5123
やめ	-11.5126
▁armed	-11.5126
kauf	-11.5128
сте	-11.5134
turn	-11.5137
asia	-11.5137
▁buildings	-11.5138
▁prepara	-11.5139
peak	-11.5143
▁Debe	-11.5144
800	-11.5145
▁lied	-11.5146
▁Кр	-11.5146
▁digo	-11.5146
schlossen	-11.515
判	-11.5151
führung	-11.5151
服	-11.5151
▁принцип	-11.5151
▁confidence	-11.5151
▁fédéral	-11.5151
▁supérieur	-11.5151
▁voulais	-11.5151
▁wisdom	-11.5151
▁происходит	-11.5151
▁बिल्कुल	-11.5151
▁genannt	-11.5151
▁decisión	-11.5151
▁Слушай	-11.5151
▁verwendet	-11.5152
▁Jacob	-11.5152
▁golpe	-11.5152
▁tribunal	-11.5152
▁बटन	-11.5152
▁Nueva	-11.5152
ume	-11.5153
▁начина	-11.5153
rina	-11.5154
▁चले	-11.5154
▁Notre	-11.5156
▁Visit	-11.5156
▁Road	-11.5159
▁Tous	-11.5161
лер	-11.5161
▁Mach	-11.5167
▁beau	-11.5167
▁Hank	-11.5169
bis	-11.5169
▁रख	-11.517
▁использу	-11.5172
▁Views	-11.5173
▁ваши	-11.5174
▁Live	-11.5179
▁PE	-11.518
tifs	-11.5182
▁longue	-11.5183
▁yeux	-11.5184
▁suffering	-11.5185
вала	-11.5187
▁fro	-11.5188
▁cour	-11.5188
ないで	-11.519
▁modifica	-11.5192
▁Juan	-11.5193
level	-11.5193
▁う	-11.5193
▁gust	-11.5197
▁Brad	-11.5198
▁こっち	-11.5198
यो	-11.5201
▁constant	-11.5206
▁Mist	-11.5207
▁мая	-11.5207
人生	-11.5208
▁そこ	-11.5213
▁involve	-11.5214
yard	-11.5215
なり	-11.5215
▁juntos	-11.5217
▁appelé	-11.5218
clar	-11.5219
▁Mü	-11.5221
type	-11.5221
▁вод	-11.5221
▁Alter	-11.5221
▁toilet	-11.5222
▁Cop	-11.5223
▁eure	-11.5223
▁Andy	-11.5224
▁entra	-11.5227
▁Guys	-11.5229
-11	-11.523
стей	-11.5231
会った	-11.5232
डर	-11.5232
が必要	-11.5237
▁Shall	-11.5238
痛	-11.5238
ESS	-11.5239
▁Child	-11.5239
敵	-11.5239
山	-11.5239
▁Después	-11.5239
▁Maßnahmen	-11.5239
▁colleague	-11.5239
▁modèle	-11.5239
▁understood	-11.5239
▁рамках	-11.5239
▁निर्देशिका	-11.5239
▁हुक्म	-11.5239
星	-11.5239
▁"%1"	-11.5239
▁university	-11.5239
▁surrender	-11.5239
▁अंदर	-11.5239
▁bekannt	-11.5239
▁Straße	-11.5239
▁ocean	-11.5239
▁bastante	-11.5239
▁acepta	-11.5239
▁extent	-11.524
▁Kunden	-11.524
▁largo	-11.524
▁partenaire	-11.5241
▁Federation	-11.5241
▁нашей	-11.5241
▁моего	-11.5241
schlag	-11.5241
▁module	-11.5242
▁Archive	-11.5243
▁objectifs	-11.5243
2.1	-11.5243
▁Ladies	-11.5246
▁tenido	-11.5246
выше	-11.5247
▁Denn	-11.5249
▁दर	-11.525
▁série	-11.5251
▁Legal	-11.5251
▁éléments	-11.5252
▁Hin	-11.5252
िज़	-11.5253
▁tras	-11.5255
attend	-11.5255
▁Parlamento	-11.5256
始め	-11.5257
▁пр	-11.5261
öl	-11.5263
image	-11.5265
▁встреча	-11.5265
▁desires	-11.5266
cover	-11.5267
▁средств	-11.5268
▁elimina	-11.5268
▁cried	-11.5269
▁operational	-11.5271
▁fake	-11.5272
lav	-11.5272
▁coll	-11.5274
▁Espera	-11.5276
▁regulation	-11.5276
▁Mighty	-11.5278
tät	-11.5278
▁Herz	-11.5282
सब	-11.5283
方が	-11.5284
私たち	-11.5285
▁hatten	-11.5285
二人	-11.5286
▁generally	-11.5288
▁nuts	-11.5289
Tu	-11.529
will	-11.5291
▁Geb	-11.5295
trop	-11.5296
эт	-11.5296
▁spending	-11.5298
▁absence	-11.53
▁bloody	-11.5301
隠	-11.5302
PER	-11.5303
iya	-11.5303
▁cream	-11.5303
去	-11.5303
िप	-11.5304
▁タ	-11.5306
▁Си	-11.5307
merk	-11.5311
CEE	-11.5314
▁stellen	-11.5314
にする	-11.5315
▁brave	-11.5316
▁trabaja	-11.5316
/2005	-11.5317
▁entrar	-11.532
▁нами	-11.532
▁paga	-11.5322
öffentlich	-11.5327
難	-11.5327
配	-11.5327
告	-11.5327
客	-11.5328
試	-11.5328
▁Depuis	-11.5328
▁attitude	-11.5328
▁scientific	-11.5328
▁width	-11.5328
▁вообще	-11.5328
▁क़िस्म	-11.5328
▁जैसा	-11.5328
▁replied	-11.5328
▁рабоч	-11.5328
▁डाटा	-11.5328
forgiving	-11.5328
▁Chamber	-11.5328
▁понимаю	-11.5328
▁политическ	-11.5328
▁pronto	-11.5328
▁настоящее	-11.5328
▁oath	-11.5328
▁मुझसे	-11.5328
▁[...]	-11.5328
▁library	-11.5328
場合	-11.5328
▁получить	-11.5328
▁Kevin	-11.5329
▁Bir	-11.5329
▁observations	-11.5329
▁agency	-11.5329
▁Transfer	-11.5329
▁Джон	-11.533
▁fuerte	-11.533
вар	-11.5331
▁besoins	-11.5332
▁Foundation	-11.5332
▁ofrece	-11.5334
▁settlement	-11.5336
▁Toute	-11.5337
▁основан	-11.5338
▁lien	-11.5338
▁tir	-11.5338
iana	-11.5341
âge	-11.5342
kur	-11.5342
誰か	-11.5351
▁Forum	-11.5351
pré	-11.5352
▁bird	-11.5353
▁Wh	-11.5353
行った	-11.5354
▁Switzerland	-11.5356
habit	-11.5357
▁tie	-11.5359
▁corre	-11.536
▁Wahl	-11.536
▁Hä	-11.5363
▁занят	-11.5364
だぞ	-11.5365
anti	-11.5366
ической	-11.5367
ographic	-11.5367
pira	-11.5368
▁audience	-11.5368
ことに	-11.5369
mond	-11.5373
¿	-11.5374
рост	-11.5375
▁seis	-11.5377
▁68	-11.538
▁index	-11.5381
▁modifié	-11.5382
friend	-11.5384
▁veo	-11.5386
はずだ	-11.5387
助	-11.5388
▁0,0	-11.5388
▁mira	-11.5388
▁オレ	-11.5389
▁wondering	-11.539
uil	-11.5392
ちゃん	-11.5392
▁равно	-11.5392
▁hire	-11.5395
bereich	-11.5396
Tra	-11.5397
news	-11.5398
少し	-11.54
▁Schiff	-11.5401
play	-11.5401
▁speaker	-11.5402
ggy	-11.5402
▁verte	-11.5402
▁нее	-11.5402
▁Tat	-11.5402
▁Vari	-11.5404
Vi	-11.5408
ago	-11.541
▁(17	-11.5415
▁recover	-11.5415
対	-11.5416
▁क्षमा	-11.5417
▁behavior	-11.5417
▁necesito	-11.5417
▁strategic	-11.5417
▁внимание	-11.5417
▁उपलब्ध	-11.5417
アメリカ	-11.5417
▁こちら	-11.5417
▁Computer	-11.5417
▁Family	-11.5417
写真	-11.5417
▁wusste	-11.5417
▁croissance	-11.5417
▁нравится	-11.5417
▁storm	-11.5417
▁Copyright	-11.5417
▁положения	-11.5417
▁mantener	-11.5417
▁बाग़	-11.5417
▁glory	-11.5417
▁suerte	-11.5417
▁Rachel	-11.5418
▁sesiones	-11.5418
▁frère	-11.5418
▁रखता	-11.5419
▁данных	-11.5419
▁Kosten	-11.542
▁stark	-11.5423
▁одной	-11.5425
▁जाती	-11.5426
ここ	-11.5427
▁сэр	-11.5427
▁recovery	-11.5428
▁loin	-11.543
▁национальн	-11.5431
▁blessed	-11.5431
्रा	-11.5433
▁Same	-11.5434
▁uso	-11.5438
▁今日	-11.5439
すること	-11.5439
рош	-11.5442
▁denke	-11.5442
▁चाह	-11.5443
▁シ	-11.5443
▁Billy	-11.5443
preis	-11.5444
ख़ुदा	-11.5445
▁stream	-11.5446
break	-11.5446
ジー	-11.5446
presión	-11.5446
▁класс	-11.5448
-15	-11.5452
▁sortir	-11.5452
ेल	-11.5454
NY	-11.5457
▁consequences	-11.5457
▁coordinate	-11.5457
なのか	-11.5458
▁transgress	-11.5458
▁ジョン	-11.5459
▁meters	-11.546
▁ट्र	-11.5461
▁trait	-11.5463
▁alien	-11.5465
NU	-11.5468
VA	-11.5469
▁Syria	-11.547
(1	-11.5475
▁terminal	-11.5477
▁встреч	-11.548
wir	-11.5481
merciful	-11.5481
▁особенно	-11.5482
▁processing	-11.5482
家に	-11.5484
▁Kn	-11.5485
▁stole	-11.5486
▁innovation	-11.5486
▁91	-11.5487
INE	-11.549
▁Kha	-11.549
äl	-11.5491
▁ferme	-11.5492
▁paying	-11.5492
▁результат	-11.5493
▁Gib	-11.5495
isa	-11.5495
▁Сам	-11.5497
дела	-11.5498
あの	-11.5498
▁interpret	-11.5501
ていた	-11.5505
▁Author	-11.5505
▁Möglichkeit	-11.5507
▁expensive	-11.5507
▁véhicule	-11.5507
▁жертв	-11.5507
▁विफल	-11.5507
▁समर्थन	-11.5507
▁स्रोत	-11.5507
チーム	-11.5507
▁Çá	-11.5507
訳	-11.5507
▁changing	-11.5507
▁silver	-11.5507
質問	-11.5507
▁пути	-11.5507
▁никто	-11.5507
▁लंब	-11.5507
▁अंतिम	-11.5507
頼む	-11.5507
▁स्थानीय	-11.5507
▁jinn	-11.5507
▁Règlement	-11.5508
▁witch	-11.5508
▁tercer	-11.5508
▁aplicación	-11.5508
▁interior	-11.5508
▁Kopf	-11.5508
▁universal	-11.5508
▁Geneva	-11.5508
▁Francisco	-11.5509
आख़िरत	-11.5509
▁tall	-11.5509
▁decade	-11.5509
чист	-11.551
SM	-11.551
kri	-11.5511
▁キャ	-11.5511
ген	-11.5511
▁acqui	-11.5512
chin	-11.5513
▁bot	-11.5513
▁warrant	-11.5514
▁comida	-11.5514
▁unknown	-11.5515
▁invitation	-11.5515
ियो	-11.5516
▁Kap	-11.5516
▁ships	-11.5517
見つか	-11.5518
Ko	-11.5522
▁hice	-11.5523
ないの	-11.5524
Window	-11.5525
彼を	-11.5527
▁ними	-11.5527
▁स्पष्ट	-11.5527
maker	-11.553
▁Box	-11.5533
▁भूल	-11.5533
▁entirely	-11.5534
aga	-11.5534
ष्	-11.5536
▁Eva	-11.5538
▁gro	-11.5539
▁見て	-11.5543
теля	-11.5544
▁とても	-11.5544
DP	-11.5545
▁Tab	-11.5546
new	-11.5548
▁возможность	-11.5549
▁Wil	-11.5549
▁скоро	-11.5549
नेवाला	-11.5551
axi	-11.5551
▁Rich	-11.5552
▁flame	-11.5554
connect	-11.5558
▁oral	-11.5559
▁прода	-11.5562
▁Sud	-11.5567
教え	-11.5567
visión	-11.5568
▁少し	-11.557
चर	-11.5572
▁номер	-11.5573
▁Sieh	-11.5575
止め	-11.558
▁Rent	-11.5585
▁rum	-11.5585
▁rating	-11.5585
teile	-11.5585
▁Liste	-11.5588
▁führen	-11.5588
▁anzu	-11.559
▁fired	-11.559
▁documento	-11.559
▁devices	-11.5591
3€	-11.5591
▁resp	-11.5591
▁Talk	-11.5592
コー	-11.5592
▁Finn	-11.5592
▁reg	-11.5593
▁sage	-11.5594
iß	-11.5596
問	-11.5598
想	-11.5598
光	-11.5598
▁efficace	-11.5598
▁applicant	-11.5598
▁knife	-11.5598
▁œuvre	-11.5598
▁Пункт	-11.5598
▁मिनट	-11.5598
▁शैतान	-11.5598
volving	-11.5598
▁College	-11.5598
必ず	-11.5598
▁Technical	-11.5598
▁choix	-11.5598
▁distress	-11.5598
▁Easy	-11.5598
▁devraient	-11.5598
viennent	-11.5598
▁Есть	-11.5599
▁Italien	-11.5599
▁Moreover	-11.5599
ció	-11.5599
▁Quote	-11.5599
▁Bobby	-11.5599
▁Cross	-11.5599
▁betray	-11.5599
▁courage	-11.56
▁Joint	-11.56
▁revolution	-11.56
▁Эл	-11.56
▁workshop	-11.5601
▁grew	-11.5603
фер	-11.5603
▁supuesto	-11.5603
▁Dark	-11.5607
▁международн	-11.5608
entend	-11.5608
▁lesson	-11.5609
▁salud	-11.561
▁Simpl	-11.561
▁Beach	-11.5611
▁Cass	-11.5611
▁tested	-11.5612
▁месте	-11.5612
▁edge	-11.5613
BER	-11.5614
▁основе	-11.5617
-18	-11.5619
▁deleted	-11.562
▁करती	-11.562
▁Preise	-11.5621
MM	-11.5623
▁privé	-11.5623
▁manual	-11.5623
▁Gruppe	-11.5624
▁Better	-11.5624
ался	-11.5627
者が	-11.5632
▁oben	-11.5633
かけ	-11.5636
ayback	-11.5636
▁彼に	-11.5639
bab	-11.5639
▁assets	-11.564
▁Ran	-11.5643
▁disponibles	-11.5644
おう	-11.5644
▁どうやって	-11.5644
▁Jeff	-11.5645
▁disponible	-11.5646
провер	-11.5646
▁amendment	-11.5648
モー	-11.5649
еще	-11.565
Cu	-11.565
ロック	-11.5652
▁Podría	-11.5652
FT	-11.5653
▁проекта	-11.5653
▁lessons	-11.5655
nkt	-11.5658
▁Wal	-11.5659
▁Ul	-11.5659
-2012	-11.5661
खा	-11.5661
weisen	-11.5664
▁自分の	-11.5665
▁Monat	-11.5667
ついて	-11.5667
Don	-11.5667
るのは	-11.5671
▁73	-11.5672
लर	-11.5674
▁discut	-11.5675
しかった	-11.5675
なんか	-11.5676
▁मुझ	-11.5677
▁Tod	-11.5677
連	-11.5678
▁69	-11.5679
者を	-11.568
▁Sel	-11.5682
かれらの	-11.5685
▁нем	-11.5686
▁Necesit	-11.5686
▁utiliser	-11.5688
▁Islam	-11.5688
官	-11.569
護	-11.569
▁geändert	-11.569
▁plaît	-11.569
▁reunión	-11.569
▁throat	-11.569
▁upstairs	-11.569
▁маленьк	-11.569
▁अद्यतन	-11.569
▁Rahmen	-11.569
▁borrow	-11.569
▁эффективно	-11.569
▁हमारा	-11.569
▁cuanto	-11.569
▁транспорт	-11.569
▁guidelines	-11.569
学校	-11.569
▁prophet	-11.569
▁Siempre	-11.569
▁fiesta	-11.569
▁Hamburg	-11.569
▁aircraft	-11.569
▁банк	-11.569
▁visual	-11.5691
▁situé	-11.5691
▁niña	-11.5692
▁awareness	-11.5692
▁débat	-11.5692
▁Among	-11.5692
▁Common	-11.5692
消	-11.5692
▁куда	-11.5693
▁viaje	-11.5693
▁Luft	-11.5694
▁walls	-11.5695
▁winner	-11.5695
▁DNA	-11.5696
ёл	-11.5697
▁recon	-11.5697
見える	-11.5697
▁integrated	-11.5697
mettre	-11.57
▁parole	-11.57
▁चाल	-11.57
▁Wieder	-11.5701
▁Doch	-11.5705
▁carefully	-11.5706
व्य	-11.5706
yu	-11.5707
▁оно	-11.5711
▁montre	-11.5711
あります	-11.5712
▁Lock	-11.5713
▁Ay	-11.5715
дин	-11.5717
दम	-11.5718
▁parlé	-11.5718
▁importantes	-11.572
▁Entre	-11.5722
▁Vin	-11.5723
▁perfectly	-11.5724
▁heraus	-11.5725
innen	-11.5727
▁flowers	-11.5728
ssement	-11.5728
りました	-11.5733
▁Pues	-11.5734
▁rendre	-11.5735
かに	-11.5737
離	-11.5737
▁crédit	-11.5738
▁museum	-11.5742
bach	-11.5743
▁Earl	-11.5744
▁Mine	-11.5746
ясь	-11.5748
▁एन	-11.5749
ステ	-11.5752
markt	-11.5755
gado	-11.5756
mag	-11.5758
GU	-11.5758
▁limite	-11.5759
死んで	-11.5763
相	-11.5763
hel	-11.5766
kle	-11.5767
эм	-11.5767
エル	-11.5768
mise	-11.5773
▁würden	-11.5778
▁Sra	-11.5779
早	-11.5781
貴	-11.5782
▁партнер	-11.5782
形	-11.5782
▁Technology	-11.5782
▁befindet	-11.5782
▁comprehensive	-11.5782
▁juridique	-11.5782
▁struggle	-11.5782
▁Здесь	-11.5782
印	-11.5782
疑	-11.5782
agriculture	-11.5782
▁identity	-11.5782
▁wicked	-11.5782
▁प्रभाव	-11.5783
▁वर्ष	-11.5783
▁Studio	-11.5783
▁admir	-11.5783
▁entrance	-11.5783
▁Arthur	-11.5783
▁chargé	-11.5783
▁Edward	-11.5783
▁Honey	-11.5784
▁sélection	-11.5784
▁arbeiten	-11.5784
▁protest	-11.5784
▁darkness	-11.5785
итесь	-11.5785
But	-11.5786
▁tío	-11.5786
▁बन्दों	-11.5788
▁coast	-11.5788
ソー	-11.5789
▁hello	-11.5789
▁Panel	-11.5792
jen	-11.5793
考えて	-11.5796
нц	-11.5797
▁умер	-11.5798
▁Ха	-11.5798
▁решил	-11.5801
-14	-11.5801
▁eigenen	-11.5803
▁警察	-11.5805
▁hoch	-11.5806
▁अस	-11.581
ग्न	-11.5811
▁lorsque	-11.5812
▁clay	-11.5813
lieg	-11.5814
▁dirige	-11.5815
▁gros	-11.5818
▁mask	-11.5819
▁hören	-11.5821
▁Shu	-11.5821
▁Бар	-11.5821
aban	-11.5823
▁Mak	-11.5826
▁irre	-11.5827
pati	-11.5827
▁Tru	-11.5831
▁realized	-11.5832
▁laisse	-11.5832
▁coût	-11.5833
▁servicio	-11.5834
すべき	-11.5834
▁AT	-11.5835
чные	-11.5835
NN	-11.5836
▁tribu	-11.5836
riez	-11.5836
▁carrying	-11.5837
▁Ud	-11.5837
/01	-11.5838
ियन	-11.5839
▁attacked	-11.5842
▁Franc	-11.5842
▁east	-11.5845
▁diga	-11.5845
अप	-11.5846
▁एस	-11.5847
▁getan	-11.585
▁вами	-11.5852
▁equi	-11.5853
かけて	-11.5855
▁nose	-11.5856
▁reveal	-11.5859
▁проблема	-11.5862
▁settle	-11.5862
▁marque	-11.5863
▁payments	-11.5863
шки	-11.5869
▁nuestras	-11.5869
▁delete	-11.5871
▁साफ	-11.5871
ぎ	-11.5872
▁protecting	-11.5873
schluss	-11.5874
▁ISO	-11.5874
くない	-11.5874
▁suivant	-11.5875
師	-11.5876
風	-11.5876
▁Communauté	-11.5876
▁Default	-11.5876
▁Glück	-11.5876
▁territory	-11.5876
▁спасибо	-11.5876
▁शामिल	-11.5876
逮捕	-11.5876
▁Additional	-11.5876
▁covenant	-11.5876
▁intend	-11.5876
▁pocket	-11.5876
種	-11.5876
終わり	-11.5876
ऊँ	-11.5876
▁désolé	-11.5876
生活	-11.5876
▁क़सम	-11.5876
あなたが	-11.5876
▁asunto	-11.5876
▁grâce	-11.5876
▁retard	-11.5876
roc	-11.5876
▁abode	-11.5876
▁среди	-11.5876
▁journal	-11.5877
▁priorities	-11.5877
tures	-11.5878
▁union	-11.5878
▁opérations	-11.5879
▁differences	-11.5879
▁schwer	-11.5879
▁étant	-11.5879
▁nombreux	-11.5879
▁Morgen	-11.588
ception	-11.588
мент	-11.5881
пут	-11.5881
▁estará	-11.5882
▁Poland	-11.5885
orra	-11.5885
▁Abb	-11.5887
させて	-11.5887
▁slip	-11.5888
▁Augen	-11.589
▁später	-11.5891
▁constitution	-11.5892
▁места	-11.5892
राम	-11.5893
▁\	-11.5893
एँगे	-11.5895
▁fate	-11.5897
▁мире	-11.5897
éro	-11.5898
あなたに	-11.5898
▁cow	-11.5898
▁これで	-11.5899
prop	-11.59
▁Format	-11.5902
hoo	-11.5903
▁pod	-11.5903
があります	-11.5903
のせい	-11.5904
と一緒に	-11.5909
зер	-11.5912
▁Кор	-11.5913
▁Left	-11.5913
administration	-11.5913
▁exige	-11.5915
▁culpa	-11.5916
arra	-11.5917
▁lettre	-11.5917
lose	-11.5917
▁ferai	-11.5919
this	-11.5919
пус	-11.5921
▁matin	-11.5921
▁principales	-11.5921
ancien	-11.5921
▁vertu	-11.5922
▁electric	-11.5923
nement	-11.5924
flex	-11.5925
-17	-11.5925
yna	-11.5926
金を	-11.5926
img	-11.5927
▁noticed	-11.5929
▁Anne	-11.593
KE	-11.5933
▁mainly	-11.5936
▁Cooper	-11.5937
▁spec	-11.5938
щен	-11.5939
dienst	-11.5941
BE	-11.5941
▁visita	-11.5941
▁Natural	-11.5943
=2	-11.5948
▁Games	-11.5951
état	-11.5952
▁hill	-11.5953
God	-11.5957
▁отправ	-11.5958
UI	-11.5959
▁Ñ	-11.5962
мм	-11.5966
SN	-11.5966
▁conoce	-11.5966
週	-11.5969
мир	-11.597
欲	-11.597
視	-11.597
済	-11.597
®	-11.597
▁Kontakt	-11.597
▁obstacle	-11.597
▁práctica	-11.597
▁которую	-11.597
▁нужен	-11.597
▁нужна	-11.597
▁усилия	-11.597
▁गुनाह	-11.597
▁बराबर	-11.597
容	-11.597
▁grieve	-11.597
▁Millionen	-11.597
▁création	-11.597
▁दौरान	-11.597
▁Czech	-11.597
▁quizá	-11.597
▁Material	-11.597
▁créé	-11.5971
▁Debería	-11.5971
▁ojos	-11.5971
▁réserve	-11.5971
сен	-11.5971
▁Rapporteur	-11.5971
▁publié	-11.5971
▁वादा	-11.5971
▁tunnel	-11.5971
▁propuesta	-11.5972
▁confiance	-11.5972
▁relatif	-11.5973
▁твоей	-11.5973
▁Ooh	-11.5976
▁daher	-11.5978
▁edad	-11.5979
▁стал	-11.5981
spot	-11.5983
ических	-11.5985
▁hip	-11.5986
cision	-11.599
लाइन	-11.5993
言え	-11.5995
gegeben	-11.5995
▁documentation	-11.5996
stellt	-11.5997
▁acce	-11.5998
GR	-11.5999
スは	-11.6001
▁कॉल	-11.6001
umi	-11.6002
来い	-11.6003
вен	-11.6003
für	-11.6007
皆	-11.6008
alla	-11.6008
そんな	-11.6009
spann	-11.6009
फिर	-11.601
ера	-11.601
▁régions	-11.6011
mia	-11.6014
と思って	-11.6014
▁誰が	-11.6016
調べ	-11.6018
▁sensitive	-11.6019
▁reply	-11.602
(3)	-11.6021
ünde	-11.6027
▁servant	-11.6028
▁état	-11.6028
▁不	-11.6028
▁Karen	-11.6029
▁**	-11.603
वाह	-11.603
убли	-11.6032
▁doute	-11.6038
▁граждан	-11.6041
▁GE	-11.6046
▁stronger	-11.6047
▁arma	-11.6048
▁Ever	-11.6048
hmm	-11.6059
сса	-11.6059
▁proposé	-11.6059
▁Freunde	-11.6063
▁пункта	-11.6063
fur	-11.6064
▁faster	-11.6064
結	-11.6065
▁solicit	-11.6065
skeptical	-11.6065
側	-11.6065
─	-11.6065
▁Gobierno	-11.6065
▁République	-11.6065
▁cuestión	-11.6065
▁explanation	-11.6065
▁investigación	-11.6065
▁Меня	-11.6065
▁достаточно	-11.6065
▁клиент	-11.6065
▁खैर	-11.6065
紙	-11.6065
▁competitive	-11.6065
▁pêche	-11.6065
▁statistics	-11.6065
▁Sweet	-11.6065
▁asleep	-11.6065
▁braucht	-11.6065
▁applies	-11.6065
▁equipped	-11.6065
▁Startseite	-11.6065
▁asshole	-11.6066
▁voudrais	-11.6066
ねえ	-11.6066
▁piensa	-11.6066
▁journée	-11.6066
▁transmission	-11.6066
leistung	-11.6067
▁Country	-11.6067
▁Johnny	-11.6067
▁डॉ	-11.6068
вших	-11.6068
間違い	-11.6068
▁Spring	-11.6069
るのか	-11.6069
▁rising	-11.6069
▁быстро	-11.6069
▁Guard	-11.607
shop	-11.6071
▁мама	-11.6072
ишься	-11.6072
▁Speak	-11.6073
▁demás	-11.6073
▁फ़ाइलें	-11.6074
▁oficial	-11.6075
▁competent	-11.6076
2004,	-11.6077
▁1970	-11.608
▁Jason	-11.608
▁echt	-11.6082
▁проведен	-11.6082
▁achievement	-11.6082
▁peine	-11.6083
MU	-11.6085
rät	-11.6086
▁Shin	-11.6087
▁attribute	-11.6087
lash	-11.6087
▁probablement	-11.6087
そこに	-11.6088
仕事を	-11.6091
▁observe	-11.6091
▁ensuite	-11.6092
вай	-11.6093
▁Seven	-11.6095
ण्ड	-11.6102
るよ	-11.6103
同じ	-11.6103
ior	-11.6103
スの	-11.6104
FS	-11.6104
▁группа	-11.6104
▁confirmed	-11.6105
учи	-11.6105
▁Victoria	-11.6105
nische	-11.6106
犯	-11.6106
Puede	-11.6108
related	-11.6108
Exp	-11.6109
▁Moi	-11.6109
arrive	-11.611
visible	-11.611
▁crying	-11.6111
дачи	-11.6111
▁drawing	-11.6112
▁договор	-11.6112
▁94	-11.6112
▁Mess	-11.6113
▁(+	-11.6114
▁भेजें	-11.6118
▁आपने	-11.6119
▁manos	-11.6119
rak	-11.6121
▁cheat	-11.6122
▁Gardens	-11.6125
teilen	-11.6128
▁часть	-11.6133
▁акт	-11.6135
rasse	-11.6136
▁Hit	-11.6136
▁salle	-11.6137
▁сил	-11.6139
▁hará	-11.6139
औ	-11.6142
aller	-11.6144
▁ग़	-11.6147
▁Lage	-11.6149
▁sonst	-11.615
раст	-11.6151
嘘	-11.6154
▁あと	-11.6154
▁97	-11.6154
▁obligation	-11.6157
▁последни	-11.6157
▁rush	-11.6158
пар	-11.6159
____	-11.6159
飛	-11.6161
зор	-11.6161
加	-11.6161
ë	-11.6161
ò	-11.6161
▁Sergeant	-11.6161
▁Unfortunately	-11.6161
▁conseguir	-11.6161
▁diciembre	-11.6161
▁embarrass	-11.6161
▁monsieur	-11.6161
▁numerous	-11.6161
▁threw	-11.6161
▁раньше	-11.6161
▁इबराहीम	-11.6161
▁पश्चात	-11.6161
▁Flughafen	-11.6161
▁Frankfurt	-11.6161
▁Grupo	-11.6161
▁mauvais	-11.6161
▁पुलिस	-11.6161
攻撃	-11.6161
▁senior	-11.6162
▁Psych	-11.6162
▁अनुमति	-11.6162
▁elected	-11.6162
十分	-11.6162
▁целях	-11.6162
▁Girl	-11.6162
▁Zur	-11.6162
▁plastic	-11.6162
▁shopping	-11.6162
▁hermana	-11.6162
ながら	-11.6162
▁आदेश	-11.6162
блюда	-11.6162
▁स्तर	-11.6163
▁Anhang	-11.6163
▁Klein	-11.6163
▁habría	-11.6164
▁bread	-11.6166
▁viejo	-11.6166
▁Claire	-11.6167
▁पि	-11.6167
▁repos	-11.6167
▁scope	-11.6167
よかった	-11.6168
फी	-11.6169
веду	-11.6169
▁Produkt	-11.6169
▁बातें	-11.617
▁Royal	-11.617
▁ham	-11.6172
知って	-11.6172
raf	-11.6173
иров	-11.6173
▁Jones	-11.6173
▁Private	-11.6173
▁Annie	-11.6174
▁Ин	-11.6176
cell	-11.6176
▁nurse	-11.6177
▁Voir	-11.6178
▁crush	-11.6178
कल	-11.6179
▁soumis	-11.6179
▁register	-11.618
र्ग	-11.6181
と言う	-11.6181
▁transit	-11.6184
ppi	-11.6187
られて	-11.6188
PD	-11.619
追い	-11.6192
wl	-11.6193
からの	-11.6193
▁Status	-11.6194
▁enquête	-11.6194
OUR	-11.6195
dvisory	-11.6196
▁idol	-11.6197
format	-11.6197
▁icon	-11.6198
▁flying	-11.6199
▁Prior	-11.6199
▁negocio	-11.62
note	-11.6201
▁Amy	-11.6201
**	-11.6202
ивает	-11.6203
▁regula	-11.6204
▁Разве	-11.6205
トリ	-11.6206
-11-	-11.6207
▁Fan	-11.6208
▁Oder	-11.6209
ोगे	-11.621
ющихся	-11.621
▁officials	-11.621
▁lake	-11.6212
さんは	-11.6215
▁marks	-11.6216
▁Dame	-11.6216
kor	-11.6217
шка	-11.6218
るぞ	-11.6219
▁Pala	-11.622
▁clock	-11.6221
clin	-11.6224
FP	-11.6224
追	-11.6228
▁Fish	-11.6228
durch	-11.623
▁chico	-11.6231
ブル	-11.6231
▁suivantes	-11.6232
▁hack	-11.6232
ॉल	-11.6236
見つけた	-11.6238
▁dan	-11.6239
▁Karte	-11.6239
ですが	-11.6242
▁goals	-11.6245
▁adjust	-11.6247
バン	-11.6248
▁mortal	-11.6251
▁Doug	-11.6251
▁Rom	-11.6252
▁お前が	-11.6252
▁withdraw	-11.6252
raient	-11.6254
▁détail	-11.6254
▁вечер	-11.6256
▁शीर्ष	-11.6256
権	-11.6258
検	-11.6259
列	-11.6259
自由	-11.6259
骨	-11.6259
▁consumption	-11.6259
▁democracy	-11.6259
▁eigentlich	-11.6259
▁financing	-11.6259
▁receiving	-11.6259
▁residence	-11.6259
▁smoking	-11.6259
▁teléfono	-11.6259
▁डिफ़ॉल्ट	-11.6259
▁प्रकाश	-11.6259
▁समस्या	-11.6259
politik	-11.6259
素晴らしい	-11.6259
▁fichier	-11.6259
▁vuelta	-11.6259
命令	-11.6259
▁Derecho	-11.6259
▁रद्द	-11.6259
▁obtenu	-11.6259
▁téléphone	-11.6259
▁nervous	-11.6259
▁Exchange	-11.6259
会社	-11.6259
▁Andrew	-11.6259
▁ouvert	-11.626
▁первый	-11.626
▁ऐसी	-11.626
▁взял	-11.6261
▁संपादक	-11.6261
fusion	-11.6261
▁civilian	-11.6261
▁prof	-11.6261
▁Verfahren	-11.6261
Cuál	-11.6262
▁fête	-11.6262
▁hé	-11.6263
ацию	-11.6263
शु	-11.6264
▁cher	-11.6264
▁Editor	-11.6265
▁shake	-11.6265
▁mouse	-11.6266
rock	-11.6269
▁properly	-11.627
elli	-11.6271
▁1960	-11.6274
▁家	-11.6274
▁Tax	-11.6278
орт	-11.6278
▁pratiques	-11.628
▁obtained	-11.6281
rÃ	-11.6283
▁Greg	-11.6284
▁discussions	-11.6286
▁Moon	-11.6286
▁Cut	-11.6287
ION	-11.6287
▁circle	-11.6288
▁オー	-11.6292
टल	-11.6293
कों	-11.6293
blick	-11.6294
[...]
