<pad>	0
<unk>	0
<s>	0
</s>	0
<2en>	0
<2hi>	0
<2fr>	0
<2es>	0
<2de>	0
<2ru>	0
.	-3.02289
,	-3.37268
s	-3.76166
▁the	-4.2041
'	-4.33513
▁a	-4.77803
▁of	-4.80598
▁to	-4.80878
?	-4.85333
▁	-4.86299
▁de	-4.86703
▁-	-4.99788
▁and	-5.01815
▁I	-5.03939
▁in	-5.10956
▁you	-5.19146
t	-5.27356
-	-5.31087
)	-5.51216
e	-5.51413
▁is	-5.54079
▁(	-5.55774
:	-5.56374
▁la	-5.56754
!	-5.6966
▁that	-5.78844
▁for	-5.79526
▁it	-5.88438
...	-5.90089
▁be	-5.95391
▁que	-5.95762
▁on	-5.99195
n	-6.00596
en	-6.06045
▁en	-6.1024
▁The	-6.12018
ing	-6.12763
m	-6.15129
/	-6.1996
▁not	-6.21406
d	-6.21476
re	-6.23272
▁me	-6.24261
▁with	-6.27999
▁है	-6.29505
er	-6.30202
▁was	-6.31121
▁are	-6.32469
a	-6.34057
▁have	-6.36216
r	-6.36986
▁this	-6.394
▁l	-6.39639
▁"	-6.40666
▁le	-6.42052
ed	-6.43367
▁un	-6.44122
es	-6.46515
▁You	-6.47301
▁des	-6.51139
▁et	-6.5206
▁в	-6.53841
▁will	-6.56877
▁no	-6.58544
▁your	-6.60324
▁d	-6.61206
▁à	-6.61691
▁we	-6.64276
▁We	-6.68473
▁el	-6.6853
▁les	-6.69478
▁die	-6.69762
▁du	-6.69766
▁they	-6.70758
▁y	-6.71313
▁der	-6.71526
▁from	-6.71678
▁и	-6.73023
▁an	-6.75166
▁he	-6.7525
o	-6.7579
▁do	-6.76251
▁के	-6.77469
▁It	-6.79183
;	-6.79447
▁And	-6.80939
y	-6.80949
▁und	-6.81126
▁A	-6.82263
▁can	-6.82278
▁He	-6.82533
▁es	-6.82628
▁by	-6.82701
а	-6.84199
▁और	-6.84466
е	-6.84566
▁No	-6.85374
▁¿	-6.86225
▁all	-6.87657
▁at	-6.87763
▁as	-6.88667
▁не	-6.89178
▁my	-6.89627
▁them	-6.99314
▁know	-7.01755
▁what	-7.01919
▁or	-7.02903
▁में	-7.03671
▁so	-7.05028
▁who	-7.06351
ll	-7.07546
’	-7.09717
▁C	-7.10099
▁с	-7.1016
▁se	-7.10355
est	-7.11213
▁has	-7.11445
▁1	-7.12441
▁на	-7.12978
ly	-7.14329
▁him	-7.18014
"	-7.18489
▁pas	-7.18916
▁out	-7.20218
▁что	-7.21691
▁but	-7.22414
▁los	-7.22741
▁con	-7.24339
▁से	-7.24352
▁one	-7.24563
▁In	-7.27139
▁like	-7.27287
▁about	-7.2742
▁ist	-7.27632
▁नहीं	-7.28733
▁up	-7.28773
é	-7.29131
▁?	-7.29739
▁को	-7.29742
ve	-7.30244
in	-7.30338
▁there	-7.30445
c	-7.30799
и	-7.30858
▁don	-7.31316
▁pour	-7.31442
▁just	-7.31633
▁their	-7.33019
te	-7.34753
▁की	-7.3482
▁est	-7.35928
▁his	-7.35949
।	-7.36531
▁La	-7.37685
▁Sie	-7.38367
▁were	-7.39594
▁по	-7.40205
▁been	-7.40948
h	-7.41267
▁here	-7.42064
▁This	-7.42316
▁2	-7.4404
▁her	-7.44169
▁zu	-7.46134
S	-7.46357
▁time	-7.46409
▁get	-7.46855
▁if	-7.46907
C	-7.47722
▁What	-7.48477
▁nicht	-7.50427
▁lo	-7.50848
▁Je	-7.50956
▁So	-7.5188
al	-7.51979
▁von	-7.52432
l	-7.53761
▁del	-7.54492
▁right	-7.54584
▁which	-7.55065
▁हैं	-7.5517
▁dans	-7.55271
il	-7.55423
▁3	-7.55566
▁das	-7.55679
й	-7.56055
м	-7.56661
▁para	-7.57636
▁una	-7.57657
A	-7.58411
b	-7.58948
▁une	-7.58962
▁Я	-7.59068
▁had	-7.59577
▁when	-7.59591
▁us	-7.59711
de	-7.60057
▁я	-7.60111
у	-7.60148
▁would	-7.60639
▁go	-7.60684
ar	-7.60821
▁But	-7.61041
i	-7.61517
le	-7.62796
▁Le	-7.6286
▁ne	-7.63391
▁That	-7.63673
▁au	-7.64173
on	-7.64641
▁S	-7.65022
▁want	-7.65459
▁por	-7.65574
▁L	-7.65597
ы	-7.6567
▁now	-7.65831
z	-7.66418
▁कि	-7.672
g	-7.67221
▁den	-7.67761
▁ich	-7.68013
▁Ich	-7.68141
▁[	-7.68381
://	-7.68456
▁o	-7.69289
▁our	-7.69338
▁एक	-7.70375
▁लिए	-7.71373
▁sur	-7.71607
▁तो	-7.71726
▁re	-7.72436
▁people	-7.73024
▁more	-7.73233
▁mit	-7.73271
▁http	-7.73663
▁those	-7.7394
▁10	-7.74307
х	-7.74723
▁par	-7.74855
▁They	-7.75029
ी	-7.75797
▁man	-7.76136
▁said	-7.76464
▁n	-7.76599
▁B	-7.76892
I	-7.76902
▁tu	-7.76974
▁am	-7.77505
▁shall	-7.77558
▁का	-7.77993
▁should	-7.78066
▁Allah	-7.78371
]	-7.78591
▁see	-7.78788
th	-7.79094
▁qui	-7.79253
▁su	-7.79399
▁think	-7.79465
▁ein	-7.79516
▁auf	-7.79977
▁c	-7.80101
▁4	-7.80182
▁got	-7.80375
▁für	-7.81036
▁за	-7.81665
▁Oh	-7.82084
▁मैं	-7.82337
an	-7.82384
B	-7.82617
un	-7.83086
▁las	-7.83121
▁ce	-7.83353
▁she	-7.84257
▁7	-7.84267
st	-7.85686
я	-7.85956
▁back	-7.85976
▁vous	-7.86236
▁je	-7.87887
▁पर	-7.87951
▁qu	-7.88758
▁some	-7.89009
▁s	-7.89112
▁5	-7.89119
ा	-7.8915
ment	-7.89248
k	-7.89585
▁good	-7.89707
as	-7.89713
▁हो	-7.89731
о	-7.90077
▁तुम	-7.90709
▁God	-7.90752
▁did	-7.91345
▁other	-7.91772
▁:	-7.91879
▁only	-7.9267
▁also	-7.92809
▁come	-7.92853
▁Die	-7.92872
_	-7.93037
▁¡	-7.93187
com	-7.93449
▁это	-7.93735
▁कर	-7.93922
ce	-7.9446
f	-7.94762
▁over	-7.94787
▁te	-7.95049
▁al	-7.9515
▁say	-7.95235
▁E	-7.95697
▁Es	-7.95988
2	-7.96301
▁son	-7.97309
ों	-7.97805
▁у	-7.97938
▁need	-7.97949
े	-7.98948
▁%	-7.99052
ation	-7.99263
▁take	-7.99506
▁plus	-7.99944
▁...	-8.00427
▁If	-8.01067
▁into	-8.01592
T	-8.01602
ai	-8.01757
▁En	-8.0262
▁si	-8.02627
▁make	-8.02647
▁any	-8.02927
▁then	-8.02967
▁Well	-8.03334
▁could	-8.03486
▁Do	-8.03609
p	-8.03945
▁D	-8.04057
▁Il	-8.04068
to	-8.05025
▁!	-8.05218
▁She	-8.05497
▁how	-8.06069
▁Lord	-8.06175
▁im	-8.06195
▁way	-8.06248
▁12	-8.06452
▁down	-8.0661
▁ты	-8.06621
D	-8.06674
or	-8.06774
."	-8.07129
ов	-8.0749
▁There	-8.07659
▁than	-8.08278
▁वह	-8.08478
▁आप	-8.08514
▁В	-8.08933
do	-8.09168
▁going	-8.09634
▁new	-8.10192
▁J	-8.10464
▁El	-8.10588
▁er	-8.10667
▁20	-8.10857
ом	-8.10951
▁«	-8.11592
u	-8.11833
▁T	-8.12041
▁eine	-8.1207
▁All	-8.12138
▁sie	-8.12307
ung	-8.13033
it	-8.13061
la	-8.13135
▁work	-8.13183
▁6	-8.13459
▁O	-8.13475
▁On	-8.13771
▁m	-8.14016
न	-8.14365
ge	-8.14929
▁ver	-8.1514
▁15	-8.15241
▁यह	-8.15472
▁जो	-8.1566
lo	-8.15673
ra	-8.16011
nt	-8.16079
▁вы	-8.16175
▁19	-8.16326
se	-8.16544
र	-8.16578
▁may	-8.16802
▁о	-8.16807
▁Tu	-8.16849
▁its	-8.16922
▁'	-8.17095
www	-8.1768
O	-8.17862
▁gonna	-8.1805
▁11	-8.18361
).	-8.18782
F	-8.18797
▁“	-8.18901
▁18	-8.1891
▁क्या	-8.1929
▁made	-8.19307
▁these	-8.1938
▁two	-8.19654
▁P	-8.19687
w	-8.19721
▁M	-8.20549
▁bien	-8.20702
P	-8.2101
▁Les	-8.22002
▁before	-8.22075
ю	-8.22145
▁p	-8.22647
ten	-8.22936
▁करें	-8.23181
ant	-8.23243
ó	-8.23313
us	-8.23473
▁day	-8.237
▁от	-8.23716
▁न	-8.24058
M	-8.24274
▁K	-8.24877
be	-8.24988
▁Mr	-8.25526
т	-8.25899
क	-8.26309
▁к	-8.26381
me	-8.26427
▁where	-8.26646
▁must	-8.26815
▁Das	-8.26884
▁Re	-8.27032
x	-8.27318
▁very	-8.27396
ch	-8.2742
▁first	-8.27528
ne	-8.27543
ent	-8.27561
с	-8.27678
▁wir	-8.28637
▁sont	-8.29244
▁8	-8.29273
▁avec	-8.29288
▁/	-8.29541
▁हम	-8.2968
el	-8.30046
▁F	-8.30074
▁भी	-8.30095
3	-8.30274
▁How	-8.30857
▁ही	-8.30877
os	-8.30994
ой	-8.31338
▁G	-8.3211
ли	-8.32247
▁sind	-8.32314
▁»	-8.32327
H	-8.32581
ल	-8.3272
ter	-8.32724
▁как	-8.33439
▁Si	-8.33639
▁Y	-8.33997
▁never	-8.34315
▁–	-8.34377
ion	-8.34401
▁mi	-8.34695
▁sich	-8.34718
л	-8.35084
▁tell	-8.35232
▁war	-8.3525
▁13	-8.35723
▁dem	-8.36236
▁My	-8.36347
(	-8.36478
ur	-8.37087
▁2016	-8.37485
▁something	-8.37602
able	-8.38254
▁Er	-8.38491
▁place	-8.38586
ro	-8.38619
E	-8.38699
▁из	-8.3931
д	-8.39376
▁16	-8.39407
▁И	-8.39463
▁il	-8.39847
▁too	-8.40166
▁life	-8.40224
▁для	-8.40226
▁To	-8.40436
▁years	-8.40499
▁sa	-8.4069
ir	-8.40834
▁well	-8.4111
▁De	-8.41314
▁ha	-8.41567
▁ou	-8.41665
▁For	-8.41863
▁really	-8.42054
▁R	-8.42101
▁after	-8.42258
▁Yeah	-8.42384
ers	-8.42502
▁aus	-8.4266
▁find	-8.4266
v	-8.42688
ado	-8.42737
▁14	-8.42812
го	-8.42824
▁Me	-8.43396
▁más	-8.43574
▁किया	-8.43908
▁off	-8.43987
is	-8.43993
▁werden	-8.4455
▁17	-8.44907
то	-8.45716
co	-8.45808
ü	-8.46074
त	-8.46121
ла	-8.46272
▁um	-8.46533
▁little	-8.46837
▁Un	-8.46886
▁didn	-8.47167
▁give	-8.47323
▁hat	-8.47512
▁Du	-8.47522
1	-8.48101
ta	-8.48234
▁30	-8.48346
ic	-8.4848
▁Это	-8.49117
▁even	-8.49595
▁aux	-8.49818
▁because	-8.49997
н	-8.50045
▁como	-8.50059
▁let	-8.50396
ci	-8.5041
▁nous	-8.50435
▁dass	-8.5088
▁9	-8.51656
▁वे	-8.51776
▁much	-8.51824
но	-8.51992
▁found	-8.52077
▁believe	-8.5217
í	-8.52851
▁अपने	-8.53075
N	-8.53138
at	-8.53394
▁information	-8.53461
▁А	-8.53472
▁&	-8.5359
ने	-8.53715
L	-8.5379
▁Se	-8.53793
▁С	-8.53853
▁Ты	-8.53924
▁Commission	-8.53944
K	-8.53946
▁help	-8.53988
4	-8.54494
▁меня	-8.54567
ка	-8.54597
5	-8.54643
R	-8.54902
▁его	-8.54956
▁está	-8.55017
▁Be	-8.55226
da	-8.55479
▁look	-8.5574
%	-8.55761
▁An	-8.56293
▁wird	-8.5632
▁As	-8.56399
▁कुछ	-8.56549
▁world	-8.56576
ет	-8.56645
▁such	-8.56921
▁most	-8.56944
ть	-8.57159
▁use	-8.57554
▁при	-8.57592
no	-8.57651
▁name	-8.5782
▁W	-8.57937
ez	-8.58129
▁away	-8.58132
▁between	-8.58363
ig	-8.58745
▁ge	-8.59382
▁ने	-8.59657
na	-8.59702
▁thing	-8.59762
▁N	-8.59811
6	-8.6005
ie	-8.60485
▁été	-8.60529
▁love	-8.60563
▁part	-8.60896
▁इस	-8.6112
в	-8.6128
▁per	-8.613
▁under	-8.61492
man	-8.61672
म	-8.61866
▁Lo	-8.621
▁Hey	-8.62559
▁ça	-8.62801
▁fait	-8.62824
▁haben	-8.6307
ता	-8.6323
ना	-8.63397
7	-8.63408
▁था	-8.63775
Y	-8.63801
▁May	-8.64037
▁does	-8.64082
ca	-8.642
ки	-8.64457
ся	-8.64489
".	-8.64715
▁through	-8.64826
▁long	-8.64834
▁His	-8.65424
▁Then	-8.65576
▁—	-8.65758
ia	-8.65916
▁used	-8.66318
▁Why	-8.66441
▁être	-8.66464
▁über	-8.66473
▁Don	-8.66881
▁мы	-8.66891
▁он	-8.67104
▁mean	-8.67193
▁21	-8.67208
▁many	-8.67322
▁e	-8.67359
ul	-8.67403
▁still	-8.67424
▁У	-8.67431
W	-8.67493
á	-8.67529
ity	-8.67652
8	-8.67654
ь	-8.67674
▁va	-8.67704
स	-8.67715
▁being	-8.67801
et	-8.67837
▁home	-8.67898
▁call	-8.68255
▁mir	-8.68595
▁मुझे	-8.68671
V	-8.68905
▁PM	-8.69123
▁When	-8.69596
▁last	-8.6964
▁H	-8.69663
▁auch	-8.69775
G	-8.69799
▁put	-8.7072
▁रहा	-8.70764
▁car	-8.70821
▁22	-8.70842
▁Canada	-8.71029
ем	-8.71078
▁мне	-8.71108
go	-8.71145
▁कोई	-8.71345
ж	-8.71364
▁Wir	-8.71423
▁25	-8.7146
▁все	-8.71648
ра	-8.71748
▁als	-8.71761
▁रहे	-8.7201
▁Let	-8.72048
age	-8.72884
▁oder	-8.73466
▁Ver	-8.73555
▁так	-8.73665
ो	-8.73979
une	-8.74077
▁why	-8.74125
ación	-8.74795
▁бы	-8.75192
▁t	-8.75265
▁j	-8.75487
▁Now	-8.75624
▁Vous	-8.75658
if	-8.76011
▁nach	-8.76053
▁again	-8.7611
mos	-8.76283
▁_	-8.7634
tu	-8.7638
ver	-8.76406
ma	-8.76565
▁ont	-8.76624
▁लोग	-8.76724
▁Who	-8.7694
▁things	-8.77147
▁number	-8.77329
▁great	-8.77454
ä	-8.77721
ton	-8.77852
9	-8.77944
ine	-8.78482
▁year	-8.78542
▁Et	-8.78607
▁до	-8.78678
▁про	-8.78733
▁24	-8.78886
▁better	-8.79188
▁same	-8.79421
▁Der	-8.79459
▁einen	-8.79496
▁against	-8.79578
▁co	-8.79769
▁European	-8.7998
▁night	-8.80428
▁Не	-8.81481
प	-8.81492
▁करने	-8.81642
▁23	-8.81661
▁own	-8.81872
▁km	-8.8188
▁qué	-8.81887
mo	-8.81959
▁Your	-8.82123
▁wie	-8.82476
den	-8.82533
▁entre	-8.82613
▁गया	-8.82626
the	-8.82885
am	-8.82941
▁every	-8.83053
ни	-8.83173
▁point	-8.8323
▁Just	-8.83253
ट	-8.83748
г	-8.83861
▁(_	-8.84132
que	-8.84289
▁а	-8.84509
ित	-8.84567
▁फिर	-8.84638
▁Al	-8.84728
mente	-8.84789
на	-8.84804
der	-8.84819
▁ser	-8.85485
▁Our	-8.85591
▁sent	-8.85798
▁hier	-8.86028
up	-8.86201
▁Und	-8.86239
ri	-8.86355
ая	-8.86401
▁end	-8.86543
ner	-8.86588
▁faire	-8.86624
ми	-8.8666
▁anything	-8.86771
ada	-8.86971
▁mich	-8.86996
ac	-8.871
▁support	-8.87365
▁Not	-8.87593
ей	-8.87862
▁doing	-8.87997
▁b	-8.88093
▁best	-8.8846
id	-8.88481
ré	-8.88515
ия	-8.88535
▁thought	-8.88573
▁जा	-8.88701
▁mon	-8.88863
▁cette	-8.8908
▁comme	-8.89258
ée	-8.89297
▁dé	-8.89732
▁report	-8.90067
▁Он	-8.90184
▁Yes	-8.90327
▁0	-8.90394
gen	-8.90485
▁important	-8.905
▁V	-8.90529
▁pro	-8.90631
▁States	-8.90642
ad	-8.9076
és	-8.90928
▁но	-8.91052
ह	-8.91261
ить	-8.91276
▁set	-8.91402
No	-8.91427
▁тебя	-8.91473
▁pero	-8.91674
▁came	-8.91681
▁United	-8.9212
▁Go	-8.92157
ck	-8.92356
▁आ	-8.92498
▁AM	-8.92554
▁Вы	-8.92563
▁Мы	-8.92631
▁nur	-8.92702
▁sure	-8.92725
▁tout	-8.92862
▁around	-8.93068
▁Was	-8.9314
ru	-8.93248
les	-8.93358
▁keep	-8.93375
▁же	-8.93444
▁three	-8.93448
▁Can	-8.9346
▁earth	-8.93759
”	-8.93886
em	-8.94081
▁vor	-8.94357
ja	-8.94391
ब	-8.9454
elle	-8.94541
▁साथ	-8.94762
да	-8.94848
▁♪	-8.9487
▁esta	-8.95022
▁हूँ	-8.95072
▁always	-8.9515
▁non	-8.95177
▁bei	-8.95184
pa	-8.95239
▁talk	-8.95275
▁ma	-8.95283
▁जब	-8.95285
▁Council	-8.95315
ance	-8.95514
▁Okay	-8.95794
▁old	-8.95947
▁real	-8.95997
▁New	-8.96067
▁following	-8.96194
Qué	-8.96277
--	-8.96342
▁mal	-8.96399
▁suis	-8.96711
ry	-8.96863
▁another	-8.96898
▁mais	-8.96903
▁ab	-8.97061
im	-8.97353
▁peut	-8.97563
▁Да	-8.9758
ting	-8.97616
▁men	-8.97717
▁eso	-8.97732
▁ये	-8.97804
▁told	-8.97843
▁ever	-8.97967
00	-8.98152
▁Are	-8.98258
di	-8.98416
li	-8.98441
▁kind	-8.98521
▁Con	-8.98681
ate	-8.98843
ti	-8.99059
▁со	-8.99078
▁nothing	-8.99214
ого	-8.99332
▁aquí	-8.99455
ga	-8.99679
▁Ein	-8.99746
▁each	-8.99797
▁लोगों	-8.99941
j	-8.99957
ber	-9.00083
▁Look	-9.00215
▁might	-9.00333
▁case	-9.00522
▁чтобы	-9.0063
ido	-9.00634
ि	-9.00659
0	-9.00674
▁public	-9.0068
▁feel	-9.00825
▁upon	-9.00874
▁while	-9.00964
▁sein	-9.01231
▁Come	-9.01286
▁done	-9.01289
▁dis	-9.01323
▁left	-9.01375
ло	-9.01452
▁sobre	-9.01513
▁plan	-9.01575
य	-9.01642
п	-9.01688
ч	-9.01714
▁won	-9.01738
▁под	-9.01934
▁Но	-9.02135
▁pre	-9.02209
so	-9.02225
▁without	-9.02399
к	-9.02507
ие	-9.02576
р	-9.0262
▁among	-9.02781
▁please	-9.02931
▁At	-9.02933
▁file	-9.03176
▁उसे	-9.03299
▁da	-9.03303
▁water	-9.03948
те	-9.04208
▁ask	-9.04258
ía	-9.04431
▁об	-9.04438
▁einer	-9.04622
▁kann	-9.04674
▁noch	-9.04733
ut	-9.04782
ling	-9.05143
▁Committee	-9.05154
▁Ce	-9.05245
ba	-9.05258
▁Day	-9.0526
та	-9.05347
land	-9.05351
▁ex	-9.05611
▁currently	-9.05626
▁(1)	-9.05642
▁то	-9.05899
▁human	-9.05988
▁раз	-9.06056
▁31	-9.06084
▁both	-9.06275
▁अल्लाह	-9.0632
▁everything	-9.06369
ty	-9.06521
ते	-9.06593
▁system	-9.06666
▁Him	-9.06724
▁house	-9.07564
ку	-9.07596
con	-9.0773
pe	-9.07751
▁2011	-9.0776
▁Что	-9.07778
tra	-9.07864
▁Ja	-9.08048
▁question	-9.08149
▁children	-9.08244
▁По	-9.08366
U	-9.08407
▁करते	-9.08523
ö	-9.08533
ist	-9.08553
ies	-9.08625
▁todo	-9.08777
tion	-9.09042
▁Or	-9.09174
▁services	-9.09327
▁family	-9.09393
ste	-9.09476
▁ces	-9.09746
▁О	-9.09778
ive	-9.10006
▁este	-9.10103
з	-9.10139
▁Posted	-9.10525
▁К	-9.10642
▁Te	-9.10737
▁lot	-9.10813
▁года	-9.10822
▁या	-9.10921
▁bring	-9.10924
um	-9.10986
▁Where	-9.1103
▁One	-9.11105
▁already	-9.11106
▁#	-9.11181
▁g	-9.11234
ва	-9.1131
्	-9.1136
▁father	-9.11414
vi	-9.11545
▁€	-9.11777
ных	-9.11825
▁yo	-9.12015
ité	-9.12204
▁*	-9.12289
▁leave	-9.12412
):	-9.12497
▁order	-9.12648
▁show	-9.12658
ной	-9.12844
▁dich	-9.12932
▁okay	-9.12954
ol	-9.13248
▁next	-9.13515
▁habe	-9.13602
▁wurde	-9.13627
ha	-9.13655
che	-9.13664
ción	-9.138
▁उनके	-9.13989
▁international	-9.1404
10	-9.14312
▁open	-9.14366
au	-9.14613
▁2007	-9.14697
men	-9.14706
▁course	-9.14966
sch	-9.15235
htm	-9.15243
▁page	-9.15255
ля	-9.15356
▁einem	-9.15489
▁bis	-9.155
he	-9.15669
per	-9.15721
ait	-9.1579
ka	-9.1583
▁их	-9.15866
▁together	-9.15917
▁countries	-9.16081
▁aber	-9.16147
▁money	-9.16182
ons	-9.16225
▁turn	-9.16269
ement	-9.16337
bo	-9.16399
ze	-9.16686
▁2005	-9.16798
▁दिया	-9.16853
°	-9.16861
end	-9.17041
son	-9.17079
▁26	-9.17403
ure	-9.17607
io	-9.17614
▁esto	-9.17673
▁second	-9.17743
▁sus	-9.17768
▁28	-9.17964
ами	-9.1804
▁или	-9.18061
▁они	-9.18077
▁2006	-9.18098
▁तुम्हें	-9.18123
fe	-9.18225
▁01	-9.18602
▁dir	-9.18906
ler	-9.19114
▁अ	-9.19165
▁hear	-9.19208
ger	-9.19211
▁guy	-9.19303
▁control	-9.19337
▁wrong	-9.19341
▁Elle	-9.19418
श	-9.19442
▁Man	-9.19581
▁indeed	-9.19608
▁Su	-9.19674
▁Please	-9.19716
ан	-9.19738
ую	-9.19802
▁women	-9.1981
вер	-9.19943
▁bin	-9.1996
▁possible	-9.20203
and	-9.20244
net	-9.20276
▁Did	-9.20336
▁room	-9.20491
▁Los	-9.20581
▁+	-9.20738
▁Article	-9.20766
▁Sch	-9.20882
व	-9.20892
▁Ab	-9.21086
»	-9.21114
▁doesn	-9.21143
▁Mi	-9.21204
▁Mar	-9.2124
ex	-9.21295
ш	-9.21408
▁ye	-9.21415
▁2008	-9.21507
ит	-9.21592
▁2009	-9.21611
ं	-9.21666
▁live	-9.21726
▁wenn	-9.21727
▁было	-9.2174
ary	-9.21819
▁Pero	-9.21885
▁since	-9.22014
gi	-9.22037
▁durch	-9.22081
▁power	-9.22106
▁ख़ुदा	-9.22131
▁until	-9.22132
▁Nations	-9.22143
ando	-9.2217
▁2004	-9.22174
iv	-9.22209
▁2010	-9.22371
▁hand	-9.22383
▁На	-9.22619
▁care	-9.22674
▁27	-9.22708
▁nor	-9.23002
ст	-9.23381
▁был	-9.23388
▁कहा	-9.23654
▁votre	-9.23671
▁today	-9.23704
▁können	-9.23775
ach	-9.2387
▁different	-9.24104
▁President	-9.24127
ho	-9.24224
▁Co	-9.24295
ke	-9.24414
▁called	-9.24437
▁Da	-9.24471
ू	-9.24509
▁country	-9.24539
▁ré	-9.2464
ные	-9.24644
org	-9.24657
▁change	-9.2477
ле	-9.24853
▁тебе	-9.24925
▁uns	-9.24998
ous	-9.25022
б	-9.2514
▁given	-9.25141
ль	-9.25459
▁development	-9.25465
▁zum	-9.25529
▁zur	-9.25589
▁hacer	-9.25743
▁होगा	-9.25887
▁St	-9.2594
ें	-9.26022
▁situation	-9.26087
▁September	-9.26103
▁cause	-9.26123
▁stop	-9.26208
▁national	-9.26505
▁November	-9.2664
▁Dr	-9.26643
ый	-9.26723
ный	-9.26725
▁General	-9.26845
▁dead	-9.26877
▁muy	-9.26885
▁With	-9.26911
▁i	-9.27054
▁50	-9.27088
ted	-9.27162
им	-9.2719
▁algo	-9.27221
▁ni	-9.27351
▁truth	-9.27519
ै	-9.27654
16	-9.27668
▁если	-9.27695
▁sorry	-9.27708
▁fact	-9.27722
▁wanted	-9.27751
▁days	-9.27762
द	-9.2789
▁coming	-9.27896
▁service	-9.27955
▁हमने	-9.27964
▁sin	-9.27989
▁Mo	-9.28193
ier	-9.28217
▁она	-9.2824
▁k	-9.28628
▁server	-9.28772
▁Z	-9.2894
▁U	-9.29
▁будет	-9.29114
▁leur	-9.29171
▁उसके	-9.29225
▁August	-9.29349
▁present	-9.29362
▁मेरे	-9.29378
▁whole	-9.29443
▁Mais	-9.29516
▁clear	-9.29691
Z	-9.29739
nce	-9.30065
▁सब	-9.30087
▁Na	-9.3022
ue	-9.30345
▁ihr	-9.30501
▁Sí	-9.30502
▁°	-9.30533
▁é	-9.30583
ness	-9.30665
▁Por	-9.30711
▁These	-9.30768
за	-9.30774
▁data	-9.30906
▁थे	-9.31005
50	-9.31072
▁April	-9.31117
▁Get	-9.31339
▁big	-9.31418
tal	-9.3142
▁meeting	-9.3144
▁moi	-9.31639
▁फ़ाइल	-9.31653
ется	-9.31688
▁Как	-9.31813
fi	-9.31938
▁view	-9.31969
vo	-9.32419
▁ले	-9.32429
▁face	-9.32541
▁быть	-9.326
▁बात	-9.32739
▁सकता	-9.33021
ु	-9.33022
▁2002	-9.33025
▁start	-9.33107
▁fear	-9.33168
▁lui	-9.33348
▁See	-9.33357
▁deux	-9.33395
▁есть	-9.33431
?"	-9.33446
он	-9.33477
▁dit	-9.33502
je	-9.33568
17	-9.33572
▁list	-9.33612
▁times	-9.33672
tic	-9.33722
▁когда	-9.33722
&	-9.33745
▁ti	-9.33808
▁même	-9.33854
J	-9.33873
09	-9.33875
ах	-9.33876
▁r	-9.33951
▁2015	-9.33971
▁sea	-9.34024
▁तुम्हारे	-9.34184
▁light	-9.34288
cu	-9.34321
.”	-9.34346
ам	-9.3441
▁Source	-9.34535
▁100	-9.34637
bar	-9.34653
ette	-9.34666
▁play	-9.34773
▁stay	-9.34982
▁high	-9.35007
▁tous	-9.35195
▁vez	-9.3524
▁Ra	-9.35314
▁él	-9.35317
lich	-9.35327
tro	-9.35369
▁took	-9.35401
▁दिन	-9.3541
▁during	-9.35502
▁business	-9.35534
▁करो	-9.35579
of	-9.3579
▁created	-9.35805
▁few	-9.35848
▁idea	-9.35872
▁far	-9.36025
out	-9.36121
▁available	-9.36403
▁rest	-9.36406
▁Car	-9.36466
▁mehr	-9.36503
ron	-9.36505
▁Reply	-9.36513
▁Ha	-9.36581
▁П	-9.36585
ated	-9.36595
▁working	-9.36658
ard	-9.36842
कर	-9.36947
▁total	-9.37039
▁person	-9.37046
▁29	-9.37088
▁सकते	-9.37091
▁seen	-9.37114
▁X	-9.37245
ian	-9.37401
▁enough	-9.37609
▁Pro	-9.37619
▁hay	-9.37624
▁bad	-9.37634
во	-9.37636
▁programme	-9.37659
▁become	-9.3777
▁•	-9.37819
▁yet	-9.37904
▁उन्हें	-9.37926
ni	-9.37984
▁нас	-9.37999
▁land	-9.38004
▁understand	-9.38074
▁remember	-9.38123
▁area	-9.38138
▁aussi	-9.38261
▁moment	-9.3829
▁full	-9.38326
▁fue	-9.38406
▁Ma	-9.38498
▁guys	-9.38561
▁Union	-9.38671
▁04	-9.38714
▁girl	-9.38789
▁kill	-9.38852
▁только	-9.38888
ди	-9.38915
▁di	-9.3897
ри	-9.38977
▁went	-9.39013
▁>	-9.39183
▁Mon	-9.39251
▁matter	-9.39255
▁social	-9.39272
▁बहुत	-9.39274
▁sub	-9.3935
ster	-9.39389
▁Д	-9.39406
ph	-9.39434
▁40	-9.39478
▁mother	-9.39504
The	-9.39528
▁Ne	-9.39594
▁hard	-9.39678
▁respect	-9.39853
▁05	-9.39869
▁kg	-9.39898
▁ya	-9.39937
▁means	-9.39981
ieren	-9.40052
▁08	-9.40139
▁07	-9.40158
▁free	-9.40186
▁tiene	-9.40245
▁problem	-9.40333
▁vom	-9.40368
▁उन	-9.40567
▁उस	-9.4072
▁saw	-9.40739
30	-9.40742
▁message	-9.40749
▁puede	-9.41151
ых	-9.41223
▁local	-9.41294
X	-9.41425
▁दो	-9.41446
ft	-9.41547
▁2000	-9.41565
▁нет	-9.41611
▁03	-9.41629
▁$	-9.41679
hr	-9.41685
▁inter	-9.41698
▁ca	-9.42146
▁run	-9.42182
▁Nous	-9.42204
▁Say	-9.42212
▁session	-9.42269
▁f	-9.42438
▁तरह	-9.42455
▁whom	-9.42481
▁June	-9.42526
ен	-9.42554
ии	-9.42624
▁taken	-9.42731
va	-9.42749
▁09	-9.42783
ре	-9.42833
lu	-9.42847
▁million	-9.42915
▁URL	-9.42957
iert	-9.42957
op	-9.43154
ndo	-9.43194
qui	-9.43368
ного	-9.43399
ou	-9.43501
▁friend	-9.43521
▁2003	-9.4362
▁Yo	-9.43626
▁hope	-9.43773
▁Europe	-9.43893
▁Б	-9.44173
▁mind	-9.44245
:00	-9.44376
▁process	-9.44446
▁try	-9.44464
▁किसी	-9.44516
▁site	-9.44633
▁नाम	-9.44647
ко	-9.44797
ais	-9.44845
▁head	-9.44853
▁02	-9.45007
▁Qu	-9.45014
fa	-9.45067
*	-9.45074
▁someone	-9.45148
▁line	-9.45228
▁December	-9.45249
▁nos	-9.453
▁within	-9.45309
▁06	-9.45367
▁side	-9.45374
▁ago	-9.45456
ти	-9.45459
ab	-9.45501
nd	-9.45539
▁cas	-9.4557
mb	-9.45806
▁Ca	-9.46006
не	-9.46156
ए	-9.46184
=	-9.46246
ий	-9.4625
▁просто	-9.46285
▁able	-9.46287
▁était	-9.46371
▁Sa	-9.46383
min	-9.46413
▁job	-9.46543
▁looking	-9.46564
▁sir	-9.46592
▁po	-9.46749
▁ihn	-9.46833
ip	-9.46875
▁type	-9.46915
▁ta	-9.46927
▁else	-9.46928
té	-9.4695
▁project	-9.46973
▁favor	-9.47007
ante	-9.47069
du	-9.47097
▁प	-9.47142
▁requested	-9.47148
▁bar	-9.47153
▁elle	-9.4718
▁unter	-9.47246
▁move	-9.47259
▁minutes	-9.47316
▁March	-9.47373
▁2012	-9.47513
▁‘	-9.47535
▁mis	-9.47557
▁meet	-9.4759
▁pays	-9.47611
▁Ge	-9.47614
ज	-9.47751
▁sais	-9.47762
▁%1	-9.47798
gu	-9.47802
▁पता	-9.47917
▁contact	-9.47918
lie	-9.47992
▁cuando	-9.47995
▁death	-9.48132
▁Am	-9.48151
▁group	-9.48203
▁Aber	-9.48211
▁read	-9.48261
▁вас	-9.48275
bi	-9.48283
mi	-9.48325
idad	-9.48363
сти	-9.48371
▁cannot	-9.48432
▁period	-9.48502
à	-9.48541
▁Member	-9.48612
▁Так	-9.48625
▁этого	-9.48625
▁पास	-9.48718
jo	-9.48782
▁true	-9.48837
ide	-9.48857
▁hell	-9.48869
▁पहले	-9.48923
ées	-9.48927
▁करता	-9.49005
ren	-9.49045
ви	-9.49116
▁provide	-9.49352
▁व	-9.49373
▁2001	-9.49487
▁Des	-9.49517
▁Here	-9.49723
▁heart	-9.49742
▁अपनी	-9.49799
▁Because	-9.49867
▁gave	-9.49881
­	-9.49902
ру	-9.49922
▁date	-9.50116
ил	-9.50181
▁जिस	-9.50187
▁fire	-9.50193
▁во	-9.5041
▁März	-9.50673
ik	-9.508
ff	-9.50806
▁veux	-9.50816
los	-9.50838
▁era	-9.50923
га	-9.50953
▁Hotel	-9.51001
▁trying	-9.51042
ые	-9.51127
че	-9.51131
20	-9.5121
▁wait	-9.51263
cho	-9.51306
▁Нет	-9.51351
par	-9.5136
▁surely	-9.51364
▁अब	-9.51523
▁là	-9.51634
▁July	-9.51835
▁diese	-9.51972
▁base	-9.5205
▁может	-9.52073
▁todos	-9.52132
▁Di	-9.5228
▁brought	-9.52318
▁x	-9.52441
▁यहाँ	-9.52465
ap	-9.52471
▁दे	-9.52549
▁return	-9.52642
▁ahora	-9.52648
▁level	-9.5267
▁करना	-9.52821
▁except	-9.52959
▁pay	-9.52976
▁special	-9.52985
▁wife	-9.53014
▁h	-9.53324
ko	-9.53358
▁By	-9.5345
▁sé	-9.5356
▁alone	-9.53601
▁también	-9.5371
▁week	-9.53735
▁uh	-9.53759
▁account	-9.538
▁October	-9.54009
▁doit	-9.54046
▁wish	-9.54093
▁city	-9.54099
▁getting	-9.54101
tor	-9.54138
igen	-9.54207
▁yourself	-9.54288
und	-9.54396
▁least	-9.54456
for	-9.54485
Ã	-9.545
▁main	-9.54576
ती	-9.54583
ite	-9.54705
ón	-9.5473
eur	-9.54912
▁law	-9.54915
gel	-9.54981
ak	-9.54982
ida	-9.55044
▁Diese	-9.55214
▁saying	-9.55348
▁having	-9.55408
▁ли	-9.55482
ок	-9.55522
▁sign	-9.55651
▁п	-9.5574
ern	-9.55873
ф	-9.55998
▁Ну	-9.56127
pro	-9.56386
▁morning	-9.5641
▁unto	-9.56582
▁ja	-9.56631
▁close	-9.56654
ग	-9.56693
▁==	-9.56698
▁Good	-9.56747
11	-9.56841
za	-9.56842
ium	-9.56867
▁Zeit	-9.56874
▁near	-9.56902
▁police	-9.56996
pi	-9.57087
▁Bueno	-9.57159
▁four	-9.5716
▁result	-9.57258
▁संदेश	-9.57277
19	-9.57297
▁school	-9.57473
ал	-9.57593
▁travail	-9.57621
▁Have	-9.57724
▁State	-9.57724
▁чем	-9.57815
▁г	-9.57853
▁Um	-9.57886
ial	-9.5791
▁San	-9.57938
▁chance	-9.58014
être	-9.58036
▁evil	-9.5806
lin	-9.58272
▁स	-9.58291
▁здесь	-9.58299
15	-9.58304
ण	-9.58378
О	-9.58468
▁actually	-9.58483
।"	-9.58556
mp	-9.58617
po	-9.58734
vous	-9.5878
▁send	-9.58901
▁ब	-9.5899
▁happened	-9.58998
▁small	-9.58999
EC	-9.59091
ag	-9.59122
mm	-9.59193
ful	-9.59329
▁knew	-9.59333
html	-9.59414
▁once	-9.59537
ub	-9.59593
q	-9.59638
▁decision	-9.59652
▁Wie	-9.59667
▁Pour	-9.59682
▁пере	-9.59686
wa	-9.59714
ое	-9.59731
▁nada	-9.59895
▁keine	-9.59926
▁EU	-9.59931
ться	-9.60007
▁Une	-9.60041
▁further	-9.60076
▁act	-9.60088
▁Maybe	-9.60144
▁thou	-9.60223
▁nombre	-9.60224
▁alle	-9.60253
▁speak	-9.60294
",	-9.60493
▁word	-9.60595
▁Of	-9.60701
▁schon	-9.60706
07	-9.60711
▁Vor	-9.60739
▁Ya	-9.60752
▁Non	-9.60823
▁heard	-9.60827
▁woman	-9.60893
ux	-9.60929
▁fin	-9.60957
▁general	-9.60959
▁да	-9.61031
▁regard	-9.61066
less	-9.61101
▁Will	-9.61146
▁Wenn	-9.61152
ile	-9.61262
रा	-9.61442
▁nights	-9.61482
03	-9.61517
▁За	-9.61524
▁तक	-9.61599
án	-9.61681
▁Li	-9.61741
▁Ro	-9.6176
qu	-9.61829
▁fine	-9.61885
▁government	-9.62051
▁Aus	-9.62076
▁meine	-9.62123
▁2013	-9.62154
▁tiempo	-9.62189
by	-9.62226
▁время	-9.62341
mon	-9.62366
ina	-9.62472
▁gut	-9.62503
▁así	-9.62555
▁ir	-9.62723
▁st	-9.62724
▁table	-9.62874
▁этом	-9.6288
▁temps	-9.62883
▁game	-9.6305
ным	-9.63108
IN	-9.63185
▁काम	-9.6321
▁(2)	-9.63274
▁समय	-9.63422
▁Г	-9.63456
ise	-9.63534
▁****	-9.63537
▁isn	-9.63651
▁ob	-9.6376
ating	-9.63767
chen	-9.63791
we	-9.63831
▁casa	-9.63864
▁Nächte	-9.63881
▁questions	-9.63888
▁ее	-9.63939
▁ici	-9.63949
▁provided	-9.63967
cht	-9.63988
्स	-9.64001
ados	-9.64085
ला	-9.64116
▁Uh	-9.64157
+1	-9.6417
▁form	-9.64239
▁conditions	-9.64365
ны	-9.64407
Por	-9.64459
▁muss	-9.64474
▁Она	-9.64599
С	-9.64617
ци	-9.64633
▁soon	-9.64657
▁example	-9.6466
her	-9.64705
▁еще	-9.64743
ungen	-9.64787
▁Government	-9.64816
по	-9.6494
▁position	-9.64948
ations	-9.64965
▁International	-9.64973
▁dann	-9.65034
ish	-9.65076
▁tan	-9.65108
▁months	-9.65115
▁très	-9.65131
▁party	-9.65208
▁Bar	-9.65248
▁wo	-9.65334
▁body	-9.65352
▁Show	-9.6568
▁Auf	-9.65685
ven	-9.65741
▁Ça	-9.65763
▁security	-9.65799
▁tra	-9.65907
му	-9.65992
▁talking	-9.66046
lé	-9.66103
жи	-9.66117
ique	-9.66129
▁кто	-9.66164
▁того	-9.66285
▁young	-9.66445
▁market	-9.66497
▁Regulation	-9.66556
ная	-9.666
▁lost	-9.66638
▁sehr	-9.66662
▁00	-9.66664
▁particular	-9.66795
▁Book	-9.66886
▁wieder	-9.66908
ah	-9.66943
ciones	-9.67102
dos	-9.67211
▁dire	-9.6728
ils	-9.67342
▁therefore	-9.67354
ют	-9.67464
14	-9.6748
▁Если	-9.67515
▁protection	-9.67529
▁Ni	-9.67587
के	-9.67602
▁comp	-9.6761
26	-9.67634
▁pm	-9.67739
▁brother	-9.67782
де	-9.67813
▁chose	-9.67836
▁также	-9.67849
▁रूप	-9.67929
▁action	-9.67966
05	-9.6798
▁January	-9.68028
ду	-9.68122
▁pu	-9.68143
ро	-9.68168
tes	-9.68177
▁heavens	-9.68188
▁wasn	-9.68194
ici	-9.68273
▁office	-9.68363
▁уже	-9.68365
ring	-9.68372
40	-9.68382
ien	-9.6843
▁continue	-9.68439
fer	-9.68476
▁hold	-9.6853
▁hours	-9.68626
▁enter	-9.68633
▁Those	-9.68649
tz	-9.68802
▁Bo	-9.68881
jpg	-9.68973
ор	-9.6907
▁large	-9.69075
tri	-9.6909
É	-9.69187
line	-9.69294
ran	-9.69314
▁nice	-9.69462
ज़	-9.69485
▁save	-9.69488
▁ठीक	-9.69499
était	-9.6952
▁Ihnen	-9.69577
▁Hi	-9.69651
▁later	-9.69664
▁final	-9.6968
▁From	-9.69684
▁access	-9.69751
▁book	-9.69767
▁John	-9.69816
▁Que	-9.69829
пи	-9.69885
amos	-9.69898
ions	-9.6995
▁above	-9.69959
▁punishment	-9.69981
их	-9.70034
▁अगर	-9.70036
port	-9.7008
▁dieser	-9.70085
▁anyone	-9.70153
br	-9.70161
▁document	-9.70173
▁future	-9.70215
▁state	-9.70256
nk	-9.70324
▁France	-9.70479
zu	-9.70508
▁child	-9.70526
cer	-9.70567
om	-9.70568
का	-9.70583
▁hace	-9.70636
mer	-9.70656
▁hast	-9.70718
▁Dans	-9.70724
▁follow	-9.70725
si	-9.70736
ING	-9.70766
▁address	-9.70794
▁production	-9.70814
all	-9.70936
▁लेकिन	-9.70952
▁population	-9.70953
ке	-9.70972
▁años	-9.71057
eth	-9.71177
ну	-9.71195
▁themselves	-9.71301
▁grand	-9.71366
▁II	-9.71454
ud	-9.71486
▁была	-9.71515
▁rights	-9.71674
ड	-9.71702
cha	-9.718
▁Group	-9.71854
▁certain	-9.71897
art	-9.7192
▁taking	-9.72008
▁fall	-9.72217
▁Par	-9.72219
ya	-9.72234
▁baby	-9.72299
▁World	-9.72493
tin	-9.72532
las	-9.72569
▁drink	-9.72591
23	-9.72605
▁including	-9.72612
▁text	-9.72635
▁reason	-9.72665
:30	-9.72753
vers	-9.72787
▁Au	-9.72867
▁Indeed	-9.72899
▁jetzt	-9.72971
▁check	-9.73045
▁Per	-9.73054
▁food	-9.73144
▁eyes	-9.73184
De	-9.73188
▁friends	-9.7319
06	-9.73191
ek	-9.73224
▁ella	-9.73277
от	-9.73339
12	-9.73396
▁Ex	-9.73443
▁town	-9.7349
▁asked	-9.73498
▁bit	-9.73509
▁test	-9.73592
21	-9.73623
▁THE	-9.73765
▁resolution	-9.73802
Re	-9.73808
hi	-9.73889
▁1.	-9.73922
▁transport	-9.74013
▁activities	-9.74167
▁2014	-9.74211
▁company	-9.74341
▁gone	-9.74375
▁pe	-9.74446
▁policy	-9.74513
▁vida	-9.74555
▁रसूल	-9.74858
▁others	-9.74878
ым	-9.75042
ин	-9.7505
▁où	-9.75112
▁making	-9.75165
▁immer	-9.75247
▁post	-9.75254
▁health	-9.75386
▁However	-9.75389
▁After	-9.75419
▁killed	-9.75436
▁current	-9.75474
▁met	-9.75514
ение	-9.75605
▁says	-9.75614
िक	-9.75625
ER	-9.75629
▁DE	-9.75678
▁Thank	-9.75716
▁están	-9.75746
ешь	-9.75878
ana	-9.75887
▁consider	-9.75935
▁value	-9.75941
▁60	-9.75965
▁UTC	-9.7608
▁visit	-9.76098
ты	-9.76192
▁wouldn	-9.76198
rie	-9.76334
▁ses	-9.76504
▁command	-9.76577
▁six	-9.76578
▁five	-9.76762
encia	-9.76825
▁toi	-9.76863
би	-9.76877
▁measures	-9.76899
▁peace	-9.7691
▁age	-9.76979
ख	-9.76982
We	-9.76994
▁Most	-9.77028
08	-9.77062
▁fight	-9.77153
▁boy	-9.77227
▁doch	-9.77519
▁Esta	-9.77555
▁Pas	-9.77563
▁York	-9.77672
▁knowledge	-9.77674
29	-9.77679
▁answer	-9.77688
ние	-9.77709
▁Some	-9.77717
▁बस	-9.7772
▁sous	-9.77819
▁знаю	-9.77854
▁Они	-9.77858
▁products	-9.77896
▁Pa	-9.77902
oc	-9.77903
▁door	-9.78012
▁though	-9.78047
▁vie	-9.78056
nos	-9.78075
▁मेरी	-9.78205
ib	-9.78357
▁financial	-9.7839
▁parte	-9.78448
▁phone	-9.78568
▁)	-9.7857
▁gibt	-9.78674
ige	-9.78677
25	-9.78866
duc	-9.7888
ec	-9.78916
▁всё	-9.78922
▁private	-9.78935
▁sans	-9.78995
ben	-9.79
car	-9.79032
▁trabajo	-9.79116
▁doctor	-9.79131
▁behind	-9.79284
▁error	-9.79284
▁wanna	-9.79298
ध	-9.79376
▁mejor	-9.79441
▁ihre	-9.79491
mar	-9.79503
▁Internet	-9.79517
▁maybe	-9.79599
@	-9.79789
▁key	-9.79793
од	-9.79858
▁„	-9.79868
▁EUR	-9.79891
▁Tag	-9.79918
▁1999	-9.79975
let	-9.80013
▁रब	-9.80038
▁Gu	-9.80044
moi	-9.8005
К	-9.80146
▁pretty	-9.80192
▁eat	-9.8025
ley	-9.80295
▁War	-9.80347
▁short	-9.80376
▁needs	-9.804
ot	-9.80432
13	-9.8058
▁sera	-9.80583
▁force	-9.8059
▁म	-9.80626
▁team	-9.80728
▁rapport	-9.80786
▁нам	-9.80884
▁Vi	-9.80919
eau	-9.81018
▁puedo	-9.8111
▁Could	-9.81127
ble	-9.81152
▁using	-9.8127
▁également	-9.81295
▁hands	-9.81338
▁Art	-9.81365
bu	-9.81442
▁necessary	-9.81479
▁past	-9.81662
▁Ihr	-9.81662
▁हर	-9.81721
sten	-9.8178
▁ready	-9.81818
नी	-9.81897
ное	-9.81924
▁etwas	-9.81938
▁Fa	-9.81995
▁जाएगा	-9.82039
▁estaba	-9.82107
▁vol	-9.82177
▁М	-9.82191
Name	-9.82217
▁Ta	-9.82228
▁news	-9.82228
La	-9.82261
ein	-9.82263
▁Ihre	-9.82332
या	-9.8237
▁müssen	-9.82408
▁चाहते	-9.8241
▁Wo	-9.82423
gar	-9.82524
one	-9.82524
▁Date	-9.82524
▁вам	-9.82575
▁cent	-9.82628
А	-9.82671
▁myself	-9.82798
▁notre	-9.82802
▁shit	-9.82803
18	-9.82881
▁imp	-9.82887
▁members	-9.82997
▁Take	-9.83085
dy	-9.83113
▁Mit	-9.8314
way	-9.83148
▁han	-9.83177
▁peux	-9.83203
▁makes	-9.83251
▁create	-9.83367
▁очень	-9.83535
▁Convention	-9.83538
▁known	-9.83554
▁sat	-9.83557
▁vais	-9.83577
▁Pre	-9.8358
ator	-9.83595
gue	-9.83621
▁क	-9.83647
▁ten	-9.8374
▁blood	-9.83803
ши	-9.83844
▁ни	-9.83901
▁bed	-9.83913
▁Conseil	-9.83914
▁tú	-9.83932
▁которые	-9.84103
्य	-9.84185
▁court	-9.84188
жа	-9.84231
▁bon	-9.84234
▁whether	-9.84295
ces	-9.84327
▁Zu	-9.84344
ita	-9.84482
▁guess	-9.84486
.1	-9.84488
च	-9.84512
php	-9.84536
▁art	-9.84576
▁были	-9.84583
▁Bien	-9.84695
▁estoy	-9.84701
फ	-9.84706
ऐ	-9.84865
“	-9.84866
▁Minister	-9.84868
▁v	-9.84958
▁comes	-9.84998
▁decir	-9.85015
▁fucking	-9.85042
▁thank	-9.85194
rse	-9.8523
▁--	-9.85325
्र	-9.85334
▁mein	-9.85359
▁ra	-9.85401
▁quoi	-9.85446
की	-9.85475
▁listen	-9.85515
▁Ah	-9.85526
cher	-9.85537
air	-9.85544
▁Ka	-9.85602
फ़	-9.85632
▁हुआ	-9.85635
▁unsere	-9.85647
▁America	-9.85649
▁À	-9.8568
▁certainly	-9.85725
ются	-9.85782
▁easy	-9.85828
▁जाओ	-9.85845
▁Phone	-9.85856
▁signs	-9.85865
04	-9.8597
ED	-9.85987
era	-9.86025
nie	-9.86053
▁हमारे	-9.86067
▁half	-9.86227
▁vi	-9.86336
AL	-9.86356
▁February	-9.86436
ken	-9.86512
▁bo	-9.86539
▁front	-9.86547
aire	-9.86577
▁सभी	-9.86606
ту	-9.86621
▁यदि	-9.86676
ino	-9.86855
▁Comment	-9.86945
▁rien	-9.87006
▁उसकी	-9.87198
sh	-9.87204
ras	-9.8721
mit	-9.87223
▁पा	-9.87267
▁mucho	-9.8728
▁knows	-9.87284
▁больше	-9.87299
ros	-9.87306
ния	-9.87306
▁Ho	-9.87358
▁बारे	-9.87424
aus	-9.87469
▁National	-9.87614
▁том	-9.87614
▁Right	-9.87638
▁trust	-9.87648
ische	-9.87831
▁ese	-9.87859
ischen	-9.8788
▁Ils	-9.87881
▁ci	-9.8789
▁living	-9.87977
▁single	-9.88003
mal	-9.88027
▁fi	-9.88058
▁avez	-9.88062
▁Ar	-9.88172
об	-9.88199
▁jour	-9.88322
▁dos	-9.88334
▁फ़ोल्डर	-9.88372
+	-9.884
!"	-9.88403
▁могу	-9.8841
▁offer	-9.88425
▁Dis	-9.88431
▁program	-9.88437
▁economic	-9.88463
▁fois	-9.88672
▁happy	-9.88769
▁hotel	-9.88789
тель	-9.88821
autres	-9.88837
ang	-9.88891
▁Nein	-9.889
▁section	-9.88928
▁बाहर	-9.88969
ris	-9.88979
▁Все	-9.8899
▁м	-9.89068
▁avant	-9.89121
▁mismo	-9.89125
ма	-9.89149
▁encore	-9.8917
ят	-9.89179
▁Mal	-9.89181
▁tengo	-9.89186
▁mí	-9.89204
▁whatever	-9.89212
▁Germany	-9.8931
▁चाहिए	-9.89368
▁voir	-9.89426
str	-9.89429
▁deal	-9.89506
▁avoir	-9.89541
IC	-9.89652
31	-9.89753
▁First	-9.89811
▁subject	-9.89811
▁image	-9.89831
И	-9.89921
▁personal	-9.89973
▁common	-9.89976
मा	-9.89998
ча	-9.9007
▁hecho	-9.90142
▁Uhr	-9.90228
▁]	-9.9026
▁'%	-9.90289
▁weiß	-9.90293
▁stand	-9.90367
М	-9.90419
ins	-9.90466
ments	-9.90498
▁parties	-9.9056
02	-9.90571
ries	-9.90662
ать	-9.90665
▁ре	-9.90681
▁based	-9.90713
▁Мне	-9.90793
▁Artikel	-9.90824
▁cut	-9.90855
▁bist	-9.90883
▁000	-9.90911
▁porque	-9.90919
ich	-9.90951
▁beautiful	-9.90982
▁Tra	-9.91019
▁air	-9.91091
▁application	-9.91114
▁हुए	-9.91187
▁mine	-9.91235
▁paragraph	-9.91321
▁Name	-9.91497
24	-9.91547
▁results	-9.91582
▁Aug	-9.91598
);	-9.91608
uch	-9.91613
▁words	-9.91681
▁cost	-9.91734
▁нужно	-9.91799
▁path	-9.91809
▁zurück	-9.91816
▁product	-9.91824
▁उसने	-9.91832
cent	-9.91905
▁Jo	-9.91953
ative	-9.91977
▁contre	-9.9202
▁avait	-9.92122
zen	-9.9213
▁areas	-9.92132
70	-9.92139
▁OK	-9.92208
▁peu	-9.92224
qué	-9.9229
▁gotta	-9.92389
▁Number	-9.92417
pt	-9.92468
▁Home	-9.92496
▁इसे	-9.92548
▁hab	-9.92599
ero	-9.92638
си	-9.92666
▁monde	-9.92775
▁received	-9.92993
▁ग	-9.93013
▁hurt	-9.9304
90	-9.93068
▁día	-9.93124
nes	-9.93299
▁2007,	-9.93308
EN	-9.93344
▁Us	-9.93367
▁walk	-9.93371
act	-9.93385
▁ve	-9.93482
▁ओर	-9.93491
▁touch	-9.93654
▁either	-9.93663
▁programmes	-9.93751
▁2008,	-9.93775
ize	-9.93785
прав	-9.93794
▁break	-9.93808
iste	-9.9395
▁third	-9.93955
▁leurs	-9.93966
rs	-9.93976
fl	-9.94004
▁color	-9.9402
35	-9.94074
isation	-9.94093
▁space	-9.941
bel	-9.94102
ар	-9.94206
▁compte	-9.94246
▁Pi	-9.94382
़	-9.94413
▁Ga	-9.94487
▁хочу	-9.94503
▁Parliament	-9.94523
▁US	-9.94532
▁late	-9.94535
▁दी	-9.94658
gre	-9.94666
▁Ko	-9.94677
des	-9.94681
▁issues	-9.94688
▁इन	-9.94695
▁वि	-9.94808
▁legal	-9.94838
▁Her	-9.9494
▁vers	-9.94989
▁Po	-9.95022
ги	-9.95063
▁pré	-9.95077
▁वाला	-9.95228
▁Ba	-9.95293
▁Eso	-9.954
▁Para	-9.95476
▁political	-9.95562
AR	-9.95563
ú	-9.956
▁gran	-9.95616
zeit	-9.95703
▁issue	-9.95739
▁tomorrow	-9.95775
Cómo	-9.95776
▁Like	-9.95813
▁sp	-9.95845
▁fun	-9.95896
▁turned	-9.95917
▁machen	-9.9595
▁normal	-9.95964
▁गए	-9.96041
▁happen	-9.96084
van	-9.96147
iendo	-9.9615
▁Ben	-9.96182
▁toujours	-9.96203
▁top	-9.96259
▁Tell	-9.96279
▁management	-9.96285
ник	-9.96296
ick	-9.96348
▁Open	-9.96368
▁sólo	-9.96417
▁hit	-9.96447
▁couldn	-9.96504
▁должны	-9.96632
▁experience	-9.96663
тер	-9.96704
ign	-9.96709
▁sector	-9.96742
▁guide	-9.96797
▁himself	-9.96862
ical	-9.96868
▁quiero	-9.96894
▁hombre	-9.96908
▁Cor	-9.96935
िंग	-9.97187
ized	-9.97259
или	-9.97295
ба	-9.97389
ally	-9.97512
60	-9.97524
tter	-9.9754
▁secret	-9.97661
▁haven	-9.97686
▁along	-9.97744
▁daughter	-9.97747
▁reward	-9.97753
▁trade	-9.97829
чи	-9.9792
▁estar	-9.97921
▁ihm	-9.97938
▁comment	-9.97939
ई	-9.97944
▁everyone	-9.9795
Е	-9.97957
▁Canadian	-9.97959
▁red	-9.98049
▁चीज़	-9.98151
▁English	-9.98216
01	-9.98297
ification	-9.98355
ep	-9.98391
ве	-9.98422
pl	-9.98427
री	-9.98438
uer	-9.98445
▁fe	-9.98507
па	-9.98507
gra	-9.98509
▁held	-9.98526
/2	-9.98724
CE	-9.98728
▁tipo	-9.98747
▁vas	-9.98785
▁research	-9.98815
▁budget	-9.98885
▁फ	-9.98921
▁soit	-9.98928
yl	-9.98935
▁risk	-9.98953
же	-9.98966
aciones	-9.98974
▁wants	-9.98986
▁window	-9.99093
ria	-9.99101
▁station	-9.99128
▁charge	-9.99184
RE	-9.99194
ения	-9.99238
▁esa	-9.99338
ев	-9.99378
सी	-9.99414
▁jamais	-9.99473
▁super	-9.99483
▁sound	-9.99506
1)	-9.99541
ont	-9.99602
▁increase	-9.99615
▁рас	-9.9962
ков	-9.99662
▁वहाँ	-9.99709
▁geht	-9.99725
▁mar	-9.99792
▁Time	-9.99827
▁fast	-9.99859
▁sal	-9.99901
▁stuff	-9.9992
▁andere	-9.99949
ию	-9.99957
▁tun	-9.99999
ization	-10.0009
▁Add	-10.0013
lt	-10.0019
став	-10.0028
▁usted	-10.0031
ors	-10.0035
▁Comité	-10.0037
गी	-10.0038
▁required	-10.0045
▁без	-10.0045
▁Miss	-10.0049
▁projet	-10.0051
can	-10.0054
ker	-10.0055
▁этой	-10.0055
▁draft	-10.0058
▁road	-10.007
time	-10.0075
▁simple	-10.0076
वा	-10.0079
▁Act	-10.0081
das	-10.0085
2)	-10.0091
rá	-10.0096
ES	-10.0106
ki	-10.0109
▁अच्छा	-10.0111
▁Im	-10.0112
Q	-10.0116
भ	-10.0122
▁partie	-10.0134
ड़	-10.0136
▁share	-10.0138
▁demande	-10.0138
▁field	-10.0138
ría	-10.0139
ible	-10.0149
ß	-10.015
▁रही	-10.0151
▁45	-10.0152
sta	-10.0154
▁version	-10.0156
liche	-10.0158
▁sido	-10.0163
▁mu	-10.0167
▁autres	-10.0167
▁moins	-10.0173
You	-10.0178
▁Seite	-10.0178
▁diesem	-10.0185
▁faut	-10.0186
ix	-10.0187
▁सं	-10.019
▁kid	-10.0192
▁ba	-10.0193
▁सूची	-10.0194
▁probably	-10.0194
▁code	-10.0196
my	-10.0197
▁3.	-10.0197
▁ils	-10.0198
▁कह	-10.0211
▁lie	-10.0212
▁besoin	-10.0212
ob	-10.0214
▁=	-10.0215
▁#1	-10.0217
22	-10.0217
use	-10.022
▁natural	-10.0221
▁Sin	-10.0229
▁1998	-10.0235
▁ID	-10.0236
▁seine	-10.0241
इ	-10.0245
▁thinking	-10.0259
▁Las	-10.0266
AN	-10.0266
bra	-10.0268
▁Ш	-10.0273
vis	-10.0273
ः	-10.0278
nte	-10.0282
▁membres	-10.0287
▁soy	-10.0287
▁ज	-10.029
▁lugar	-10.0291
▁role	-10.0294
▁started	-10.0295
бы	-10.0298
▁amount	-10.0298
▁parents	-10.0305
▁inside	-10.0307
▁Republic	-10.0308
▁poco	-10.0313
aux	-10.0316
▁quand	-10.0317
▁मु	-10.0317
▁उन्होंने	-10.0331
article	-10.0336
€	-10.0337
्ट	-10.0338
▁works	-10.0342
ay	-10.0346
▁safe	-10.035
▁contra	-10.0354
▁Community	-10.0356
▁лет	-10.0356
▁com	-10.0357
▁folder	-10.0359
see	-10.036
▁anti	-10.036
▁video	-10.0367
IT	-10.0377
▁ensure	-10.0381
▁там	-10.0384
▁outside	-10.0386
zo	-10.0389
▁OF	-10.039
IS	-10.0392
ॉ	-10.0392
▁Land	-10.0393
▁deeds	-10.0396
▁им	-10.04
мер	-10.0401
▁eu	-10.0404
▁сказал	-10.041
In	-10.0413
iz	-10.0414
▁uno	-10.0415
side	-10.0422
▁वही	-10.043
rate	-10.0438
▁alles	-10.0438
ाई	-10.044
▁nuevo	-10.0447
▁Mrs	-10.046
amente	-10.0462
80	-10.0462
▁promise	-10.0466
दा	-10.0467
▁Mann	-10.0469
ер	-10.0471
▁35	-10.0475
28	-10.0479
▁Nach	-10.0481
▁Also	-10.0481
▁autre	-10.0498
▁debe	-10.0499
▁Fire	-10.05
▁États	-10.0511
dic	-10.0512
▁Security	-10.0517
▁कभी	-10.0517
tte	-10.0519
▁basis	-10.0519
ली	-10.0522
▁include	-10.0524
▁quality	-10.0526
▁Э	-10.0527
▁Son	-10.0535
▁где	-10.0541
▁Information	-10.0544
▁Oui	-10.0552
▁बाद	-10.0553
▁antes	-10.0555
ual	-10.0558
▁watch	-10.056
▁training	-10.0562
▁hasta	-10.0563
Me	-10.0565
▁Report	-10.0567
▁design	-10.0573
44	-10.0574
99	-10.0576
лись	-10.0577
▁sort	-10.0579
▁Save	-10.058
▁थी	-10.0588
▁mundo	-10.0588
▁yeah	-10.0589
▁Sir	-10.0589
бо	-10.059
▁É	-10.0596
48	-10.0598
▁Pe	-10.0599
▁solo	-10.0601
▁ईमान	-10.0602
▁rate	-10.0603
ió	-10.0603
▁story	-10.0614
ले	-10.062
ियों	-10.0623
▁direct	-10.0623
▁Sp	-10.0627
33	-10.0632
▁tonight	-10.0636
75	-10.0641
▁sch	-10.0647
▁community	-10.0659
▁~	-10.0666
ство	-10.0669
32	-10.0679
red	-10.0681
▁Ad	-10.0687
dor	-10.069
▁वाले	-10.0693
▁couple	-10.0698
He	-10.0706
▁Ri	-10.0709
से	-10.0709
▁selected	-10.0716
ère	-10.0727
▁пред	-10.0741
▁2006,	-10.0741
▁hin	-10.0744
aria	-10.0745
hal	-10.0749
▁себя	-10.0754
▁House	-10.0755
uk	-10.0756
▁Secretary	-10.0757
▁train	-10.0757
В	-10.076
Н	-10.0766
ade	-10.0774
Т	-10.0775
▁film	-10.0775
▁परवरदिगार	-10.0778
▁mercy	-10.0778
pé	-10.0789
▁Africa	-10.0795
▁na	-10.0795
▁implementation	-10.0804
▁price	-10.0811
▁मिल	-10.0817
▁article	-10.0818
▁education	-10.0821
ще	-10.0825
▁लिया	-10.0827
ंग	-10.0829
▁тем	-10.0831
OR	-10.0835
vor	-10.0844
tar	-10.0851
▁При	-10.0854
aba	-10.0856
ants	-10.0868
▁voy	-10.0872
45	-10.0875
▁towards	-10.0877
▁après	-10.0885
▁cours	-10.0886
▁soul	-10.0891
▁z	-10.0895
—	-10.0896
▁32	-10.0902
Lo	-10.0904
▁euch	-10.0904
pre	-10.0905
▁gas	-10.0906
▁droit	-10.0921
AS	-10.0921
Se	-10.0921
▁worship	-10.0923
▁उनकी	-10.0925
2015	-10.0925
▁American	-10.0927
▁हमें	-10.0929
▁media	-10.0932
▁drive	-10.0934
"?	-10.0935
ше	-10.0941
▁building	-10.0943
▁fuck	-10.0944
▁développement	-10.0948
▁Comisión	-10.0948
▁"%	-10.0952
ID	-10.0952
▁Tom	-10.0958
ел	-10.0959
pos	-10.0962
▁low	-10.0963
▁ह	-10.0966
37	-10.0969
fu	-10.0969
▁Assembly	-10.0972
▁90	-10.0985
ale	-10.0986
ef	-10.0998
▁hospital	-10.1
лен	-10.1001
▁Che	-10.1002
स्त	-10.1006
▁êtes	-10.1007
▁Lu	-10.1009
ай	-10.1012
▁Está	-10.1016
▁बड़ा	-10.1022
▁कार्य	-10.1023
▁exactly	-10.1024
dé	-10.103
▁zwei	-10.1036
лю	-10.1046
▁almost	-10.1046
▁Israel	-10.1047
▁juste	-10.1047
▁People	-10.1049
ут	-10.1055
▁adopted	-10.1059
▁त	-10.1062
▁quite	-10.1065
General	-10.1069
एँ	-10.1069
▁specific	-10.1072
cé	-10.1083
▁Bank	-10.1085
len	-10.1094
▁considered	-10.1094
▁French	-10.1096
ism	-10.11
▁Bon	-10.1102
yer	-10.1107
▁sun	-10.1111
▁mm	-10.1111
▁original	-10.1113
▁Qui	-10.1114
▁Human	-10.1121
▁running	-10.1121
▁लगता	-10.1122
ня	-10.1123
ол	-10.1123
▁estás	-10.1131
▁nature	-10.1142
our	-10.1143
ey	-10.1154
▁cosas	-10.1159
▁aller	-10.1169
▁т	-10.1172
▁sí	-10.1176
вед	-10.1176
▁Jack	-10.1176
rr	-10.1181
▁Dios	-10.1188
▁donc	-10.119
▁vu	-10.119
▁early	-10.1198
▁forward	-10.12
▁प्र	-10.1203
▁regional	-10.1204
▁Eine	-10.1205
▁Web	-10.1211
▁сейчас	-10.1221
▁class	-10.1222
▁supposed	-10.1231
▁points	-10.1231
36	-10.1234
cal	-10.1241
▁Sr	-10.1244
▁Esto	-10.1251
▁Jahre	-10.1251
illa	-10.1254
gé	-10.1254
43	-10.1258
vent	-10.126
ities	-10.1261
▁item	-10.1262
▁Ju	-10.1263
▁Sam	-10.1271
▁einfach	-10.1272
form	-10.1274
▁faith	-10.1276
cur	-10.1289
88	-10.1291
▁efforts	-10.1304
▁Post	-10.1305
▁receive	-10.1307
▁tener	-10.1311
▁(2	-10.1312
▁size	-10.1312
▁accept	-10.1314
▁2.	-10.1317
Le	-10.1324
▁condition	-10.133
▁noche	-10.1333
▁Last	-10.1337
▁2009,	-10.1341
▁several	-10.1348
▁record	-10.135
▁rep	-10.135
part	-10.1355
▁region	-10.1355
▁South	-10.1357
▁Dad	-10.136
▁rules	-10.136
▁Plan	-10.1364
del	-10.1368
▁द	-10.1369
ord	-10.1371
▁husband	-10.1373
▁fais	-10.1377
▁believers	-10.1378
▁kids	-10.1378
▁cover	-10.1387
▁mise	-10.1391
▁High	-10.1399
▁ему	-10.1399
▁Even	-10.1402
▁whose	-10.1404
▁thy	-10.1408
▁otra	-10.1411
▁forget	-10.1412
né	-10.1414
▁hatte	-10.1415
▁Give	-10.1418
▁ल	-10.1423
▁ad	-10.1424
▁Hu	-10.1426
En	-10.1426
fr	-10.1428
▁जाता	-10.143
▁Paris	-10.1436
lon	-10.1438
▁Welt	-10.1441
96	-10.1444
▁rec	-10.1444
ward	-10.1445
▁problems	-10.1447
eurs	-10.1447
▁forma	-10.1449
▁fl	-10.1451
▁China	-10.1452
▁Only	-10.1457
▁sehen	-10.1459
П	-10.1459
rat	-10.146
▁figure	-10.1462
▁desde	-10.1462
ano	-10.147
▁peuvent	-10.1476
▁sleep	-10.148
▁इ	-10.149
▁80	-10.1491
▁capital	-10.1497
▁sécurité	-10.1502
▁daß	-10.1503
▁सिर्फ	-10.1505
ओ	-10.1511
▁huh	-10.1512
▁File	-10.1525
▁pense	-10.1526
фи	-10.1526
▁मेरा	-10.153
▁eres	-10.1534
▁Ru	-10.1546
▁serious	-10.1548
▁sagen	-10.1549
information	-10.1555
▁due	-10.1555
▁opinion	-10.1557
▁month	-10.1564
hu	-10.1564
▁seconds	-10.157
▁всех	-10.1572
▁pick	-10.1576
ica	-10.1579
▁более	-10.1579
▁staff	-10.158
▁black	-10.1581
▁Other	-10.1582
▁Two	-10.1582
▁became	-10.1584
▁add	-10.1587
tel	-10.1593
▁Use	-10.1593
SE	-10.1596
▁goes	-10.16
49	-10.16
▁buy	-10.1602
▁прав	-10.161
▁Va	-10.1611
▁Programme	-10.1614
▁toute	-10.1614
▁dad	-10.1615
98	-10.1616
▁minute	-10.1621
▁cet	-10.1624
gt	-10.1625
ек	-10.1628
▁hour	-10.1628
▁dont	-10.1628
ng	-10.1633
▁inform	-10.1649
▁Does	-10.1666
▁needed	-10.167
ед	-10.1674
AC	-10.1676
▁below	-10.1678
▁लगा	-10.1682
65	-10.1683
▁हाँ	-10.17
▁request	-10.1701
▁lead	-10.1706
▁dar	-10.1707
▁этот	-10.1708
lan	-10.1714
▁había	-10.1715
▁bear	-10.1718
▁strong	-10.172
▁auto	-10.1725
wi	-10.1729
▁More	-10.1732
▁worry	-10.1737
▁cooperation	-10.1738
▁Would	-10.1738
▁shot	-10.1739
▁sense	-10.174
39	-10.1744
▁données	-10.1747
27	-10.1751
▁bas	-10.1755
▁trans	-10.1756
chi	-10.1757
-1	-10.176
▁nom	-10.177
▁sister	-10.1772
adas	-10.1778
heit	-10.1783
▁ho	-10.1785
▁Así	-10.1786
▁जिन	-10.1788
▁source	-10.179
▁energy	-10.179
ную	-10.1796
▁died	-10.1798
▁interest	-10.1805
gan	-10.181
ps	-10.181
▁German	-10.1813
▁TV	-10.1816
▁रंग	-10.1817
▁IN	-10.1819
▁Вот	-10.1823
day	-10.1826
мен	-10.1834
/11	-10.1836
थ	-10.1836
▁pi	-10.1836
▁wurden	-10.1838
34	-10.1842
▁prison	-10.1848
ute	-10.185
tan	-10.1852
▁vote	-10.1853
до	-10.1856
▁Мо	-10.1859
▁Paul	-10.1863
▁soll	-10.1864
▁mort	-10.1864
▁würde	-10.1868
[	-10.1869
▁progress	-10.187
▁acuerdo	-10.187
▁located	-10.1871
ura	-10.1871
▁longer	-10.1876
▁limit	-10.188
▁event	-10.1882
è	-10.1884
▁li	-10.1892
са	-10.1897
fall	-10.19
ис	-10.1904
▁bi	-10.1911
▁contract	-10.1914
int	-10.192
▁Jahr	-10.1926
▁perfect	-10.193
▁dieses	-10.1934
ите	-10.1934
ire	-10.1937
ship	-10.194
▁language	-10.194
ции	-10.1943
▁write	-10.1945
su	-10.1945
BAR	-10.1947
▁estado	-10.1953
▁established	-10.196
▁Court	-10.1965
ill	-10.198
▁however	-10.1981
▁gente	-10.1982
бе	-10.1987
▁году	-10.1988
▁approach	-10.1989
▁सी	-10.1993
лся	-10.1993
▁(1	-10.1994
▁б	-10.1994
cy	-10.1998
sp	-10.1999
▁major	-10.2003
▁pass	-10.2004
▁ainsi	-10.2006
bb	-10.2012
▁cases	-10.2017
▁sit	-10.2018
िल	-10.2018
▁Hand	-10.2024
▁них	-10.2041
ug	-10.2045
▁Euro	-10.2049
▁waiting	-10.2049
▁Una	-10.2055
▁mom	-10.2056
▁200	-10.2058
▁त्रुटि	-10.206
pp	-10.2063
▁1997	-10.2077
▁<	-10.2077
▁van	-10.2081
▁none	-10.2085
▁ऐ	-10.2086
▁denn	-10.2088
▁воз	-10.2089
▁chez	-10.2091
tain	-10.2091
стр	-10.2092
rn	-10.2096
76	-10.2099
це	-10.2101
▁système	-10.2103
▁cu	-10.2104
▁less	-10.2113
▁recherche	-10.2115
▁doubt	-10.2115
▁documents	-10.2115
▁Jesus	-10.2116
▁changes	-10.2116
ect	-10.2116
Д	-10.2117
▁दिखाएँ	-10.2119
85	-10.212
©	-10.2121
val	-10.2124
row	-10.2129
▁quelque	-10.213
▁Ф	-10.2135
▁Park	-10.2139
▁देख	-10.2145
king	-10.2149
▁छवि	-10.2151
▁него	-10.2153
▁cm	-10.216
ador	-10.2162
▁tanto	-10.2163
▁Sun	-10.2167
нибудь	-10.217
▁choice	-10.217
▁Kommission	-10.217
▁trouble	-10.217
▁online	-10.2171
▁etc	-10.2174
▁treatment	-10.2179
ious	-10.2181
▁host	-10.2186
▁port	-10.2186
▁क्यों	-10.2198
▁evidence	-10.2198
▁depuis	-10.2198
▁आदमी	-10.2198
▁पैदा	-10.2198
uf	-10.2198
▁много	-10.2199
uff	-10.221
emos	-10.221
uc	-10.2211
▁attention	-10.2211
सा	-10.2219
78	-10.2226
iva	-10.2228
ral	-10.2234
38	-10.2238
▁ground	-10.224
▁после	-10.225
▁afraid	-10.2254
▁maintenant	-10.2254
▁nosotros	-10.2254
▁cool	-10.2259
▁therein	-10.2264
cr	-10.2266
▁tried	-10.2267
mail	-10.2272
cing	-10.2275
▁patient	-10.2276
sk	-10.2282
▁ничего	-10.2282
Р	-10.2284
▁otro	-10.2285
▁resources	-10.2286
▁мой	-10.2287
▁demand	-10.229
▁hablar	-10.2291
▁Hell	-10.2291
▁often	-10.2293
▁nie	-10.2298
▁firm	-10.23
ये	-10.2307
▁neither	-10.231
ST	-10.231
46	-10.2313
▁protect	-10.2313
▁step	-10.2317
▁culture	-10.2319
▁viel	-10.2321
▁Surely	-10.2321
42	-10.2321
▁Herr	-10.2321
▁individual	-10.2331
kin	-10.2335
55	-10.2335
ari	-10.2336
▁verdad	-10.2339
▁Air	-10.234
:10	-10.2344
pan	-10.2346
▁fr	-10.2348
▁groups	-10.235
▁घर	-10.2357
41	-10.2361
▁search	-10.2361
rin	-10.2362
▁सा	-10.2364
ack	-10.2366
▁trois	-10.2367
▁хорошо	-10.2367
▁content	-10.2394
▁ऐसा	-10.2394
▁history	-10.2397
▁momento	-10.2402
ille	-10.2406
▁term	-10.2408
▁UN	-10.2415
Es	-10.2415
▁hearts	-10.2416
▁David	-10.2423
▁rather	-10.2423
▁Europa	-10.2424
▁Hay	-10.2429
▁33	-10.2433
ном	-10.2435
wo	-10.2439
▁export	-10.2439
▁gouvernement	-10.2443
▁effect	-10.2444
én	-10.2444
▁member	-10.2448
od	-10.2448
▁importante	-10.2455
▁Wait	-10.2459
ice	-10.2459
ction	-10.2464
▁sens	-10.2467
▁tax	-10.2472
▁map	-10.2477
▁Fall	-10.2478
▁Development	-10.248
▁..	-10.2481
▁werde	-10.2484
▁poor	-10.2487
ule	-10.249
▁personnes	-10.249
▁YOU	-10.2492
▁box	-10.2495
вы	-10.2497
▁(3)	-10.2497
ateur	-10.25
िया	-10.2505
▁думаю	-10.2508
▁floor	-10.2508
▁चाहता	-10.2508
▁correct	-10.2511
▁crime	-10.2515
ат	-10.2523
зи	-10.2524
▁complete	-10.253
LE	-10.2533
▁который	-10.2536
US	-10.2543
isch	-10.2545
▁anderen	-10.2548
▁witness	-10.2549
▁sicher	-10.255
▁direction	-10.2553
▁Moses	-10.2553
▁होता	-10.2555
▁aid	-10.2556
▁बना	-10.2559
▁ton	-10.2563
▁attend	-10.2563
sis	-10.2565
▁चुनें	-10.2566
▁note	-10.2568
▁born	-10.2571
▁Service	-10.2571
▁addition	-10.2575
ea	-10.2578
▁win	-10.2582
▁w	-10.2589
▁mission	-10.259
▁global	-10.2591
▁चल	-10.2592
▁self	-10.2592
rt	-10.2593
▁mode	-10.2593
▁santé	-10.2594
▁один	-10.2597
light	-10.2602
urs	-10.2612
000	-10.2615
▁centre	-10.2616
पर	-10.2616
▁Such	-10.2618
:45	-10.2619
▁grande	-10.262
▁можно	-10.2623
▁विंडो	-10.2623
▁forth	-10.2631
▁Com	-10.2632
sche	-10.2632
:15	-10.2634
▁double	-10.2636
▁lives	-10.264
ssen	-10.2648
▁till	-10.2649
▁Für	-10.2652
▁Sub	-10.2661
antes	-10.2661
▁याद	-10.2666
▁ए	-10.2667
▁Comp	-10.2673
mmer	-10.2675
rte	-10.2679
▁Bei	-10.268
▁married	-10.2681
▁Телефон	-10.2681
▁должен	-10.2681
▁ans	-10.2682
▁Every	-10.2683
ront	-10.2683
▁Office	-10.2684
▁arm	-10.2686
▁कम	-10.2688
▁concerning	-10.2695
ther	-10.2696
▁ro	-10.2697
ства	-10.2701
81	-10.2703
table	-10.2703
cken	-10.2712
▁ellos	-10.2713
bri	-10.2714
क़	-10.2716
▁enjoy	-10.2719
▁range	-10.2723
▁hot	-10.2728
▁1996	-10.2729
ус	-10.2729
CH	-10.273
isse	-10.2733
nis	-10.2735
▁tienes	-10.2736
▁Über	-10.2739
▁yes	-10.274
▁Board	-10.2741
3)	-10.2755
▁menos	-10.2755
▁человек	-10.2758
▁learn	-10.2762
▁transfer	-10.2763
сть	-10.2766
▁dream	-10.2769
▁clean	-10.2776
gr	-10.2781
▁avons	-10.2783
▁waren	-10.2783
▁ship	-10.2786
▁TO	-10.2788
ju	-10.2789
ierung	-10.2796
iger	-10.2798
▁damit	-10.28
rk	-10.2804
▁Ces	-10.2806
▁vos	-10.2809
▁location	-10.2811
▁Send	-10.2819
61	-10.2821
▁Chi	-10.2823
टा	-10.2827
कार	-10.2844
led	-10.2847
▁(19	-10.2847
▁36	-10.2849
▁cada	-10.285
▁(0)	-10.2851
▁सका	-10.2852
▁street	-10.2857
▁cuenta	-10.2857
▁Nr	-10.2863
hl	-10.2864
▁solution	-10.2864
▁Verily	-10.2864
▁System	-10.2868
Л	-10.2869
▁Hello	-10.2871
Te	-10.2873
ult	-10.2875
▁consult	-10.2877
hen	-10.2881
▁Estados	-10.2882
aient	-10.2882
67	-10.2886
▁jusqu	-10.2887
87	-10.2887
▁Conference	-10.2887
▁तुम्हारी	-10.289
▁Haus	-10.2891
пе	-10.2892
▁prepared	-10.2895
▁deine	-10.2895
▁impact	-10.2896
▁Mark	-10.2905
▁Gi	-10.2909
▁looks	-10.2913
▁podría	-10.2915
▁requirements	-10.2916
▁petit	-10.2916
cre	-10.2916
▁стран	-10.2916
▁appropriate	-10.2917
▁déjà	-10.2917
▁verily	-10.2918
tas	-10.2918
лов	-10.2919
▁itself	-10.2924
ye	-10.2926
▁बे	-10.2934
berg	-10.2946
▁doivent	-10.2947
▁ahí	-10.2947
▁remain	-10.2948
tique	-10.2949
▁आपको	-10.295
ito	-10.2955
▁explain	-10.296
टी	-10.2964
fen	-10.2972
▁similar	-10.2976
▁её	-10.2976
▁तथा	-10.2976
▁является	-10.2977
▁Which	-10.2977
▁नया	-10.2981
ku	-10.2982
▁enfants	-10.2988
▁ч	-10.3001
ña	-10.3002
▁ко	-10.3003
▁день	-10.3006
▁होने	-10.3008
.000	-10.3009
▁́	-10.3011
▁Kinder	-10.3012
को	-10.3018
▁mois	-10.3018
▁hair	-10.3023
जा	-10.3028
ière	-10.3036
▁count	-10.3038
lichen	-10.3038
▁toutes	-10.304
ev	-10.304
▁village	-10.3041
▁Special	-10.3041
▁ф	-10.3048
▁जाने	-10.3048
▁City	-10.3049
▁Estoy	-10.305
▁Cha	-10.305
tive	-10.3051
стан	-10.3051
▁hi	-10.3052
▁seven	-10.3054
▁перед	-10.3055
▁मैंने	-10.306
▁messages	-10.3061
mie	-10.3066
▁University	-10.3067
▁Auto	-10.3068
ц	-10.3069
▁seek	-10.3071
ность	-10.3074
ры	-10.3077
▁politique	-10.3077
лась	-10.3078
▁Fi	-10.3078
▁Social	-10.3079
▁Any	-10.3082
▁Select	-10.3083
▁lieu	-10.3084
▁Frau	-10.3085
log	-10.3085
ौ	-10.3088
▁dollars	-10.3094
▁partir	-10.3095
▁dijo	-10.3099
▁vraiment	-10.31
▁Hier	-10.3103
▁Peter	-10.3118
dis	-10.3119
arse	-10.3119
:11	-10.3127
▁trop	-10.313
uck	-10.3131
▁gusta	-10.3132
sión	-10.3132
lor	-10.3138
▁systems	-10.3141
â	-10.3142
▁persons	-10.3143
▁seit	-10.3143
▁Sha	-10.3145
nz	-10.3149
bit	-10.315
▁Ze	-10.3154
▁Tri	-10.3156
▁review	-10.3157
▁द्वारा	-10.3158
▁chaque	-10.3159
hin	-10.3159
▁Centre	-10.3162
▁70	-10.3162
▁parece	-10.3163
wer	-10.3167
▁Messenger	-10.3171
▁droits	-10.3173
▁weeks	-10.3174
▁bus	-10.3178
ong	-10.3178
кой	-10.3183
пер	-10.3185
▁Fri	-10.3192
▁ला	-10.3193
▁guard	-10.3204
:12	-10.3206
▁pan	-10.3208
▁prayer	-10.3215
▁informe	-10.3216
▁उसका	-10.3221
▁Teil	-10.3222
▁thanks	-10.3224
▁Annex	-10.3224
▁छोड़	-10.3224
▁button	-10.3224
▁app	-10.3226
▁fuera	-10.3228
▁East	-10.3233
af	-10.324
bas	-10.3248
▁Alors	-10.3253
▁alive	-10.3253
bau	-10.3258
vin	-10.3267
▁rule	-10.327
▁personnel	-10.3272
▁suit	-10.3274
▁increased	-10.3278
>	-10.328
▁files	-10.328
▁Europäische	-10.3281
▁Saturday	-10.3281
▁siempre	-10.3281
▁premier	-10.3281
SC	-10.3281
▁Sal	-10.3282
por	-10.3287
▁prendre	-10.3289
ges	-10.3294
▁environment	-10.3294
▁star	-10.3295
▁gehen	-10.3296
▁pen	-10.3297
▁difficult	-10.3298
▁1995	-10.33
▁пре	-10.33
ans	-10.3306
arme	-10.3306
-2	-10.3308
▁Preis	-10.331
▁fair	-10.3311
▁वापस	-10.3312
кс	-10.3316
▁tres	-10.3326
▁Unter	-10.334
ray	-10.3342
▁famille	-10.3343
▁señor	-10.3345
77	-10.3347
▁white	-10.3348
▁computer	-10.3349
».	-10.335
▁Thanks	-10.3351
▁До	-10.3352
▁Ok	-10.3353
▁reach	-10.3355
rez	-10.3356
▁actual	-10.3356
▁Este	-10.3357
▁Х	-10.3363
▁press	-10.3373
▁George	-10.3374
▁raison	-10.3375
▁camp	-10.3375
Do	-10.3376
▁तुम्हारा	-10.3377
▁App	-10.338
▁gegen	-10.3382
trag	-10.3385
▁उसी	-10.3385
▁assistance	-10.3387
▁decided	-10.3391
▁Call	-10.3404
▁beaucoup	-10.3405
▁première	-10.3405
▁alguien	-10.3405
▁2005,	-10.3406
▁exist	-10.3409
▁Inter	-10.3414
▁extra	-10.3414
▁www	-10.3414
2009	-10.3414
▁जाना	-10.3416
▁coup	-10.3417
ME	-10.3418
tern	-10.3425
▁card	-10.3427
han	-10.3434
▁dois	-10.3434
ê	-10.3435
▁seems	-10.3438
▁Nicht	-10.3439
▁debate	-10.344
uel	-10.3441
▁Fe	-10.3445
▁उ	-10.3446
▁sollte	-10.3446
ow	-10.3447
▁Ahora	-10.3447
▁Tre	-10.3448
▁12.	-10.3449
▁tenía	-10.3452
47	-10.3455
▁stage	-10.3457
stand	-10.3465
▁crazy	-10.3468
▁music	-10.3473
▁according	-10.348
▁haber	-10.3488
▁personne	-10.3489
ताकि	-10.3489
▁paper	-10.3491
मान	-10.3491
▁CD	-10.3492
eu	-10.3492
▁Page	-10.3496
▁général	-10.3498
▁Michael	-10.35
▁Pourquoi	-10.35
▁después	-10.35
cc	-10.3503
▁सर्वर	-10.3507
:20	-10.3509
ности	-10.3514
▁bank	-10.3515
▁greater	-10.3525
▁believed	-10.3529
▁radio	-10.3529
▁बंद	-10.3532
95	-10.3533
ress	-10.3536
▁gr	-10.3536
So	-10.3536
िन	-10.354
▁track	-10.3554
▁cell	-10.3556
off	-10.3559
▁min	-10.3563
▁Global	-10.3563
▁48	-10.3565
▁ख	-10.3566
ham	-10.357
лу	-10.3573
▁Dé	-10.3576
▁Dur	-10.3577
▁cómo	-10.358
ables	-10.3583
▁2010,	-10.3584
▁मार	-10.3586
97	-10.3588
wei	-10.3591
▁Central	-10.3595
▁straight	-10.3595
▁various	-10.3595
▁nunca	-10.3596
▁eye	-10.3597
▁Kon	-10.3597
▁मिला	-10.3598
▁Put	-10.3601
▁यही	-10.3601
▁Со	-10.3601
Ma	-10.3605
गा	-10.3605
▁пока	-10.3605
ными	-10.3612
▁creo	-10.3613
ili	-10.3616
сп	-10.362
▁mo	-10.3623
ठ	-10.3625
▁Health	-10.3627
▁cap	-10.3636
▁Про	-10.3637
▁plant	-10.3646
ран	-10.3651
lar	-10.3653
▁personas	-10.3653
old	-10.3655
▁crois	-10.3657
▁relationship	-10.3659
ama	-10.3661
▁Check	-10.3662
68	-10.3665
▁terms	-10.3666
▁credit	-10.367
▁concerned	-10.368
▁travel	-10.3686
▁round	-10.3691
ara	-10.3696
AM	-10.3696
ario	-10.3702
▁costs	-10.3703
tage	-10.371
79	-10.3712
And	-10.3714
▁active	-10.3714
▁judge	-10.3717
▁heaven	-10.3718
▁Т	-10.3721
ieurs	-10.3722
▁wissen	-10.3723
▁9.	-10.3726
▁torment	-10.3726
▁industry	-10.3727
▁import	-10.3727
▁européenne	-10.3727
▁От	-10.3728
AT	-10.3729
▁West	-10.3733
э	-10.3734
▁heute	-10.3738
:05	-10.3751
sur	-10.3752
▁कृपया	-10.3756
▁terrible	-10.3756
▁бо	-10.3765
▁mail	-10.3769
▁entire	-10.378
cia	-10.3785
▁Ли	-10.3787
▁ju	-10.3787
▁guidance	-10.3788
▁devrait	-10.3789
▁(3	-10.3793
▁300	-10.3795
ident	-10.3796
▁gar	-10.3796
ком	-10.3799
▁millions	-10.3801
ration	-10.3802
ंड	-10.3806
4)	-10.3806
▁tour	-10.3809
–	-10.3809
▁adopt	-10.3809
▁modern	-10.381
▁Gott	-10.3811
▁Juli	-10.3812
▁किए	-10.3814
dem	-10.3816
mé	-10.382
▁forgive	-10.382
▁dinero	-10.3821
▁balance	-10.3821
▁todas	-10.3822
▁сказать	-10.3823
▁Tiene	-10.3825
nu	-10.3829
▁500	-10.3829
▁Stop	-10.3835
DE	-10.385
▁communication	-10.3851
▁37	-10.3853
▁responsible	-10.3853
▁anymore	-10.3855
▁safety	-10.3855
пл	-10.3856
84	-10.3862
ñ	-10.3873
gie	-10.3877
▁civil	-10.3878
hui	-10.3879
▁user	-10.388
▁expect	-10.3881
▁मा	-10.3882
ified	-10.3889
▁neue	-10.389
▁familia	-10.3891
▁material	-10.3891
73	-10.3893
▁человека	-10.3898
▁standard	-10.3898
83	-10.3904
▁bitte	-10.3905
die	-10.3907
▁cast	-10.3908
▁вид	-10.3912
▁included	-10.3914
▁task	-10.3919
▁Stadt	-10.3919
▁Sorry	-10.3921
pri	-10.3923
▁Listen	-10.3923
nal	-10.3926
halten	-10.3926
▁Christ	-10.3929
ology	-10.3932
▁ж	-10.3935
▁attack	-10.3935
▁focus	-10.3936
▁cre	-10.3938
▁será	-10.3941
▁sex	-10.3943
▁serve	-10.3944
▁additional	-10.3947
▁gun	-10.3948
▁log	-10.3949
▁Ка	-10.395
▁nuestra	-10.3951
▁manifest	-10.3952
▁punto	-10.3952
▁गई	-10.3953
▁savoir	-10.3957
▁sh	-10.3962
▁fu	-10.3964
▁1994	-10.3971
accord	-10.3972
▁ना	-10.3975
▁बार	-10.3975
▁nichts	-10.3975
This	-10.3976
иться	-10.3982
▁façon	-10.3985
▁हुई	-10.3985
▁begin	-10.3986
▁apartment	-10.3988
▁takes	-10.3988
cor	-10.399
▁connection	-10.399
▁Cu	-10.399
ji	-10.3995
▁ohne	-10.3997
се	-10.4
▁principal	-10.4001
▁hate	-10.4002
ша	-10.4003
▁miss	-10.4006
EG	-10.4008
▁buena	-10.4008
What	-10.4008
▁Mom	-10.4018
▁success	-10.4018
▁positive	-10.4019
▁activités	-10.4019
▁#2	-10.4026
▁ciudad	-10.4028
gún	-10.4031
▁raised	-10.4033
▁institutions	-10.4033
Ð	-10.4042
▁déc	-10.405
▁necesita	-10.405
▁даже	-10.4053
▁involved	-10.4059
▁club	-10.4062
:31	-10.4067
▁Gar	-10.4074
index	-10.4075
met	-10.4083
pr	-10.4087
ista	-10.4088
▁fully	-10.409
▁multi	-10.4092
आ	-10.4094
дер	-10.4095
▁Leben	-10.4097
vé	-10.41
LA	-10.4105
из	-10.4106
ос	-10.4109
▁femmes	-10.4111
▁righteous	-10.4118
▁capacity	-10.4119
▁अभी	-10.4119
▁plans	-10.412
▁Ti	-10.4124
app	-10.4125
▁operation	-10.4129
▁welcome	-10.4132
lle	-10.4132
ее	-10.4133
▁bueno	-10.4134
▁profit	-10.4135
▁developed	-10.4135
▁अधिक	-10.4136
▁target	-10.4136
▁Russian	-10.4137
▁55	-10.4145
53	-10.415
▁лучше	-10.4153
▁kein	-10.4153
▁authority	-10.4153
▁información	-10.4154
▁girls	-10.4158
är	-10.4158
▁Menschen	-10.4159
av	-10.416
про	-10.416
don	-10.4161
lement	-10.4164
ekt	-10.4167
▁emp	-10.417
▁rich	-10.4171
▁accord	-10.4176
set	-10.4177
▁Ob	-10.4178
बा	-10.4181
▁Management	-10.4186
▁commercial	-10.4186
ico	-10.4186
▁Monday	-10.4187
▁mieux	-10.419
▁growth	-10.419
▁nuestro	-10.4191
▁hath	-10.4191
▁respond	-10.4193
▁justice	-10.4194
▁wipe	-10.4195
▁fix	-10.4199
▁statement	-10.4199
▁reform	-10.4201
rme	-10.4202
▁Entonces	-10.4203
ett	-10.4208
▁god	-10.4209
▁38	-10.4213
▁Dann	-10.4215
ging	-10.4217
▁join	-10.4218
OS	-10.4218
▁projects	-10.422
burg	-10.422
▁Tout	-10.4222
▁тоже	-10.4222
▁criminal	-10.4223
▁Est	-10.4223
▁font	-10.4226
▁function	-10.423
▁zwischen	-10.423
▁vamos	-10.423
ás	-10.4232
▁seem	-10.4234
▁días	-10.4234
pen	-10.4235
▁11.	-10.4239
uv	-10.4239
▁Har	-10.424
▁rain	-10.4243
▁Vamos	-10.4244
▁надо	-10.4244
schaft	-10.4254
▁Consejo	-10.4254
▁violence	-10.4254
▁response	-10.4254
▁agenda	-10.4255
▁performance	-10.4255
▁prevent	-10.4255
▁pa	-10.4257
▁generated	-10.4258
▁mesures	-10.4261
▁fonction	-10.4261
/2016	-10.4262
▁Code	-10.427
▁kommen	-10.4276
oso	-10.4277
:40	-10.4278
сь	-10.428
66	-10.4285
▁ещё	-10.4288
▁сделать	-10.4288
▁Location	-10.4289
▁जानता	-10.429
▁benefit	-10.4296
▁femme	-10.4296
▁alors	-10.4297
ир	-10.4298
▁study	-10.43
▁Ist	-10.4302
▁10.	-10.4305
▁tri	-10.4307
ний	-10.4319
▁Bas	-10.4319
Be	-10.4321
▁matière	-10.4323
▁д	-10.4323
▁wäre	-10.4324
lia	-10.4327
▁agreement	-10.4334
▁з	-10.4335
▁Jan	-10.4336
▁дела	-10.4343
▁Form	-10.4345
▁accident	-10.4346
ста	-10.4347
▁RE	-10.4351
▁changed	-10.4353
▁Наций	-10.4357
▁Sólo	-10.4357
▁pendant	-10.4357
▁उपयोग	-10.4357
▁между	-10.4357
▁Berlin	-10.4358
▁reference	-10.4358
ç	-10.4359
▁Out	-10.436
▁parler	-10.436
▁telling	-10.4361
▁creation	-10.4361
▁Tengo	-10.4366
▁caso	-10.4366
▁möchte	-10.4367
▁tal	-10.4368
tos	-10.437
▁présent	-10.4374
▁Dar	-10.4387
ales	-10.4387
्ल	-10.4389
ств	-10.4389
▁debería	-10.4391
▁choose	-10.4391
:21	-10.4391
ör	-10.4395
▁Sta	-10.4396
low	-10.4396
▁vue	-10.4396
▁construction	-10.4397
not	-10.4398
▁finden	-10.4399
82	-10.44
▁निश्च	-10.44
▁34	-10.4401
▁этим	-10.4402
▁Red	-10.4409
▁Bi	-10.4413
aron	-10.4415
haus	-10.4417
▁Rights	-10.4418
▁кон	-10.4424
▁written	-10.4426
▁reports	-10.4426
▁status	-10.4427
▁drop	-10.4436
/4	-10.4438
72	-10.4438
▁web	-10.4443
▁Since	-10.4444
▁ट	-10.4449
▁playing	-10.4457
▁pueden	-10.446
▁बेशक	-10.4461
:07	-10.4463
press	-10.4466
:17	-10.4466
▁eines	-10.4472
▁Q	-10.4473
pli	-10.4474
▁Mai	-10.4475
स्ट	-10.449
93	-10.4493
▁stupid	-10.4495
▁знаешь	-10.4496
▁submitted	-10.4496
▁эти	-10.45
▁fish	-10.4502
52	-10.4505
▁Ve	-10.4515
6)	-10.4515
▁bonne	-10.4516
▁murder	-10.4518
▁favour	-10.4529
▁blind	-10.453
▁Объединенны	-10.4532
bin	-10.4539
3.	-10.4539
▁च	-10.4539
-3	-10.454
It	-10.4543
पी	-10.4549
▁año	-10.4556
▁Sat	-10.4561
▁effective	-10.4565
▁relevant	-10.4566
▁никогда	-10.4566
▁equipment	-10.4566
▁против	-10.4567
▁उनसे	-10.4567
▁Pr	-10.4573
▁speed	-10.4574
▁sabe	-10.4575
тор	-10.4579
ंट	-10.4579
▁décision	-10.458
63	-10.4583
AD	-10.4585
▁तुमने	-10.4591
▁ihnen	-10.4594
▁honor	-10.4596
▁Jahren	-10.4596
work	-10.4596
ok	-10.4598
▁vend	-10.4599
▁теперь	-10.4601
▁Komm	-10.4603
inter	-10.4606
▁trip	-10.4606
▁maison	-10.4608
▁Ku	-10.461
▁provisions	-10.461
▁across	-10.4613
ез	-10.4619
▁structure	-10.4621
lf	-10.4623
▁sabes	-10.4631
▁selbst	-10.4636
▁website	-10.4636
▁wirklich	-10.4636
▁दूर	-10.4636
▁Организации	-10.4637
▁board	-10.4638
ца	-10.4638
71	-10.4638
▁потому	-10.4639
▁इसके	-10.464
ель	-10.4642
▁ch	-10.4645
▁deny	-10.4648
▁ain	-10.466
▁List	-10.4661
▁dog	-10.4666
▁नीचे	-10.4672
▁Free	-10.4673
▁boys	-10.4675
▁Mira	-10.468
war	-10.4682
▁durante	-10.4684
▁всего	-10.4684
▁network	-10.4689
▁expected	-10.4689
TA	-10.4707
▁central	-10.4711
▁dejar	-10.4712
ima	-10.4713
▁India	-10.4714
▁Эй	-10.4715
91	-10.4716
▁affect	-10.4719
▁offers	-10.472
illo	-10.4725
▁डाल	-10.4729
▁sick	-10.4731
▁concept	-10.4737
क्ष	-10.4739
▁Mary	-10.474
▁Col	-10.4741
▁encontrar	-10.4743
▁property	-10.4743
▁Cuando	-10.4744
▁participation	-10.4744
▁secteur	-10.4745
▁tant	-10.4751
▁Zimmer	-10.4751
▁destroyed	-10.4757
▁Dec	-10.4765
Al	-10.4768
El	-10.4769
ина	-10.477
दार	-10.4772
▁Mac	-10.4775
:23	-10.4776
0,000	-10.4777
▁nouveau	-10.4777
▁loi	-10.4778
▁sûr	-10.4778
▁Когда	-10.4779
▁calendar	-10.4779
▁carried	-10.4779
▁तू	-10.4783
▁rein	-10.4784
nen	-10.4784
▁compris	-10.4785
▁related	-10.4788
▁formation	-10.4794
▁option	-10.4797
अ	-10.4798
▁worked	-10.4803
▁sol	-10.4803
▁Ven	-10.4803
mark	-10.4804
▁equal	-10.4805
86	-10.4812
▁Hotels	-10.4812
▁groupe	-10.4814
▁год	-10.4814
▁society	-10.4815
lang	-10.4815
▁somebody	-10.4815
▁своей	-10.4816
▁model	-10.4818
▁З	-10.482
▁revealed	-10.482
रे	-10.4823
▁·	-10.4823
▁ran	-10.4824
▁III	-10.4826
▁लो	-10.4826
pel	-10.483
▁macht	-10.483
▁allowed	-10.483
69	-10.4833
62	-10.4833
▁Set	-10.4835
▁weiter	-10.4842
▁mayor	-10.4846
î	-10.4848
▁Sur	-10.4849
vert	-10.4849
▁तरफ	-10.485
▁zusammen	-10.4851
▁technical	-10.4851
▁voice	-10.4851
▁प्रयोग	-10.4851
▁Keep	-10.4851
▁asking	-10.4851
▁route	-10.4852
▁paid	-10.4852
:19	-10.4852
▁Economic	-10.4854
ose	-10.4857
▁restaurant	-10.4859
▁marché	-10.4859
▁मर	-10.4861
:24	-10.4867
▁план	-10.4867
्त	-10.4868
▁decide	-10.4868
▁photo	-10.4871
▁picture	-10.4873
▁Table	-10.4874
▁King	-10.4875
▁feet	-10.4878
ुल	-10.4879
▁cross	-10.4882
और	-10.4883
▁Max	-10.4885
▁свою	-10.4887
▁avoid	-10.4887
▁siento	-10.4887
▁дня	-10.4887
▁Friday	-10.4887
▁Sunday	-10.4887
▁тех	-10.489
▁niveau	-10.4892
▁हमारी	-10.4892
▁होंगे	-10.4893
iente	-10.4893
со	-10.4902
▁problème	-10.491
ieron	-10.4914
▁буду	-10.4919
▁religion	-10.4923
▁gestion	-10.4923
▁disc	-10.4924
▁glad	-10.4925
san	-10.4926
Ha	-10.4927
▁cela	-10.4929
▁उनको	-10.4933
zi	-10.4935
али	-10.4935
▁format	-10.4936
▁Rat	-10.4938
▁particularly	-10.4941
▁mag	-10.4946
▁padre	-10.495
action	-10.4955
:28	-10.4957
ô	-10.496
▁foreign	-10.496
▁खेल	-10.496
▁Great	-10.4961
▁saved	-10.4968
59	-10.4971
fin	-10.4972
:22	-10.4973
▁diesen	-10.4977
eux	-10.4977
54	-10.4977
▁proposed	-10.4984
▁apply	-10.4984
”.	-10.4987
▁importance	-10.4987
▁belongs	-10.4989
▁ка	-10.499
▁produits	-10.4992
▁letter	-10.4992
▁Thursday	-10.4996
▁ऊपर	-10.4996
▁crisis	-10.4997
▁जानते	-10.4998
нов	-10.4998
▁Comme	-10.4999
▁especially	-10.5002
amp	-10.5002
▁Bau	-10.5006
aires	-10.501
2008	-10.5016
▁Bra	-10.5024
än	-10.5026
▁technology	-10.5033
▁Nothing	-10.5034
▁Decision	-10.5034
/10	-10.5035
ivo	-10.5035
्म	-10.5035
▁allow	-10.5036
rio	-10.5038
▁returned	-10.5039
▁patients	-10.5042
▁Fund	-10.5043
:16	-10.5043
▁Move	-10.5048
▁समझ	-10.5053
▁deep	-10.5054
▁select	-10.5057
▁cl	-10.507
▁тобой	-10.507
▁कौन	-10.507
▁beginning	-10.507
igkeit	-10.5072
▁investment	-10.5074
▁bat	-10.5074
▁conflict	-10.5075
мо	-10.5075
▁otros	-10.5081
▁oil	-10.5081
▁sta	-10.5081
▁afin	-10.5083
▁बा	-10.5086
ский	-10.5089
▁Public	-10.5091
:49	-10.5093
вал	-10.5095
▁lose	-10.5096
but	-10.5096
▁Over	-10.5097
▁reste	-10.5097
ё	-10.5101
Б	-10.5105
mann	-10.5105
ости	-10.5105
▁London	-10.5107
▁उससे	-10.5108
▁ri	-10.5109
you	-10.5109
elles	-10.511
क्	-10.5116
74	-10.512
▁aim	-10.5121
UR	-10.5126
▁rent	-10.513
▁सर	-10.5132
▁grow	-10.5137
:01	-10.5141
ché	-10.5141
▁gesagt	-10.5144
▁bu	-10.5145
▁कैसे	-10.5147
▁North	-10.5147
▁waste	-10.5149
autre	-10.515
▁quiere	-10.5153
▁wind	-10.5157
▁Arbeit	-10.5162
▁pris	-10.5175
ды	-10.5176
▁events	-10.5177
Г	-10.518
▁gives	-10.5181
▁पाठ	-10.5182
▁worth	-10.5185
TER	-10.5186
▁leaving	-10.5188
▁Ki	-10.5195
ात	-10.5201
▁Eh	-10.5205
▁fa	-10.5205
:14	-10.5207
▁चलो	-10.5209
▁Hab	-10.5213
▁AND	-10.5215
http	-10.5218
7)	-10.5218
▁Directive	-10.5219
▁venir	-10.5219
вин	-10.5223
▁Кто	-10.5228
yo	-10.523
▁niños	-10.5231
▁directly	-10.5232
ща	-10.5232
cas	-10.5233
:04	-10.5235
▁angels	-10.5239
▁plain	-10.5241
▁Wi	-10.5241
▁женщин	-10.5243
56	-10.5244
▁Ser	-10.5254
▁cualquier	-10.5257
▁tienen	-10.5257
▁जाएँ	-10.5257
▁military	-10.526
▁reported	-10.5263
▁pourrait	-10.5263
Ch	-10.5267
▁weight	-10.5276
▁former	-10.5285
▁rock	-10.5288
▁Thus	-10.529
:44	-10.5291
▁followed	-10.5293
▁людей	-10.5294
▁Merciful	-10.5295
▁будут	-10.5297
▁सही	-10.5297
पा	-10.53
▁lies	-10.5301
IP	-10.5301
▁Ent	-10.5306
▁hätte	-10.5307
▁combat	-10.5308
▁passe	-10.5311
▁mujer	-10.5316
94	-10.5317
▁42	-10.5317
▁News	-10.5327
ped	-10.5331
▁object	-10.5331
▁किताब	-10.5332
▁tenemos	-10.5333
:26	-10.5333
ाल	-10.5335
64	-10.5337
/04	-10.5342
rc	-10.5347
:08	-10.5352
▁cold	-10.5353
▁folgende	-10.5354
▁wollte	-10.5355
teil	-10.5357
▁donde	-10.5358
recht	-10.5363
tura	-10.5365
nde	-10.5367
▁fo	-10.5368
gl	-10.5369
▁artículo	-10.537
▁pourquoi	-10.537
▁ба	-10.537
8)	-10.5371
▁Project	-10.5371
▁вот	-10.5372
lis	-10.5374
dia	-10.5375
:59	-10.5376
dr	-10.5376
:32	-10.5376
▁mot	-10.5379
▁ganz	-10.5383
▁seul	-10.5384
57	-10.5387
▁actions	-10.5388
▁Cre	-10.5391
wä	-10.5399
argent	-10.5399
pon	-10.54
▁practice	-10.5406
▁Law	-10.5407
▁всегда	-10.5408
▁spread	-10.5409
его	-10.5409
▁Sep	-10.541
board	-10.5411
St	-10.5411
cio	-10.5413
aide	-10.5414
▁pain	-10.5418
TE	-10.542
ov	-10.5428
▁client	-10.5429
rd	-10.543
▁unique	-10.5432
▁harm	-10.5434
▁Grund	-10.5435
ny	-10.5436
सबसे	-10.5437
ford	-10.5439
▁जान	-10.5447
▁kept	-10.5447
▁Может	-10.5447
▁photos	-10.5447
CO	-10.5449
▁1990	-10.5452
ес	-10.5454
оль	-10.5454
▁Frank	-10.5455
▁cadre	-10.5458
▁39	-10.546
gg	-10.5461
▁mark	-10.5462
▁agree	-10.5462
▁lady	-10.5463
▁medio	-10.5464
5)	-10.5465
▁Work	-10.5472
rich	-10.5475
▁pal	-10.5477
वी	-10.5485
▁companies	-10.5485
▁कहते	-10.5487
▁41	-10.5487
▁proposal	-10.5489
▁ven	-10.5492
:29	-10.5493
▁failed	-10.5497
ова	-10.5499
▁paragraphe	-10.5501
UE	-10.5501
▁43	-10.5503
sel	-10.5504
▁piece	-10.5506
▁रात	-10.5508
▁डर	-10.551
▁stock	-10.5511
▁signal	-10.5515
▁То	-10.5517
nel	-10.5517
▁ville	-10.5521
sicht	-10.5525
▁fell	-10.5525
▁sujet	-10.5526
▁manera	-10.5534
▁Ð	-10.5535
:50	-10.5536
▁lassen	-10.5549
58	-10.5554
ска	-10.5557
serv	-10.5558
▁Make	-10.5558
▁seat	-10.5562
▁Donnerstag	-10.5563
▁ऐसे	-10.5563
sha	-10.5565
▁bag	-10.5569
▁professional	-10.557
▁taste	-10.5574
cker	-10.5579
rus	-10.5583
ись	-10.5585
▁internationale	-10.5587
TS	-10.5588
▁Has	-10.5589
дел	-10.5591
ской	-10.5593
▁मान	-10.5597
▁follows	-10.5599
▁science	-10.56
▁сегодня	-10.5602
▁Président	-10.5602
▁contrôle	-10.5602
▁responsibility	-10.5602
▁astray	-10.5602
▁authorities	-10.5602
▁purpose	-10.5604
▁suite	-10.5605
auf	-10.5608
▁problema	-10.561
▁могут	-10.5616
▁thus	-10.5619
▁Alle	-10.5626
▁puedes	-10.563
▁plane	-10.5633
▁View	-10.5636
▁domaine	-10.5637
▁générale	-10.5637
▁хочешь	-10.5641
▁Tuesday	-10.5641
▁moving	-10.5641
▁Freitag	-10.5641
▁exchange	-10.5641
▁types	-10.5641
▁rat	-10.5642
▁fest	-10.5651
▁Asia	-10.5652
▁center	-10.5655
▁Е	-10.5656
▁Vo	-10.5659
▁Dieu	-10.5664
вали	-10.5665
sie	-10.5669
ques	-10.5675
щи	-10.5677
▁आकार	-10.5682
▁règlement	-10.5682
हा	-10.5688
ará	-10.5688
▁processus	-10.5688
▁Von	-10.569
nny	-10.5691
щ	-10.5692
▁wonder	-10.57
satz	-10.5701
▁mention	-10.571
teur	-10.5711
▁ahead	-10.5712
ान	-10.5718
▁conduct	-10.5719
▁potential	-10.5719
▁vrai	-10.5719
▁ayuda	-10.572
▁जाए	-10.572
▁Nord	-10.5722
nder	-10.5724
ск	-10.5725
▁partners	-10.5726
▁trial	-10.5726
▁Martin	-10.5733
▁throw	-10.5734
gal	-10.5737
▁père	-10.5737
:18	-10.5742
▁added	-10.5744
▁©	-10.575
▁lack	-10.5751
▁refer	-10.5756
▁dinner	-10.5759
▁everybody	-10.5759
▁अपना	-10.576
:56	-10.5763
▁Ella	-10.5765
▁@	-10.5767
тов	-10.577
▁completely	-10.577
▁Об	-10.5775
ches	-10.5779
▁belong	-10.5779
▁Working	-10.5781
ओं	-10.5782
IR	-10.5783
89	-10.579
▁Wednesday	-10.5798
▁tr	-10.58
▁мной	-10.5801
▁Sol	-10.5801
▁Click	-10.5801
▁contribution	-10.5805
mic	-10.5807
▁provides	-10.5808
▁Total	-10.5808
=1	-10.5811
▁अज़ाब	-10.5817
nnen	-10.5819
ишь	-10.5826
vol	-10.5827
:03	-10.5829
▁Como	-10.583
IL	-10.5837
▁character	-10.5838
▁économique	-10.5838
▁referred	-10.5839
list	-10.5839
lly	-10.5845
▁आपके	-10.5846
बी	-10.5847
▁valid	-10.5848
▁Él	-10.585
▁Back	-10.5851
▁Gra	-10.5853
eg	-10.5854
▁gens	-10.5855
▁disbelieve	-10.5857
aste	-10.5858
▁drei	-10.5859
▁де	-10.586
▁shown	-10.5864
▁divers	-10.5864
Fi	-10.5865
My	-10.5866
:36	-10.5867
▁Very	-10.587
▁Mag	-10.5871
:25	-10.5872
ali	-10.5872
book	-10.5874
ake	-10.5877
▁सारे	-10.5879
iens	-10.5879
▁Men	-10.5882
▁sky	-10.5883
▁items	-10.5889
▁USA	-10.5891
ON	-10.5892
▁те	-10.5895
▁Creo	-10.5895
▁higher	-10.5902
pass	-10.5902
▁Best	-10.5903
▁51	-10.5912
tie	-10.5915
▁हूं	-10.5919
▁Captain	-10.5919
▁produce	-10.5921
▁Ort	-10.5923
▁llama	-10.5925
एं	-10.5926
▁Prophet	-10.5928
▁organizations	-10.5928
EL	-10.5929
▁такой	-10.5934
бер	-10.5937
▁$1	-10.5937
ив	-10.5938
fo	-10.5938
▁eight	-10.5942
्या	-10.5945
ning	-10.5945
zz	-10.5945
▁shows	-10.5953
:02	-10.5958
▁Informationen	-10.5959
ик	-10.5959
▁pressure	-10.5961
pu	-10.5964
ость	-10.5967
ologie	-10.5969
▁Kar	-10.597
link	-10.5974
▁Ste	-10.5974
▁evening	-10.5975
cause	-10.5979
▁developing	-10.598
▁prove	-10.598
▁könnte	-10.5982
▁rooms	-10.5983
rum	-10.5985
vie	-10.5989
▁Gen	-10.5991
▁ней	-10.5996
ъ	-10.5999
▁coffee	-10.5999
▁cat	-10.6
eb	-10.6001
▁Warum	-10.6002
▁46	-10.6004
▁ones	-10.6005
▁anyway	-10.6006
▁Text	-10.6009
▁стар	-10.6011
iza	-10.6013
▁Adam	-10.6015
▁duty	-10.6018
▁separate	-10.6021
▁views	-10.6021
ville	-10.6022
▁Windows	-10.6023
▁flow	-10.6026
▁CO	-10.6027
▁Ten	-10.6033
▁operations	-10.6036
cle	-10.6038
har	-10.6039
▁должно	-10.604
▁Department	-10.604
▁области	-10.604
mission	-10.604
▁department	-10.604
▁felt	-10.6041
Quién	-10.6044
▁ма	-10.6044
▁About	-10.6046
▁52	-10.6046
ls	-10.6052
icht	-10.6052
▁hijo	-10.6054
▁procedure	-10.6055
▁reached	-10.6061
▁implement	-10.6062
▁spend	-10.6064
▁वो	-10.6065
:48	-10.6069
over	-10.6069
▁measure	-10.6071
чит	-10.6071
▁Bal	-10.6073
▁Mike	-10.6074
name	-10.6075
▁link	-10.6076
vel	-10.6076
▁mg	-10.6081
▁unbelievers	-10.6081
▁закон	-10.6083
▁44	-10.6085
▁sight	-10.6086
ole	-10.6088
▁ange	-10.609
▁movie	-10.6092
:57	-10.6094
ид	-10.6099
:06	-10.6105
ью	-10.6106
ила	-10.6111
wing	-10.6113
▁chi	-10.6113
▁artist	-10.6114
iff	-10.6118
▁sistema	-10.6122
▁built	-10.6122
▁framework	-10.6122
▁मदद	-10.6122
▁dear	-10.6122
▁mistake	-10.6122
▁दोनों	-10.6128
tour	-10.6128
▁Jun	-10.6128
▁तुमसे	-10.6128
system	-10.6129
▁DO	-10.6133
▁Party	-10.6134
▁machine	-10.6135
▁países	-10.6137
▁servants	-10.6138
▁parce	-10.6138
▁vis	-10.6145
▁मत	-10.6146
gy	-10.6147
▁destroy	-10.6147
▁Fr	-10.615
▁grant	-10.6151
▁levels	-10.6151
▁info	-10.6151
▁race	-10.6155
▁match	-10.6159
▁regular	-10.616
1.	-10.6162
:51	-10.6164
▁OJ	-10.6164
hether	-10.6164
▁Th	-10.6164
▁Black	-10.6164
quer	-10.6164
▁années	-10.6167
▁ज़मीन	-10.6167
▁agua	-10.6175
▁bomb	-10.6176
▁आग	-10.6178
चा	-10.6183
ase	-10.6187
bie	-10.6191
▁jours	-10.6192
▁Pen	-10.6194
▁feeling	-10.6203
▁mañana	-10.6204
▁через	-10.6204
▁entonces	-10.6204
ится	-10.6206
▁इसमें	-10.6206
▁тут	-10.6206
дет	-10.6206
▁Дж	-10.6207
sehen	-10.6207
▁nuclear	-10.621
▁Den	-10.621
▁secure	-10.6211
with	-10.6217
▁rates	-10.622
▁Pat	-10.6225
स्	-10.6226
:13	-10.6226
▁students	-10.6227
ular	-10.6228
▁estamos	-10.6229
▁Find	-10.623
▁covered	-10.623
▁dark	-10.6233
tions	-10.6234
ati	-10.6235
▁делать	-10.6235
▁tree	-10.6241
ban	-10.6242
ever	-10.6245
▁हमेशा	-10.6246
▁instead	-10.6246
▁average	-10.6246
▁opportunity	-10.6246
rant	-10.6246
▁dernier	-10.6246
▁работы	-10.6247
▁contain	-10.6249
▁improve	-10.6255
II	-10.6256
▁beat	-10.6257
:53	-10.6257
▁Leute	-10.6259
og	-10.626
жу	-10.626
▁देखो	-10.6263
▁catch	-10.6263
ense	-10.6266
ров	-10.6267
डी	-10.6271
त्र	-10.6276
▁ним	-10.6278
Con	-10.6284
▁wollen	-10.6288
▁allí	-10.6289
▁65	-10.6289
▁Price	-10.6289
shi	-10.6292
kommen	-10.6292
▁giving	-10.6295
bla	-10.6297
▁pasa	-10.6297
▁notice	-10.6299
ете	-10.63
51	-10.63
▁shoot	-10.6307
cla	-10.6309
▁(4	-10.6313
:37	-10.6317
:09	-10.632
▁king	-10.6323
▁ring	-10.6323
▁करेंगे	-10.6324
ья	-10.6324
▁serait	-10.6326
read	-10.6329
▁swear	-10.6329
▁Robert	-10.6329
▁Quiero	-10.633
12.	-10.633
▁concernant	-10.6332
9)	-10.6333
lock	-10.6334
ify	-10.6336
asse	-10.6339
▁poder	-10.6343
▁Soy	-10.6345
▁सि	-10.6348
▁jo	-10.6349
▁sagte	-10.6351
:39	-10.6354
▁gu	-10.6354
▁reflect	-10.6355
▁Bed	-10.6355
▁cosa	-10.6356
▁суд	-10.6359
▁finish	-10.636
▁weil	-10.6363
▁Canno	-10.6367
▁develop	-10.637
▁Therefore	-10.6371
To	-10.6374
▁मौजूद	-10.6374
▁свои	-10.6375
▁Spiel	-10.6375
▁आज	-10.6376
ages	-10.6378
▁sell	-10.6379
▁comprend	-10.6381
house	-10.6385
▁tarde	-10.6391
▁consideration	-10.6391
igo	-10.6392
оз	-10.6397
▁primera	-10.6399
лы	-10.6401
▁Port	-10.6402
▁joint	-10.6404
ability	-10.6407
▁wine	-10.6411
mus	-10.6412
▁रह	-10.6413
▁संपर्क	-10.6413
▁According	-10.6413
▁विकल्प	-10.6413
▁lower	-10.6414
▁handle	-10.6414
▁Н	-10.6414
▁Message	-10.6415
0)	-10.6421
▁wood	-10.6421
▁whoever	-10.6422
dan	-10.6423
▁Neu	-10.6423
вать	-10.6425
▁brain	-10.6425
▁band	-10.6427
▁click	-10.6427
▁LA	-10.6428
/01	-10.6429
▁जोड़ें	-10.643
▁kommt	-10.6434
зы	-10.6437
▁nouvelle	-10.6437
▁хотел	-10.6438
0€	-10.6438
▁Main	-10.6446
▁estos	-10.6447
▁promised	-10.6453
▁période	-10.6456
▁डाक	-10.6456
вести	-10.6457
▁Japan	-10.6457
▁appointed	-10.646
нес	-10.6462
▁देखा	-10.6462
▁fer	-10.6464
schen	-10.6467
ange	-10.6468
▁étaient	-10.6468
forum	-10.6468
ум	-10.6469
▁fille	-10.6469
:55	-10.6472
▁IT	-10.6486
hm	-10.6486
िस	-10.6487
▁hora	-10.6487
▁dice	-10.6489
▁Their	-10.6492
лет	-10.6496
Mi	-10.6498
▁жизнь	-10.6498
▁promote	-10.6499
▁Children	-10.6499
sign	-10.6501
amarillas	-10.6503
▁करे	-10.6504
:35	-10.6505
▁Up	-10.6509
▁Gr	-10.6511
▁store	-10.6513
▁Min	-10.6515
▁Bro	-10.6515
में	-10.6516
tica	-10.6518
▁build	-10.6519
▁1992	-10.652
lit	-10.6521
▁passé	-10.6525
▁Tel	-10.6526
:27	-10.6527
▁भ	-10.6527
▁carry	-10.6529
imos	-10.6535
▁présente	-10.6538
aff	-10.6538
▁Oktober	-10.6541
▁competition	-10.6541
▁pouvoir	-10.6541
▁disease	-10.6541
▁wealth	-10.6542
ET	-10.6542
▁funny	-10.6542
zer	-10.6543
▁veut	-10.6544
inc	-10.6544
▁बदला	-10.6544
▁Vater	-10.6545
▁प्राप्त	-10.6546
▁मै	-10.655
▁Quelle	-10.655
▁trouver	-10.6551
▁madre	-10.6559
-4	-10.6559
plan	-10.656
year	-10.6568
▁nation	-10.6568
нос	-10.6574
▁Region	-10.6576
▁ш	-10.6578
RC	-10.6581
गे	-10.6582
▁excellent	-10.6584
▁должна	-10.6584
▁призна	-10.6584
▁maximum	-10.6584
▁Char	-10.6585
▁49	-10.6586
▁ai	-10.6586
▁58	-10.6587
ira	-10.6593
У	-10.6593
▁мир	-10.6598
ight	-10.6598
▁***	-10.6599
ienne	-10.6602
:41	-10.6607
▁साल	-10.6607
:38	-10.6607
▁ता	-10.6608
▁Geld	-10.6612
▁1993	-10.6615
▁forever	-10.6617
▁Log	-10.6617
пол	-10.6627
▁су	-10.6627
▁Error	-10.6627
▁श	-10.6628
▁mère	-10.6633
▁clients	-10.6634
ata	-10.6636
$	-10.6636
▁па	-10.6637
atur	-10.6637
like	-10.664
tch	-10.664
▁seront	-10.6642
tiva	-10.6644
▁Juni	-10.665
back	-10.665
▁Za	-10.6656
▁Inc	-10.6657
▁cop	-10.6657
:42	-10.6658
ень	-10.6659
mas	-10.6664
▁(4)	-10.6664
▁Bad	-10.6665
гра	-10.6668
▁significant	-10.667
▁बड़ी	-10.6671
▁volume	-10.6671
▁этих	-10.6676
▁Ke	-10.6676
▁Apr	-10.6678
▁libre	-10.6679
uring	-10.6683
▁fond	-10.6684
▁numbers	-10.6686
▁Mein	-10.6687
▁hide	-10.6687
जी	-10.6695
▁Ré	-10.6697
blog	-10.6697
▁Ed	-10.6699
▁fruit	-10.67
▁Commissioner	-10.6702
put	-10.6704
▁Problem	-10.6711
rai	-10.6713
▁hizo	-10.6715
ld	-10.6719
▁Señor	-10.6724
▁Hast	-10.6727
раз	-10.6729
उ	-10.6734
grad	-10.6736
2010	-10.6744
▁दिल	-10.6745
▁Ре	-10.6748
92	-10.6749
ably	-10.675
oli	-10.6753
пу	-10.6755
▁sweet	-10.6755
▁Gracias	-10.6757
▁política	-10.6757
▁случае	-10.6757
▁यातना	-10.6757
▁initial	-10.6758
▁damn	-10.6759
▁Saint	-10.6759
▁Super	-10.6761
▁exemple	-10.6764
▁block	-10.6764
▁над	-10.6766
▁significa	-10.6768
▁ligne	-10.6771
att	-10.6773
els	-10.6773
An	-10.6775
▁ей	-10.6777
▁shut	-10.6777
▁всем	-10.6782
una	-10.6783
▁Str	-10.6788
▁quelques	-10.6791
äu	-10.6791
rop	-10.6794
ика	-10.6795
▁provision	-10.6798
▁Präsident	-10.6801
▁GmbH	-10.6801
▁Protocol	-10.6801
▁hundred	-10.6801
▁Second	-10.6801
▁obey	-10.6803
▁Dan	-10.6804
geb	-10.6805
▁seguro	-10.6806
▁mountains	-10.6817
ार	-10.6818
▁deliver	-10.6821
tag	-10.6824
▁guarantee	-10.6825
ización	-10.6825
▁accepted	-10.6829
▁quiet	-10.6833
▁sale	-10.6835
▁Wer	-10.6838
ает	-10.6843
ँ	-10.6843
▁Ж	-10.6844
▁gets	-10.6844
▁नि	-10.6844
▁почему	-10.6845
▁Father	-10.6846
▁gra	-10.6848
▁context	-10.6849
▁खुदा	-10.6849
▁Plus	-10.6849
▁Quand	-10.6849
сс	-10.685
▁होगी	-10.6853
▁Start	-10.6853
▁gleich	-10.6855
▁Note	-10.6855
▁phase	-10.6857
field	-10.6857
▁Italy	-10.6859
top	-10.6862
▁options	-10.6865
-12	-10.6867
:46	-10.6868
EA	-10.6869
:34	-10.6869
्व	-10.6869
▁official	-10.6871
▁contains	-10.6871
▁confirm	-10.6874
▁organization	-10.6876
:43	-10.6878
▁device	-10.6879
cción	-10.688
▁previous	-10.6882
▁donné	-10.6884
▁Nur	-10.6889
▁Почему	-10.689
▁जगह	-10.689
▁Everything	-10.689
▁Hereafter	-10.689
▁rob	-10.6891
▁Search	-10.6891
▁seulement	-10.6894
▁assist	-10.6894
▁mas	-10.6897
aime	-10.6897
▁participants	-10.6901
étais	-10.6901
homme	-10.6902
▁scared	-10.6905
▁mouth	-10.6905
▁150	-10.6915
ич	-10.6915
seiten	-10.6915
▁país	-10.6918
▁Mu	-10.6921
гу	-10.6923
▁ST	-10.6926
gin	-10.6928
▁parts	-10.693
▁mesure	-10.6931
▁description	-10.6934
▁nadie	-10.6935
▁mankind	-10.6936
▁можешь	-10.6939
▁published	-10.6942
▁hearing	-10.6944
▁Pan	-10.695
▁pregunta	-10.6951
▁Cal	-10.6954
▁Yet	-10.6954
▁дело	-10.6955
▁screen	-10.696
xi	-10.696
▁environmental	-10.6962
▁movement	-10.6965
▁existing	-10.6965
वि	-10.6966
:33	-10.6968
▁title	-10.6968
▁discussion	-10.6972
▁meinen	-10.6973
йте	-10.6975
▁स्थान	-10.6979
▁संख्या	-10.6979
▁Хорошо	-10.6979
▁female	-10.6979
▁schön	-10.6979
▁जरूरत	-10.6979
▁आया	-10.6979
▁इनकार	-10.6979
▁Services	-10.6981
▁standards	-10.6981
▁करेगा	-10.6982
ender	-10.6982
▁quieres	-10.6998
▁फ़	-10.6998
▁mess	-10.6999
reich	-10.6999
▁victim	-10.7002
▁75	-10.7007
▁concern	-10.701
ius	-10.7012
sum	-10.7013
▁Director	-10.7014
ric	-10.7017
▁viele	-10.7017
iga	-10.7019
▁mé	-10.702
▁बोल	-10.702
▁beyond	-10.7024
▁धरती	-10.7024
▁сюда	-10.7024
▁Unternehmen	-10.7024
▁enemy	-10.7024
nom	-10.7024
▁चयनित	-10.7024
▁surface	-10.7026
▁matters	-10.7027
▁basic	-10.7027
▁bitch	-10.7028
ladys	-10.703
:54	-10.703
▁collection	-10.7031
cion	-10.7031
▁кр	-10.7035
ilvia	-10.7035
Da	-10.7037
ache	-10.7041
что	-10.7042
▁13.	-10.7043
▁partner	-10.7043
:52	-10.7044
MS	-10.7049
dio	-10.7051
▁calling	-10.7054
")	-10.7055
▁boat	-10.7057
▁programa	-10.706
==	-10.706
▁место	-10.706
ман	-10.7062
▁sollten	-10.7063
▁Ко	-10.7064
▁haciendo	-10.7069
▁Samstag	-10.7069
हर	-10.7069
osa	-10.7069
pect	-10.7069
▁besser	-10.7071
▁aren	-10.7071
▁welche	-10.7071
▁Section	-10.7072
▁prix	-10.7072
▁assessment	-10.7072
▁tard	-10.7075
▁recent	-10.7076
▁друг	-10.7076
▁Version	-10.7079
:47	-10.708
▁सुन	-10.7087
▁series	-10.7087
▁Voy	-10.7087
ani	-10.7089
юсь	-10.7096
▁Gal	-10.7098
ende	-10.7098
▁remove	-10.7099
ंस	-10.7099
▁mettre	-10.7106
iti	-10.7112
▁parle	-10.7113
▁perhaps	-10.7114
▁पीछे	-10.7114
▁fresh	-10.7114
род	-10.7116
▁looked	-10.7116
para	-10.7118
▁effects	-10.7121
▁Island	-10.7122
ores	-10.7125
▁ME	-10.7128
▁Under	-10.7132
▁मे	-10.7134
▁mujeres	-10.7134
ika	-10.7134
mat	-10.7138
▁details	-10.7138
▁arrive	-10.714
▁interested	-10.7141
▁Person	-10.7142
нии	-10.7143
▁тот	-10.7145
▁miembros	-10.7154
ेट	-10.7156
▁proyecto	-10.7159
▁имеет	-10.7161
▁связи	-10.7161
▁planning	-10.7161
▁जाएँगे	-10.7162
imm	-10.7167
▁2012,	-10.7168
▁Video	-10.7168
▁Mehr	-10.7168
ыми	-10.7169
▁Bill	-10.7172
लो	-10.7174
▁luck	-10.7175
▁farm	-10.7178
▁agreed	-10.7183
ping	-10.7187
▁estas	-10.7188
spite	-10.719
▁Russia	-10.7192
▁collect	-10.7192
eng	-10.7193
▁happens	-10.7196
ised	-10.7201
▁representative	-10.7202
▁жизни	-10.7205
▁Joined	-10.7205
▁families	-10.7205
▁directive	-10.7207
▁degree	-10.721
ox	-10.721
▁Change	-10.7211
▁sommes	-10.7212
SP	-10.7212
rait	-10.7213
ain	-10.7214
▁59	-10.7214
▁Ou	-10.722
she	-10.7226
▁forces	-10.7227
▁Ме	-10.723
▁fil	-10.7231
ाँ	-10.7232
▁wide	-10.7234
▁Action	-10.7235
(1)	-10.7237
▁pr	-10.7238
▁права	-10.7242
▁employment	-10.7251
▁себе	-10.7251
ीन	-10.7252
▁spring	-10.7252
Mo	-10.7253
▁Mor	-10.7256
чу	-10.7257
▁Part	-10.7263
iques	-10.7264
gas	-10.7265
▁Pla	-10.7267
▁passed	-10.7269
▁47	-10.727
▁Hola	-10.7271
▁granted	-10.7271
▁लगे	-10.7273
▁boss	-10.7277
▁ball	-10.728
▁calls	-10.7283
▁résultats	-10.7283
▁fri	-10.7285
▁aware	-10.7286
teurs	-10.7286
▁song	-10.7294
▁Sé	-10.7295
cl	-10.7296
▁nueva	-10.7297
▁fault	-10.7297
▁प्रकार	-10.7298
ona	-10.7298
▁disbelievers	-10.7298
▁Ма	-10.7298
ха	-10.7299
head	-10.73
▁season	-10.7302
उस	-10.7303
/17	-10.7306
▁Contact	-10.7307
CT	-10.7308
▁weg	-10.7311
▁fla	-10.7319
tten	-10.7321
▁finally	-10.7321
▁жив	-10.7321
▁Fue	-10.7323
▁reading	-10.7327
▁clearly	-10.733
▁prices	-10.733
mu	-10.7333
pin	-10.7337
▁nu	-10.7338
gn	-10.7338
oo	-10.7341
▁pouvez	-10.7343
▁podemos	-10.7343
▁эту	-10.7344
▁Transport	-10.7344
▁Sea	-10.7347
иль	-10.735
ним	-10.735
place	-10.7352
▁desire	-10.7354
▁BE	-10.7356
▁accordan	-10.7361
ace	-10.7363
▁terrorist	-10.7364
pf	-10.7366
bei	-10.7367
position	-10.7374
▁Tal	-10.7376
▁hey	-10.7377
▁quelqu	-10.7378
▁способ	-10.7379
▁pat	-10.7381
▁successful	-10.7383
▁ihrer	-10.7383
▁u	-10.7384
▁चला	-10.7385
▁ayudar	-10.7389
▁desarrollo	-10.739
▁Should	-10.739
▁complex	-10.739
▁sometimes	-10.739
▁legislation	-10.739
▁Verordnung	-10.739
lot	-10.7394
bol	-10.7394
▁Weg	-10.7394
▁देता	-10.7396
учи	-10.7396
▁planet	-10.7396
▁Mer	-10.7397
▁importa	-10.7401
▁Todo	-10.7401
сон	-10.7402
pm	-10.7412
▁moved	-10.7414
eck	-10.7416
kel	-10.7419
vid	-10.7425
▁dicho	-10.7431
▁Val	-10.7432
▁fill	-10.7432
▁sold	-10.7432
ству	-10.7434
ena	-10.7436
▁Treaty	-10.7436
▁speech	-10.7436
▁freedom	-10.7437
▁Organization	-10.7438
▁honest	-10.7439
▁उनका	-10.7439
ones	-10.7442
▁आगे	-10.7442
ख़	-10.7443
▁Today	-10.7445
▁Mission	-10.7446
20%	-10.7446
▁क्योंकि	-10.7448
agit	-10.7448
▁lleva	-10.7449
▁Rec	-10.7453
क्र	-10.7456
▁publication	-10.7459
▁style	-10.746
▁grave	-10.7461
▁दुनिया	-10.7461
cus	-10.7463
▁seiner	-10.7463
▁SA	-10.7463
iser	-10.7466
गर	-10.7471
ीय	-10.7477
▁Bu	-10.7477
тив	-10.7478
пад	-10.7481
▁lit	-10.7481
▁fund	-10.7483
▁Presidente	-10.7483
▁::	-10.7483
▁medical	-10.7484
▁Où	-10.7484
▁recht	-10.7484
▁सेट	-10.7489
▁ध	-10.7491
▁Совета	-10.7492
▁quería	-10.7494
pol	-10.7496
ец	-10.7496
▁mat	-10.7497
▁чего	-10.75
▁weak	-10.7502
▁magic	-10.7504
▁Ger	-10.7505
▁Daten	-10.7506
▁Louis	-10.7507
▁ин	-10.751
halb	-10.7511
▁ум	-10.7515
▁warm	-10.7517
▁cash	-10.7522
▁cor	-10.7526
stein	-10.7527
▁Star	-10.7528
▁Loi	-10.7529
▁Bull	-10.753
▁applicable	-10.7531
▁yourselves	-10.7531
▁damage	-10.7531
▁annual	-10.7531
▁Research	-10.7531
▁James	-10.7532
-19	-10.7533
:58	-10.7533
ении	-10.7535
ём	-10.7535
▁exp	-10.7535
▁та	-10.7537
▁Read	-10.7538
▁amended	-10.7542
▁रहो	-10.7545
Oh	-10.7548
▁Anzahl	-10.7554
▁ई	-10.7556
▁hoy	-10.7557
▁toda	-10.7558
▁prêt	-10.7559
▁arrest	-10.7562
▁display	-10.7562
▁Nun	-10.7565
cial	-10.7565
▁presented	-10.7571
gh	-10.7571
▁driver	-10.7572
och	-10.7573
/2010	-10.7574
▁пол	-10.7575
▁sang	-10.7577
▁birth	-10.7578
▁investigation	-10.7578
▁delegation	-10.7578
▁activity	-10.7578
▁sexual	-10.7579
▁société	-10.7579
▁उनमें	-10.7579
▁pack	-10.7579
▁вопрос	-10.758
▁conference	-10.7581
▁neuen	-10.7582
▁package	-10.7582
ально	-10.7583
toi	-10.7583
▁produit	-10.7584
▁commitment	-10.7585
rb	-10.7586
remos	-10.7586
▁beim	-10.7587
▁supported	-10.7589
▁values	-10.7589
▁Once	-10.7593
▁ceux	-10.7596
▁gl	-10.7599
▁2004,	-10.7599
▁tend	-10.7599
cke	-10.76
▁EC	-10.7601
▁Pass	-10.7605
▁parti	-10.7606
▁बता	-10.7608
ula	-10.7608
▁meetings	-10.7609
▁raise	-10.761
▁missing	-10.7611
▁Tú	-10.7612
Cause	-10.7617
:%	-10.7621
ней	-10.7621
▁terre	-10.7625
▁seguridad	-10.7626
▁Three	-10.7626
▁policies	-10.7626
▁डिस्क	-10.7626
/2008	-10.7626
▁pilot	-10.7626
र्क	-10.7631
ics	-10.7632
▁gehört	-10.7632
tico	-10.7633
▁excuse	-10.7633
its	-10.7634
тре	-10.7634
▁horse	-10.7636
▁deserve	-10.7638
▁Force	-10.7638
llen	-10.7639
▁57	-10.7642
▁hacerlo	-10.7642
/2011	-10.7645
▁Mme	-10.7645
▁pool	-10.7653
az	-10.7659
▁bou	-10.7661
ias	-10.7661
Pro	-10.7663
▁दा	-10.7665
non	-10.7666
ierte	-10.7671
bus	-10.7671
▁starting	-10.7672
▁mai	-10.7673
▁Muhammad	-10.7673
▁advantage	-10.7673
▁publique	-10.7673
▁ведь	-10.7673
▁минут	-10.7674
▁completed	-10.7674
ump	-10.7676
▁games	-10.7676
▁(%	-10.7677
▁camera	-10.7678
इस	-10.7678
▁summer	-10.768
mis	-10.7682
▁writing	-10.7683
via	-10.7684
कि	-10.7685
▁pull	-10.7685
nda	-10.7688
ware	-10.7691
▁likely	-10.7694
▁apart	-10.7696
▁African	-10.7696
nahme	-10.7697
11.	-10.7698
arlo	-10.7699
ato	-10.7701
▁गु	-10.7701
▁pla	-10.7703
ала	-10.7703
▁industrial	-10.7703
▁Bel	-10.7703
▁mentioned	-10.7706
abord	-10.7715
iers	-10.772
▁número	-10.7722
▁essential	-10.7722
▁simply	-10.7722
▁software	-10.7722
▁draw	-10.7724
▁Wasser	-10.7725
▁historia	-10.7726
▁helped	-10.7727
▁severe	-10.7727
IE	-10.7729
9/	-10.7732
TH	-10.7734
▁деле	-10.7735
lum	-10.7736
gram	-10.7737
-5	-10.7737
▁updated	-10.7737
▁Thu	-10.7741
▁blow	-10.7747
▁mad	-10.7748
lage	-10.7754
soever	-10.7763
din	-10.7765
▁région	-10.7767
▁तैयार	-10.777
▁flight	-10.7772
▁nationale	-10.7772
▁permit	-10.7773
▁border	-10.7773
▁времени	-10.7773
▁2015,	-10.7773
▁दृश्य	-10.7773
▁घ	-10.7774
▁Fo	-10.7775
▁Pharaoh	-10.7778
OM	-10.7779
▁relat	-10.7781
▁स्थिति	-10.7781
▁pot	-10.7782
▁Spain	-10.7783
▁Joe	-10.7785
▁NO	-10.7788
izing	-10.7788
▁ride	-10.7791
fort	-10.7795
▁strength	-10.7795
▁22,	-10.78
▁mars	-10.7801
uit	-10.7801
▁gold	-10.7802
▁पी	-10.7803
▁Mc	-10.7805
▁Del	-10.7808
▁garden	-10.7808
▁Als	-10.7814
▁shouldn	-10.7815
#	-10.7815
ских	-10.7818
▁admit	-10.7819
▁commission	-10.7819
eh	-10.7819
▁Press	-10.7821
▁billion	-10.7823
▁Download	-10.7824
▁Bericht	-10.7828
rent	-10.7833
▁claim	-10.7834
▁warning	-10.7836
-04	-10.7837
▁guests	-10.7837
▁Генерально	-10.7838
▁Freund	-10.7839
ois	-10.784
▁95	-10.784
termin	-10.7842
ram	-10.7843
▁SO	-10.7848
▁unit	-10.7849
UN	-10.785
udi	-10.7852
▁opened	-10.7853
▁named	-10.7854
▁remains	-10.7855
▁Р	-10.7856
нс	-10.7861
▁initiatives	-10.7861
cula	-10.7863
▁vier	-10.7865
▁British	-10.7867
▁distance	-10.7867
▁sitting	-10.787
▁केवल	-10.787
ient	-10.7871
▁income	-10.7875
▁अच्छे	-10.7875
▁Abraham	-10.7877
▁seule	-10.7878
▁Trans	-10.7879
वे	-10.7881
▁ref	-10.7887
▁сер	-10.789
yn	-10.7891
weg	-10.7893
стра	-10.7895
▁sources	-10.7902
ять	-10.7905
zar	-10.7905
mes	-10.7911
▁formula	-10.7912
avoir	-10.7914
▁animal	-10.7914
stellung	-10.7914
▁ersten	-10.7915
▁Actually	-10.7916
▁Monsieur	-10.7916
▁attempt	-10.7916
▁presence	-10.7916
▁encounter	-10.7916
▁district	-10.7916
▁pasado	-10.7916
▁gentlemen	-10.7916
▁seeing	-10.7917
▁lawyer	-10.7918
▁worse	-10.7918
▁Mutter	-10.7919
▁Flo	-10.792
▁sowie	-10.792
▁haga	-10.7921
▁visto	-10.7921
▁пор	-10.7922
▁trata	-10.7926
▁Cap	-10.7926
▁Ms	-10.7926
▁56	-10.7928
▁micro	-10.7928
▁Hold	-10.7928
▁ways	-10.793
бра	-10.793
▁foot	-10.793
цы	-10.7931
amiento	-10.7932
▁Parties	-10.7932
right	-10.7935
ame	-10.7936
▁Program	-10.7938
term	-10.7939
वर	-10.794
टर	-10.7941
well	-10.7941
zy	-10.7943
▁kam	-10.7948
▁instrument	-10.7949
▁Arm	-10.7949
▁burn	-10.7955
▁доклад	-10.7955
▁работа	-10.7956
▁cru	-10.7957
▁broke	-10.7958
▁hall	-10.7959
▁gain	-10.796
сы	-10.7961
▁relations	-10.7965
▁Kind	-10.7965
▁während	-10.7965
▁порядке	-10.7965
▁database	-10.7965
▁liegt	-10.7967
idos	-10.7967
▁अरे	-10.7967
▁Apartment	-10.7969
ini	-10.7969
▁began	-10.797
▁जिसने	-10.7973
▁misma	-10.7979
▁Sc	-10.7981
▁internal	-10.7983
▁अन्य	-10.7984
▁army	-10.7984
ита	-10.7987
▁dentro	-10.7987
▁Image	-10.7991
мы	-10.7998
▁maintain	-10.8
▁requests	-10.8004
▁dress	-10.8009
▁बढ़	-10.8013
▁blue	-10.8015
▁अतः	-10.8016
▁davon	-10.8016
▁analysis	-10.8016
▁images	-10.802
▁recommendations	-10.8022
▁vision	-10.8026
▁director	-10.8031
▁derecho	-10.8032
▁suggest	-10.8033
▁rise	-10.8034
▁54	-10.8038
▁habit	-10.8039
▁island	-10.8042
▁Ak	-10.8042
Union	-10.8042
▁nun	-10.8042
▁beach	-10.8046
▁cultural	-10.8047
vier	-10.805
▁wohl	-10.8052
▁heures	-10.8055
gang	-10.8062
▁fat	-10.8063
▁rôle	-10.8065
▁último	-10.8065
▁अच्छी	-10.8065
▁क़ौम	-10.8065
▁gift	-10.8065
▁Kingdom	-10.8065
▁prévu	-10.8065
▁empty	-10.8066
▁usually	-10.8069
▁besides	-10.807
лось	-10.8074
▁wichtig	-10.8076
▁unjust	-10.8077
▁End	-10.8079
▁finished	-10.8084
бу	-10.8085
▁skin	-10.8086
▁Ã	-10.8086
▁amigo	-10.8089
▁र	-10.8095
रो	-10.8097
▁perform	-10.8101
▁llevar	-10.8108
्द	-10.8109
▁आकाश	-10.8115
▁minimum	-10.8115
▁развития	-10.8115
▁सामने	-10.8115
▁कारण	-10.8115
▁два	-10.8116
▁Его	-10.8118
▁सिवा	-10.8119
▁Wa	-10.8119
▁Document	-10.812
▁Porque	-10.8121
▁treat	-10.8132
▁Pol	-10.8132
▁खोज	-10.8133
▁रोक	-10.8135
▁cha	-10.8136
▁bra	-10.8137
rau	-10.8141
▁threat	-10.8141
▁sad	-10.8142
▁Real	-10.8152
▁primer	-10.8152
▁benefits	-10.8154
эй	-10.8158
эн	-10.8158
TI	-10.8159
▁pray	-10.8161
ison	-10.8164
▁período	-10.8165
▁wrote	-10.8165
▁behalf	-10.8165
▁posible	-10.8165
▁Follow	-10.8165
▁anybody	-10.8166
▁suspect	-10.8166
mento	-10.8167
▁specified	-10.8167
nehmen	-10.8167
▁titre	-10.8169
ук	-10.817
▁distribution	-10.8174
▁Bitte	-10.8175
media	-10.8177
▁via	-10.8177
▁propre	-10.8183
▁Green	-10.8183
▁calm	-10.8185
▁जीवन	-10.8186
▁copy	-10.8192
▁loved	-10.8196
MP	-10.8197
оп	-10.8198
bro	-10.8202
▁>>	-10.8202
▁400	-10.8208
▁White	-10.8211
▁lived	-10.8214
/3	-10.8214
▁Tribunal	-10.8215
▁argument	-10.8215
▁Ладно	-10.8215
▁कोशिश	-10.8215
▁church	-10.8215
▁gerade	-10.8216
ому	-10.8216
▁proposition	-10.8217
▁Head	-10.8219
▁इससे	-10.8219
▁taux	-10.8223
dra	-10.8223
iel	-10.8233
▁Tan	-10.8236
▁vari	-10.8237
▁IV	-10.8237
RT	-10.8238
▁Arbeits	-10.8242
ash	-10.8244
▁1991	-10.8245
▁रे	-10.8248
▁designed	-10.825
нь	-10.8251
▁Nor	-10.8253
▁डि	-10.8259
▁wear	-10.826
ियाँ	-10.8261
▁watching	-10.8263
▁continued	-10.8265
▁embargo	-10.8266
▁worried	-10.8266
▁Something	-10.8266
▁bodies	-10.8267
▁richtig	-10.8267
▁बनाया	-10.8267
environnement	-10.8267
▁forgiveness	-10.8268
▁отношении	-10.8268
▁grupo	-10.8268
▁Doctor	-10.8269
▁Puede	-10.8269
▁लोड	-10.8269
▁Next	-10.827
▁schnell	-10.8273
▁10,	-10.8277
▁64	-10.828
▁пос	-10.8284
▁Nick	-10.8285
бл	-10.8286
▁Ра	-10.8288
avais	-10.8289
▁Many	-10.829
▁orden	-10.829
CN	-10.8293
ция	-10.8294
▁Ende	-10.8295
▁placed	-10.8296
ook	-10.8297
oh	-10.83
lip	-10.8306
▁haya	-10.8309
▁bereits	-10.8311
▁Prime	-10.8312
▁appreciate	-10.8317
▁breakfast	-10.8317
▁Before	-10.8317
▁Charlie	-10.8318
▁guilty	-10.832
▁hacia	-10.8321
▁quickly	-10.8325
▁throughout	-10.8325
▁author	-10.8325
win	-10.8326
▁प्रति	-10.8329
ua	-10.8335
▁Solo	-10.8336
▁method	-10.8341
▁difference	-10.8341
▁Хо	-10.8342
▁semana	-10.8343
▁Top	-10.8347
▁recommend	-10.8348
▁suppose	-10.8349
nic	-10.8351
▁articles	-10.8351
▁mer	-10.8357
▁européen	-10.8362
▁Create	-10.8366
▁Agreement	-10.8369
▁exercise	-10.8369
▁qualité	-10.8369
▁scene	-10.8369
▁luego	-10.8369
▁sentence	-10.8369
▁ressources	-10.8369
▁smart	-10.8369
▁बीच	-10.8369
▁interview	-10.8369
▁निकल	-10.837
▁immediately	-10.8372
ря	-10.8373
▁load	-10.8374
images	-10.8375
heim	-10.8375
▁volver	-10.8375
uche	-10.8377
▁Never	-10.8378
▁establish	-10.8382
▁Kr	-10.8384
▁choses	-10.8386
ति	-10.8387
гр	-10.8389
▁tel	-10.839
▁deja	-10.8391
▁ihren	-10.8393
един	-10.8393
▁Hall	-10.8394
▁ski	-10.84
-01	-10.8401
व्य	-10.8404
▁reject	-10.8408
▁advice	-10.842
▁Спасибо	-10.842
▁bathroom	-10.842
▁других	-10.8421
▁somewhere	-10.8422
▁kiss	-10.8422
▁dije	-10.8423
▁appear	-10.843
ates	-10.843
NG	-10.8431
▁Ph	-10.8432
gri	-10.8436
▁represent	-10.8438
▁saber	-10.8438
uri	-10.844
▁played	-10.844
▁dance	-10.844
▁pictures	-10.8441
▁propos	-10.8441
▁persona	-10.8441
2011	-10.8441
▁quién	-10.8442
кт	-10.8444
rib	-10.8447
▁presente	-10.8448
▁release	-10.8452
ур	-10.8456
isten	-10.8457
▁Santa	-10.8457
ager	-10.8458
▁cry	-10.8458
view	-10.8459
▁#3	-10.8461
wel	-10.8462
▁Film	-10.8462
Un	-10.8463
▁Br	-10.8464
ению	-10.8468
िश	-10.847
AP	-10.847
▁puis	-10.8471
▁ск	-10.8472
intérêt	-10.8472
▁पृष्ठ	-10.8472
▁contigo	-10.8472
ome	-10.8475
बर	-10.8476
content	-10.8476
▁जिसक	-10.8484
▁consist	-10.8484
iez	-10.8486
DA	-10.8488
rado	-10.8489
arte	-10.8491
▁flu	-10.8492
▁zone	-10.8493
▁PC	-10.8497
▁continu	-10.8497
ntes	-10.8504
▁dónde	-10.8505
▁Во	-10.8514
▁razón	-10.8524
▁strategy	-10.8524
▁renseignements	-10.8524
▁smell	-10.8524
▁promotion	-10.8525
▁Room	-10.8526
▁Truth	-10.8526
▁finger	-10.8528
▁proud	-10.8528
▁Nunca	-10.8535
lect	-10.8537
ete	-10.8538
Bl	-10.8539
▁Nice	-10.8539
ár	-10.8539
lä	-10.8541
test	-10.8544
/12	-10.8545
ений	-10.855
▁sup	-10.855
▁perd	-10.8552
▁thousand	-10.8554
итель	-10.8556
▁thereof	-10.8556
NE	-10.8557
kl	-10.8557
▁2013,	-10.8558
кр	-10.8558
onne	-10.8562
▁certains	-10.8564
PS	-10.8569
ели	-10.857
▁период	-10.8572
▁guided	-10.8573
▁origin	-10.8576
mittel	-10.8577
▁Baby	-10.8578
▁Charles	-10.8578
▁weird	-10.858
▁Бр	-10.8581
бр	-10.8581
ball	-10.8581
▁Chinese	-10.8582
▁(5)	-10.8583
▁spirit	-10.8585
▁moon	-10.8586
▁Data	-10.8592
eta	-10.8598
ак	-10.86
▁regarding	-10.86
enden	-10.8602
▁Personen	-10.8604
Я	-10.8604
IA	-10.8605
▁cur	-10.8606
▁alguna	-10.8608
/5	-10.8608
▁sait	-10.8608
▁miles	-10.8611
ear	-10.8615
аться	-10.8616
ают	-10.8616
▁certificate	-10.8619
kh	-10.8619
▁Shi	-10.8621
шу	-10.8623
icia	-10.8625
▁genau	-10.8628
igh	-10.8628
▁economy	-10.8629
▁[1]	-10.8629
▁dialogue	-10.863
▁visits	-10.863
▁submit	-10.863
▁лишь	-10.863
SA	-10.8631
▁Lass	-10.8632
▁Ziel	-10.8633
pur	-10.8634
▁स्	-10.8637
▁connect	-10.8638
▁chica	-10.8638
▁Online	-10.8639
▁Pop	-10.8639
▁25,	-10.864
▁Qué	-10.8642
▁replaced	-10.8642
▁Ро	-10.8643
▁говорит	-10.8644
pic	-10.8644
▁Play	-10.8649
spiel	-10.8649
rán	-10.8649
▁applications	-10.865
▁Enter	-10.8651
▁мог	-10.8651
▁Whil	-10.8654
▁Med	-10.8655
▁Media	-10.8655
▁кого	-10.8655
Ñ	-10.8658
छ	-10.8658
прос	-10.8658
avez	-10.8661
▁पूछ	-10.8663
▁totally	-10.8666
▁emb	-10.8671
2007	-10.8671
▁feed	-10.8672
▁दें	-10.868
leg	-10.868
▁truly	-10.8682
▁Excuse	-10.8682
▁पसंद	-10.8682
▁weapons	-10.8682
ग्र	-10.8683
▁début	-10.8684
▁gesehen	-10.8684
▁retir	-10.8687
▁Quran	-10.8688
овать	-10.8688
über	-10.8688
▁spent	-10.8688
▁Bureau	-10.8691
▁DVD	-10.8696
▁кор	-10.8697
Que	-10.8698
ёт	-10.8698
▁hommes	-10.8698
▁Mont	-10.8699
▁Long	-10.8703
RO	-10.8704
стро	-10.8705
▁Type	-10.8706
itz	-10.8708
gli	-10.8708
PA	-10.8708
ены	-10.8708
▁hang	-10.8709
▁master	-10.8712
▁Mus	-10.8714
▁Ц	-10.8716
▁cancer	-10.8719
▁cart	-10.872
▁ideas	-10.872
▁fou	-10.872
vas	-10.8723
▁meant	-10.8727
▁बि	-10.8731
▁53	-10.8731
▁seinen	-10.8732
stellen	-10.8732
▁Big	-10.8735
▁Official	-10.8735
▁décembre	-10.8735
▁facilities	-10.8735
▁fundamental	-10.8735
▁sagt	-10.8735
▁Бо	-10.8736
▁camino	-10.8736
▁उसमें	-10.8736
▁celui	-10.8737
▁veces	-10.8737
ität	-10.8739
emp	-10.8741
▁element	-10.8741
ेगा	-10.8742
▁engine	-10.8743
▁goods	-10.8746
▁juin	-10.8746
▁pure	-10.8748
▁holding	-10.8754
ана	-10.8755
pit	-10.8762
Allah	-10.8766
▁Had	-10.877
▁जोड़	-10.8781
тр	-10.8782
▁hemos	-10.8783
tivo	-10.8785
/2014	-10.8785
▁вместе	-10.8789
▁gracias	-10.8789
▁muerto	-10.8789
▁earlier	-10.8789
▁finance	-10.8789
ami	-10.8789
▁Unknown	-10.8789
hand	-10.879
OL	-10.879
ился	-10.8791
CC	-10.8792
▁materials	-10.8792
ंद	-10.8795
▁ON	-10.8795
lig	-10.8796
room	-10.8796
▁recently	-10.8798
dig	-10.8803
▁keinen	-10.8807
med	-10.8808
▁बन	-10.8812
▁donner	-10.8817
▁effort	-10.8826
▁Bring	-10.8827
8/	-10.8828
ney	-10.8831
▁tomar	-10.8836
▁También	-10.8842
▁responsable	-10.8842
▁studies	-10.8842
▁असफल	-10.8842
▁jedoch	-10.8842
▁Просто	-10.8842
yant	-10.8842
▁rural	-10.8843
▁Absatz	-10.8844
▁моя	-10.8845
▁===	-10.8846
▁existe	-10.8848
▁male	-10.8849
▁sigue	-10.8854
▁nine	-10.8854
▁Turn	-10.8855
▁selon	-10.886
▁ban	-10.886
▁download	-10.8864
при	-10.8866
▁сказала	-10.8867
▁em	-10.8869
तर	-10.8871
घ	-10.8872
/16	-10.8875
бор	-10.8876
▁проект	-10.8879
▁closed	-10.888
▁Комитет	-10.8881
▁understanding	-10.8887
зн	-10.8888
▁खोल	-10.8893
▁США	-10.8896
▁которая	-10.8896
▁आसमान	-10.8896
▁School	-10.8896
▁pleasure	-10.8896
Dónde	-10.8896
▁पकड़	-10.8896
▁popular	-10.8897
▁твой	-10.8897
▁Richard	-10.8897
▁dangerous	-10.8897
▁образом	-10.8897
▁कल	-10.8898
zeug	-10.8899
▁shop	-10.89
▁Women	-10.89
▁Kan	-10.89
gehen	-10.89
▁Cour	-10.8901
▁dû	-10.8902
▁मूसा	-10.8903
ncia	-10.8903
arch	-10.8904
▁résolution	-10.8905
uni	-10.8905
▁debt	-10.8905
▁lying	-10.8906
▁रो	-10.8906
lica	-10.8906
lier	-10.8912
▁rejected	-10.8913
ент	-10.8915
CR	-10.8919
▁homme	-10.8919
▁cri	-10.8921
▁ख़	-10.8922
▁nouvelles	-10.8922
मैं	-10.8928
▁escape	-10.8931
нет	-10.8934
Ar	-10.894
▁खा	-10.8941
ndi	-10.8942
ues	-10.8944
▁Де	-10.8945
▁issued	-10.8947
стве	-10.8948
bot	-10.8949
▁policía	-10.8951
▁деятельности	-10.8951
▁बल्कि	-10.8951
▁última	-10.8951
▁password	-10.8951
▁Print	-10.8951
▁voiture	-10.8951
▁middle	-10.8951
▁green	-10.8952
▁работу	-10.8953
▁painful	-10.8953
▁klar	-10.8953
▁drug	-10.8954
kan	-10.8956
▁president	-10.8958
imp	-10.8958
▁nuit	-10.8961
▁rend	-10.8961
▁Bereich	-10.8963
▁truc	-10.8963
▁Usted	-10.8965
imiento	-10.8968
ora	-10.8974
▁dur	-10.8976
▁sufficient	-10.8978
ese	-10.8979
▁relative	-10.8986
▁donne	-10.8988
▁लग	-10.8989
▁forest	-10.899
rank	-10.8991
▁valeur	-10.8994
▁contributions	-10.8996
▁fail	-10.8997
▁व्यक्ति	-10.9
▁reporting	-10.9002
▁कमांड	-10.9005
▁निकाल	-10.9006
ского	-10.9006
▁traitement	-10.9006
gui	-10.9008
▁начал	-10.9008
▁sites	-10.9008
▁standing	-10.901
▁сам	-10.9011
▁regions	-10.9011
▁Journal	-10.9011
cido	-10.9012
/2006	-10.9013
▁सूचना	-10.9013
ун	-10.9015
▁porte	-10.9015
ks	-10.9018
▁raus	-10.9019
▁corner	-10.9019
▁Anti	-10.9022
ned	-10.9032
▁उप	-10.9032
▁Ber	-10.9035
ines	-10.9037
▁основ	-10.9038
शा	-10.9038
Comment	-10.9041
▁amor	-10.9042
▁chosen	-10.9043
Ge	-10.9044
▁Em	-10.9051
▁ko	-10.9051
▁Fl	-10.9054
▁grab	-10.9058
▁forgot	-10.9059
-10	-10.906
▁Australia	-10.906
▁vielleicht	-10.906
▁Remove	-10.906
▁безопасности	-10.906
▁species	-10.9061
▁обо	-10.9062
prim	-10.9065
▁unless	-10.9067
▁length	-10.9069
▁народ	-10.9072
kar	-10.9074
▁problemas	-10.9076
▁vient	-10.9076
▁gemacht	-10.9077
▁2017	-10.9078
▁manager	-10.9083
▁Ur	-10.9085
▁quick	-10.9086
▁prior	-10.9088
▁Love	-10.909
▁tool	-10.9091
▁Stand	-10.9092
▁geben	-10.9093
▁ди	-10.9095
▁realize	-10.9099
cos	-10.91
▁Emp	-10.91
▁solutions	-10.9105
▁Schw	-10.9111
▁trouve	-10.9114
▁Tor	-10.9115
▁можем	-10.9116
▁शुरू	-10.9116
▁Oct	-10.9117
нд	-10.912
▁такое	-10.9121
box	-10.9122
▁registr	-10.9123
▁manière	-10.9123
▁Color	-10.9128
var	-10.9128
▁Rome	-10.913
▁push	-10.9133
▁projets	-10.9135
▁delivered	-10.9136
▁möglich	-10.9139
▁кар	-10.9139
▁दिखा	-10.914
▁fan	-10.9141
▁дом	-10.9142
▁unserer	-10.9143
▁pie	-10.9144
eva	-10.9144
▁भाग	-10.9147
▁decisions	-10.9148
▁сделал	-10.9154
▁1)	-10.9157
tis	-10.9157
▁कार	-10.9159
▁dort	-10.916
▁Hat	-10.9161
tail	-10.9162
▁आई	-10.9163
▁funds	-10.9166
▁organis	-10.9167
▁кажд	-10.9169
ब्	-10.917
▁अमेरिका	-10.9171
▁supply	-10.9171
▁मार्ग	-10.9171
▁Fu	-10.9172
▁dafür	-10.9172
ेंगे	-10.9173
▁कहाँ	-10.9173
▁Life	-10.9175
key	-10.9176
▁देते	-10.9176
▁Han	-10.9184
▁realidad	-10.9186
▁Sport	-10.9188
▁entry	-10.9189
▁liste	-10.919
▁terrorism	-10.9195
▁produced	-10.9199
▁Geh	-10.92
▁indicate	-10.9201
▁пар	-10.9207
рат	-10.9208
▁heat	-10.9209
▁links	-10.9211
▁indica	-10.9216
▁Boy	-10.9217
दी	-10.9219
ье	-10.9219
▁बन्द	-10.922
▁जी	-10.9222
arrêt	-10.9227
▁unser	-10.9227
▁Resurrection	-10.9227
▁symbol	-10.9227
▁детей	-10.9227
▁conmigo	-10.9227
▁committed	-10.9228
▁happening	-10.9228
▁резолюции	-10.9229
▁Someone	-10.9229
ncy	-10.9229
▁forme	-10.9229
nor	-10.9235
▁sport	-10.9238
ंक	-10.9239
▁utilisé	-10.9242
.4.	-10.9247
▁ice	-10.9247
▁citizens	-10.925
▁SE	-10.9252
▁horas	-10.9255
▁alarm	-10.9257
▁encourage	-10.9259
▁aún	-10.926
▁पहुँच	-10.9264
एस	-10.9265
LL	-10.9267
▁celle	-10.927
▁erste	-10.9272
▁Ни	-10.9275
ях	-10.9275
▁principle	-10.9276
▁мира	-10.9276
▁danger	-10.9277
▁recompense	-10.9283
▁क्षेत्र	-10.9283
▁proportion	-10.9283
▁sample	-10.9283
▁quarter	-10.9283
▁dispute	-10.9283
▁fool	-10.9284
▁Christian	-10.9285
рез	-10.9286
▁fuel	-10.9287
▁Iraq	-10.9287
▁ensemble	-10.9287
▁equipo	-10.929
▁Naciones	-10.9291
ort	-10.9298
▁Nov	-10.9298
▁imagine	-10.93
ties	-10.93
▁Namen	-10.9301
▁cara	-10.9305
▁eux	-10.9306
roll	-10.9307
▁sounds	-10.931
▁esos	-10.931
▁removed	-10.9311
▁какой	-10.9316
TR	-10.9319
▁Try	-10.9319
`	-10.9319
▁बदल	-10.9322
▁किस	-10.9323
▁सो	-10.9323
année	-10.9323
▁Test	-10.9324
▁глав	-10.9326
▁install	-10.9329
ax	-10.933
▁Nacht	-10.933
िर	-10.9332
rico	-10.9334
▁Ле	-10.9339
▁quit	-10.934
▁Dezember	-10.934
▁ourselves	-10.934
▁назад	-10.934
▁worst	-10.934
▁Earth	-10.934
▁Agency	-10.934
ировать	-10.934
▁слишком	-10.9341
▁Sure	-10.9344
▁email	-10.9344
1/	-10.9346
▁найти	-10.9347
▁wonderful	-10.9347
If	-10.9348
▁canadienne	-10.9349
bal	-10.9351
▁готов	-10.9357
ory	-10.9358
▁Ch	-10.9361
▁rot	-10.9364
▁fixed	-10.9366
ugh	-10.9367
Quieres	-10.9367
▁sales	-10.9368
▁default	-10.9369
/2013	-10.937
▁especial	-10.9371
ND	-10.9371
уб	-10.9372
▁installation	-10.9374
LI	-10.9374
vr	-10.9376
▁comments	-10.9377
▁ideal	-10.9377
▁animals	-10.938
▁bio	-10.9382
▁Parlament	-10.9385
йся	-10.9386
4/	-10.9387
▁nuestros	-10.9388
▁names	-10.9392
▁वा	-10.9392
▁voll	-10.9396
▁impossible	-10.9396
▁yesterday	-10.9396
▁Remember	-10.9396
▁पूरा	-10.9396
▁reçu	-10.9396
▁Support	-10.9397
idas	-10.9399
▁моей	-10.9399
भी	-10.94
▁jump	-10.94
ías	-10.9402
▁dazu	-10.9403
▁Joseph	-10.9405
9€	-10.9405
vir	-10.9407
▁Meine	-10.9413
▁stick	-10.9415
▁busy	-10.9418
▁-¿	-10.942
айте	-10.9422
▁année	-10.9423
▁north	-10.9424
टे	-10.9426
▁Mau	-10.9426
▁Vot	-10.9431
ление	-10.9431
isme	-10.9434
other	-10.9442
▁administration	-10.9444
▁frei	-10.9444
▁छ	-10.9447
▁Ray	-10.9448
▁हाथ	-10.9451
gelbe	-10.9453
▁Давай	-10.9453
▁particulier	-10.9454
▁निस्संदेह	-10.9454
▁следует	-10.9454
▁hermano	-10.9454
▁hidden	-10.9454
▁Tenemos	-10.9454
▁split	-10.9454
▁propose	-10.9455
▁slow	-10.9455
▁evaluation	-10.9457
▁Nobody	-10.9457
point	-10.9459
▁लिख	-10.9461
▁страны	-10.9463
▁Team	-10.9463
▁aujourd	-10.9464
imo	-10.9466
2001	-10.9467
▁folk	-10.9468
кл	-10.9468
▁Cat	-10.9469
▁Ба	-10.9469
▁laid	-10.9471
▁Wise	-10.9472
▁цен	-10.9476
/2012	-10.9479
▁glaube	-10.948
▁bill	-10.9481
dam	-10.9485
gul	-10.9486
tric	-10.9488
geben	-10.9488
EEC	-10.9489
emploi	-10.9492
mont	-10.9492
▁jeunes	-10.9494
▁Bla	-10.9495
▁entreprises	-10.9496
▁Got	-10.9498
500	-10.9499
▁limited	-10.9501
industrie	-10.9501
▁loan	-10.9502
unter	-10.9504
▁actor	-10.9508
▁tea	-10.9509
1⁄4	-10.9511
▁bought	-10.9511
▁Telefon	-10.9511
▁owner	-10.9512
▁सहेजें	-10.9512
▁grandes	-10.9513
▁estate	-10.9513
▁Unidas	-10.9514
▁south	-10.9514
ject	-10.9517
▁cities	-10.9521
/08/	-10.9521
▁expressed	-10.9526
ден	-10.9527
▁Six	-10.9527
▁couch	-10.9532
▁Point	-10.9537
▁scale	-10.9537
▁net	-10.9537
eo	-10.9539
▁Tr	-10.9539
пре	-10.9541
▁appel	-10.9546
▁surprise	-10.9549
tory	-10.9549
▁employees	-10.9556
су	-10.9558
▁offered	-10.9559
▁spot	-10.956
▁algunos	-10.9563
▁abandon	-10.9563
▁Product	-10.9563
▁demandé	-10.9564
guide	-10.9567
nous	-10.9567
▁दोस्त	-10.9567
▁Spanish	-10.9569
punkt	-10.957
▁broad	-10.9571
реш	-10.9573
▁victims	-10.9576
▁approved	-10.9576
▁Help	-10.9578
▁जाते	-10.9578
▁einmal	-10.9581
based	-10.9584
шла	-10.9585
raum	-10.9585
ï	-10.9595
bon	-10.9596
?”	-10.9597
▁invited	-10.9597
wert	-10.9598
▁Пред	-10.96
▁returns	-10.9601
État	-10.9608
LO	-10.9609
рен	-10.9611
▁require	-10.9612
lant	-10.9614
rf	-10.9617
▁vin	-10.9619
2/	-10.9619
▁includes	-10.962
▁लाए	-10.9621
▁tenga	-10.9622
▁Гр	-10.9622
▁soir	-10.9623
lei	-10.9625
▁places	-10.9626
▁Jetzt	-10.9627
она	-10.9628
MA	-10.9628
▁Deutschland	-10.9628
▁stopped	-10.9629
thy	-10.9629
▁Где	-10.9629
topic	-10.963
▁pair	-10.963
▁lange	-10.9631
▁120	-10.9632
▁communications	-10.9632
▁Master	-10.9635
лл	-10.9635
▁relation	-10.9638
нт	-10.9639
»,	-10.964
фор	-10.964
▁delivery	-10.9642
▁park	-10.9649
▁defined	-10.965
▁Key	-10.9653
euse	-10.9654
aut	-10.9654
▁lang	-10.9656
tuvo	-10.9658
след	-10.9659
▁;	-10.966
▁होना	-10.9665
▁ос	-10.9665
▁wall	-10.9667
▁62	-10.9668
▁mari	-10.9669
▁workers	-10.9672
▁Са	-10.9672
▁Except	-10.9677
ाया	-10.9681
▁addressed	-10.9684
▁GO	-10.9684
स्थ	-10.9684
▁occur	-10.9685
▁licence	-10.9685
▁Entscheidung	-10.9685
▁Street	-10.9686
▁regret	-10.9686
kon	-10.9686
▁challenge	-10.9688
▁правда	-10.9688
▁Year	-10.9689
▁chef	-10.9689
▁adult	-10.9691
▁sería	-10.9692
▁fit	-10.9692
▁wedding	-10.9694
▁Whatever	-10.9694
NS	-10.9696
▁steht	-10.9696
▁dose	-10.9697
dit	-10.97
tum	-10.9701
▁opening	-10.9704
prob	-10.9706
▁AG	-10.971
▁Fer	-10.9711
чн	-10.9718
erie	-10.972
उन	-10.9722
▁traditional	-10.9724
▁faces	-10.9725
▁reduce	-10.9725
NA	-10.9726
▁haut	-10.9726
ider	-10.9727
pping	-10.9728
▁stress	-10.9731
▁форм	-10.9733
ही	-10.9734
▁habla	-10.9736
▁arms	-10.9742
ío	-10.9743
▁demasiado	-10.9744
▁oportunidad	-10.9744
▁ministre	-10.9744
▁llegar	-10.9746
▁HIV	-10.9746
▁appointment	-10.9747
▁transform	-10.9747
▁permission	-10.9747
vec	-10.9748
vic	-10.9752
▁huge	-10.9755
enta	-10.976
TO	-10.9762
ления	-10.9762
▁Cela	-10.9765
▁Л	-10.9765
▁1989	-10.9769
legen	-10.9771
▁खोलें	-10.9773
▁broken	-10.9774
▁noted	-10.9775
iones	-10.9776
itud	-10.9781
naire	-10.9784
For	-10.9785
▁procedures	-10.9786
▁highest	-10.9787
▁showed	-10.9787
▁lado	-10.9796
▁einige	-10.98
2,	-10.9802
▁Ministry	-10.9803
▁Vielleicht	-10.9803
▁although	-10.9803
▁сессии	-10.9803
▁Museum	-10.9803
▁люди	-10.9803
▁Company	-10.9804
▁wild	-10.9804
▁Everyone	-10.9805
▁tête	-10.9805
▁उसको	-10.9805
▁priority	-10.9805
▁bajo	-10.9805
▁fils	-10.9806
▁род	-10.9806
▁gab	-10.9808
▁2014,	-10.9808
▁pensé	-10.9808
/12/	-10.9811
▁identified	-10.9811
▁réunion	-10.9811
▁truck	-10.9814
rro	-10.9815
▁EN	-10.9815
▁61	-10.9825
тся	-10.9826
last	-10.9828
cies	-10.9828
▁permet	-10.9829
▁effet	-10.983
▁funding	-10.9831
▁occasion	-10.9834
▁Qur	-10.9835
▁Kur	-10.9835
ена	-10.9837
▁(18	-10.9838
▁Frage	-10.9846
même	-10.9846
шел	-10.9849
ню	-10.9852
-6	-10.9853
rab	-10.9854
▁blog	-10.9857
▁Ci	-10.9861
1,	-10.9862
▁क़	-10.9862
▁Google	-10.9863
▁suficiente	-10.9863
▁GMT	-10.9863
▁cambio	-10.9863
▁वक्त	-10.9863
▁Henry	-10.9863
▁बड़े	-10.9864
▁acerca	-10.9864
▁anywhere	-10.9865
स्क	-10.9871
▁sing	-10.9871
▁century	-10.9873
▁Close	-10.9877
then	-10.9877
Li	-10.9878
▁Stay	-10.9884
CA	-10.9885
▁Edit	-10.9887
▁Unies	-10.9888
▁ausge	-10.989
▁तब	-10.9896
▁initiative	-10.9897
▁Раз	-10.9898
▁prefer	-10.9899
▁Allez	-10.9904
ego	-10.9905
▁дома	-10.9907
▁muchas	-10.9912
▁Januar	-10.9912
▁ле	-10.9912
▁primero	-10.9913
▁Tage	-10.9913
▁eh	-10.9921
▁medicine	-10.9923
▁influence	-10.9923
▁Think	-10.9923
▁Clear	-10.9923
▁Indian	-10.9925
▁भेजा	-10.9926
▁Buch	-10.9926
▁bestimmt	-10.9932
▁Western	-10.9935
▁fonds	-10.994
▁ज़	-10.9948
▁einge	-10.995
▁बचा	-10.9952
▁पड़	-10.9953
bed	-10.9955
shed	-10.9956
dores	-10.9956
2013	-10.9957
▁возможно	-10.9959
▁gods	-10.9959
schw	-10.9961
▁manner	-10.9962
дей	-10.9963
▁14,	-10.9963
/19	-10.9966
▁interesting	-10.9972
oire	-10.9973
▁books	-10.9976
/18	-10.9976
▁sac	-10.9979
▁turns	-10.9982
▁Sonntag	-10.9983
▁Welcome	-10.9983
▁voulez	-10.9983
▁тогда	-10.9983
▁situación	-10.9983
▁Meeting	-10.9983
▁Water	-10.9986
▁representatives	-10.9987
▁marry	-10.9988
EM	-10.9988
▁हि	-10.9995
▁खाता	-10.9995
▁lu	-10.9996
▁financier	-10.9996
жден	-11.0003
जे	-11.0005
GE	-11.0005
▁Merci	-11.0007
▁ladies	-11.0008
▁independent	-11.001
far	-11.0011
▁aliment	-11.0013
▁tro	-11.0016
▁quien	-11.0017
gré	-11.0018
▁kannst	-11.0018
ember	-11.002
say	-11.002
▁bru	-11.0021
▁technologies	-11.0021
▁सम	-11.0021
▁experts	-11.0022
▁derechos	-11.0023
▁reasons	-11.0023
ятся	-11.0026
ists	-11.0027
EU	-11.0028
▁ustedes	-11.0028
▁glass	-11.0028
▁कहने	-11.003
▁mil	-11.0031
ulation	-11.0036
▁государств	-11.0039
▁Nu	-11.0039
ué	-11.004
лин	-11.0042
après	-11.0043
▁Gemeinschaft	-11.0044
▁Mittwoch	-11.0044
▁Теперь	-11.0044
▁प्रारंभ	-11.0044
▁clothes	-11.0044
▁heavy	-11.0044
▁जबकि	-11.0045
▁moyen	-11.0045
▁airport	-11.0046
▁nivel	-11.0047
▁annex	-11.0047
née	-11.0048
▁nobody	-11.0048
oma	-11.0048
▁paar	-11.0053
▁convention	-11.0053
▁mass	-11.0054
info	-11.0055
post	-11.0055
▁risque	-11.0055
/1	-11.0055
▁Deb	-11.0062
▁Peace	-11.0064
rad	-11.0065
▁Lady	-11.0065
जि	-11.0066
that	-11.0066
▁espera	-11.0068
ющих	-11.0069
▁Lake	-11.0071
law	-11.0075
werk	-11.008
gabe	-11.0081
wp	-11.0082
zahl	-11.0083
▁express	-11.0084
▁nations	-11.0088
TC	-11.0098
▁Wort	-11.01
▁शायद	-11.0105
Ü	-11.0105
▁approval	-11.0105
▁किन्तु	-11.0105
▁Church	-11.0105
▁physical	-11.0105
▁honey	-11.0105
▁battle	-11.0105
▁Потому	-11.0106
▁Parlement	-11.0106
▁dabei	-11.0106
▁Federal	-11.0107
ella	-11.0108
▁Light	-11.0112
зв	-11.0114
▁(6)	-11.0114
wand	-11.0116
▁100%	-11.0118
uß	-11.0119
▁officer	-11.0119
▁aucun	-11.0121
▁Wind	-11.0123
gging	-11.0127
wise	-11.0127
▁elements	-11.0128
▁released	-11.0128
▁root	-11.0128
▁Estado	-11.0136
rung	-11.0136
rons	-11.014
▁killer	-11.0141
▁aider	-11.0143
ancia	-11.0144
▁politiques	-11.0145
ская	-11.0147
▁बनाएँ	-11.0147
stan	-11.015
▁дел	-11.0153
Add	-11.0154
ala	-11.0155
▁आओ	-11.0157
▁брат	-11.0157
ordre	-11.0157
2000	-11.0158
3/	-11.0158
poli	-11.0159
▁CON	-11.016
жал	-11.016
▁Still	-11.0162
▁बी	-11.0166
▁झूठ	-11.0166
▁campaign	-11.0166
▁जैसे	-11.0166
▁amazing	-11.0166
▁destination	-11.0166
▁guerre	-11.0166
▁повестк	-11.0166
▁trouvé	-11.0166
▁labour	-11.0166
▁réponse	-11.0166
▁Austria	-11.0166
▁montant	-11.0166
▁praise	-11.0167
▁seguir	-11.0167
aine	-11.0168
▁Scott	-11.0168
▁прямо	-11.0169
▁Sohn	-11.017
▁Mitgliedstaaten	-11.0171
▁Recht	-11.0171
▁तुमको	-11.0174
▁idiot	-11.0174
▁oh	-11.0176
▁आए	-11.0182
▁हा	-11.0184
▁Ap	-11.0184
▁Vale	-11.0184
▁determined	-11.0186
ike	-11.0188
fon	-11.0188
Su	-11.019
овой	-11.019
▁Van	-11.0192
▁Lot	-11.0197
▁conven	-11.0198
▁важно	-11.0198
▁strange	-11.0202
лог	-11.0203
],	-11.0205
▁leg	-11.0205
▁Ан	-11.0206
सर	-11.0207
уча	-11.0208
▁ganze	-11.0208
▁VI	-11.0212
▁gardens	-11.0214
▁aspects	-11.0216
tente	-11.0217
▁mol	-11.0217
(2)	-11.0218
▁Вам	-11.0219
▁Mad	-11.0221
▁viol	-11.0223
▁forms	-11.0228
▁expenditure	-11.0228
▁numéro	-11.0228
▁poverty	-11.0228
▁которых	-11.0228
▁conseil	-11.0228
▁administrative	-11.0228
▁немного	-11.0228
▁знать	-11.0228
▁coordination	-11.0229
▁Machine	-11.0229
पूरी	-11.023
▁cook	-11.023
▁commune	-11.023
istic	-11.0231
▁signed	-11.0236
druck	-11.0237
▁River	-11.0239
icos	-11.0241
▁units	-11.0242
▁achieve	-11.0244
▁28,	-11.0249
▁suffer	-11.0252
gent	-11.0256
▁lines	-11.0256
▁MA	-11.0265
гру	-11.0266
фа	-11.0266
▁सु	-11.0266
▁menu	-11.0268
igne	-11.027
▁tradition	-11.0271
▁associate	-11.0271
▁sei	-11.0274
йтесь	-11.0275
▁Import	-11.0275
▁ответ	-11.0278
▁Dia	-11.0278
hren	-11.0279
▁finding	-11.0279
▁Совет	-11.028
▁Grand	-11.0281
entre	-11.0281
дать	-11.0283
сси	-11.0286
AU	-11.0286
ked	-11.0288
▁dachte	-11.0288
▁channel	-11.029
▁domestic	-11.029
▁column	-11.029
▁incident	-11.029
▁мужчин	-11.029
▁applied	-11.029
▁Привет	-11.029
▁Christmas	-11.029
▁Daniel	-11.0291
▁régime	-11.0291
▁corps	-11.0292
▁Another	-11.0292
▁hija	-11.0293
▁Justice	-11.0293
▁Bob	-11.0294
▁свой	-11.0296
▁seinem	-11.0297
▁mental	-11.0297
дав	-11.0297
▁COM	-11.0301
▁Satan	-11.0301
cut	-11.0308
PR	-11.0311
▁bro	-11.0312
▁दूसरे	-11.0312
▁CH	-11.0313
▁carte	-11.0314
▁factor	-11.0314
ेन	-11.0314
▁tired	-11.0316
▁terme	-11.0319
▁payment	-11.0324
..."	-11.0326
▁convert	-11.0328
▁Кон	-11.033
▁advance	-11.0332
ян	-11.0334
ska	-11.0335
▁hombres	-11.0336
▁refuge	-11.0336
▁poste	-11.0337
rais	-11.0339
▁große	-11.034
▁Bru	-11.0341
▁इं	-11.0342
हम	-11.0343
uz	-11.0346
▁esas	-11.0348
ides	-11.0349
▁proceed	-11.0352
▁entered	-11.0352
▁потом	-11.0352
▁millones	-11.0352
▁novembre	-11.0352
▁प्यार	-11.0352
▁muerte	-11.0352
▁appeal	-11.0352
▁Leave	-11.0353
▁जाएगी	-11.0353
▁Hol	-11.0354
्ज	-11.0355
▁alternative	-11.0357
▁fiscal	-11.0359
▁repent	-11.036
▁1980	-11.036
▁думал	-11.0363
rei	-11.0364
▁album	-11.0364
▁Era	-11.0365
Si	-11.0365
▁Bur	-11.0367
▁fighting	-11.0367
▁weren	-11.0368
▁हे	-11.0368
▁Hour	-11.0369
▁vehicle	-11.0371
bor	-11.0374
▁associated	-11.0375
▁problèmes	-11.0376
▁audit	-11.0386
▁described	-11.0386
ew	-11.0388
▁cal	-11.0392
SI	-11.0395
गल	-11.0396
▁Ol	-11.0396
▁ओ	-11.0397
▁Gold	-11.0399
▁Institute	-11.0399
▁update	-11.0401
lay	-11.0404
IG	-11.0404
кон	-11.0408
▁poli	-11.0411
▁metal	-11.0415
▁Perhaps	-11.0415
▁ejemplo	-11.0415
▁marriage	-11.0415
▁liquid	-11.0415
▁puerta	-11.0415
▁temperature	-11.0416
▁Division	-11.0416
▁मगर	-11.0416
▁Standard	-11.0416
▁planned	-11.0417
isé	-11.0417
▁requires	-11.0418
anza	-11.0418
▁необходимо	-11.0418
▁Power	-11.0419
▁Guide	-11.0422
fully	-11.0423
▁discrimination	-11.0424
lim	-11.0425
▁Ali	-11.0425
ष	-11.0427
▁नए	-11.0428
▁causa	-11.0429
ация	-11.0432
▁drugs	-11.0433
▁unos	-11.0437
▁onto	-11.0437
▁Agent	-11.0437
иров	-11.0438
▁pleased	-11.0439
▁esté	-11.0441
culo	-11.0442
▁Nay	-11.0452
▁Fla	-11.0454
▁pueda	-11.0454
von	-11.0455
▁recognize	-11.0459
▁determine	-11.0465
▁Hav	-11.0465
▁meiner	-11.0468
▁fur	-11.0471
▁correspond	-11.0471
▁Нам	-11.0475
▁Although	-11.0479
▁driving	-11.0479
▁juillet	-11.0479
▁помочь	-11.0479
▁cabeza	-11.0479
▁मिटाएँ	-11.0479
▁led	-11.0479
▁Control	-11.0479
▁bedroom	-11.0479
▁रखते	-11.0479
▁63	-11.048
▁fueron	-11.0483
▁Design	-11.0485
▁Server	-11.0485
▁2)	-11.0488
जन	-11.0488
▁0%	-11.049
files	-11.0492
▁Maria	-11.0492
▁roll	-11.0493
lev	-11.0498
▁pages	-11.0499
▁leaders	-11.0501
▁contained	-11.0503
▁Game	-11.0506
chan	-11.0511
▁Pu	-11.0512
▁setting	-11.0513
late	-11.0519
यों	-11.052
▁Estaba	-11.0521
▁Из	-11.0522
ismo	-11.0523
fern	-11.0524
▁earn	-11.0526
Ver	-11.053
чь	-11.0534
▁gana	-11.0534
▁flat	-11.0535
évaluation	-11.0535
ischer	-11.0536
uda	-11.0537
▁Entwicklung	-11.0538
▁वास्तव	-11.0542
▁expert	-11.0542
▁criteria	-11.0542
▁holiday	-11.0542
▁बेहतर	-11.0542
▁Aquí	-11.0542
▁момент	-11.0542
▁emergency	-11.0542
▁committee	-11.0542
▁Jean	-11.0545
▁otras	-11.0546
▁caught	-11.0546
ंज	-11.0548
▁colour	-11.0549
▁своих	-11.0549
▁Bri	-11.0549
▁хочет	-11.0551
▁Line	-11.0552
▁wahr	-11.0552
EX	-11.0553
▁kleine	-11.0554
▁blame	-11.0555
▁रा	-11.0557
▁1:	-11.056
▁Sand	-11.0563
▁soutien	-11.0563
▁hero	-11.0565
get	-11.0568
▁Roman	-11.0569
ительно	-11.057
PO	-11.057
aría	-11.0575
▁2:	-11.058
тро	-11.058
CP	-11.0581
akt	-11.0581
▁posts	-11.0582
▁Sy	-11.0584
▁%2	-11.0584
ист	-11.0589
crit	-11.0593
ión	-11.06
Unis	-11.06
▁MwSt	-11.0606
▁Breakfast	-11.0606
▁external	-11.0606
▁Знаешь	-11.0606
▁ज्यादा	-11.0606
▁insurance	-11.0606
▁Foreign	-11.0606
▁चुके	-11.0607
▁Kom	-11.0607
▁electronic	-11.0607
▁वाली	-11.0607
▁division	-11.0607
▁devant	-11.0608
▁Unión	-11.0609
▁("	-11.061
▁denied	-11.0611
▁Mm	-11.0612
▁vois	-11.0614
▁tab	-11.0615
▁Association	-11.0616
▁Alex	-11.0616
▁concerns	-11.0616
▁relatives	-11.0621
▁lucky	-11.0622
▁FOR	-11.0622
▁Matt	-11.0622
UL	-11.0622
▁chair	-11.0623
▁recommended	-11.0627
▁Ski	-11.0627
▁гор	-11.0628
▁lors	-11.0632
▁проблем	-11.0636
▁21,	-11.0641
▁revelations	-11.0644
▁jemand	-11.0649
▁Tue	-11.065
▁Jul	-11.0652
▁CR	-11.0653
usa	-11.0657
▁भर	-11.0657
«	-11.0659
ён	-11.0659
▁Unto	-11.066
ुर	-11.0661
рав	-11.0663
ional	-11.0667
▁papá	-11.0671
▁мистер	-11.0671
▁café	-11.0671
▁Geschichte	-11.0671
▁capacité	-11.0671
▁survey	-11.0671
▁Hilfe	-11.0672
▁clase	-11.0672
▁label	-11.0673
йти	-11.0674
▁pop	-11.0674
нг	-11.0675
▁ओह	-11.0676
▁качестве	-11.0676
▁Mother	-11.0676
▁salir	-11.0678
ological	-11.0678
▁principles	-11.0679
▁cul	-11.0681
▁आयत	-11.0688
▁stehen	-11.0689
▁monitoring	-11.0692
star	-11.0693
▁queda	-11.0694
нуть	-11.0694
▁chain	-11.0697
▁अनु	-11.0698
▁говорил	-11.0701
▁buen	-11.0702
стрел	-11.0704
▁passer	-11.0704
▁Ag	-11.0706
▁पूर्ण	-11.0708
6/	-11.0709
▁solid	-11.0712
mbo	-11.0712
▁shower	-11.0713
इन	-11.0716
▁пла	-11.072
ATION	-11.072
▁можете	-11.0721
-0	-11.0722
▁jeden	-11.0722
▁Jane	-11.0724
voir	-11.0725
quat	-11.0728
▁temp	-11.0728
▁avis	-11.0732
gon	-11.0733
▁вопросам	-11.0736
▁bietet	-11.0736
▁segundo	-11.0736
▁मतलब	-11.0736
▁भाई	-11.0736
▁Center	-11.0737
▁mobile	-11.0738
dul	-11.0739
▁Durch	-11.0741
▁establishment	-11.0745
▁самом	-11.0745
▁wishes	-11.0747
▁Familie	-11.0747
▁Job	-11.0749
▁Place	-11.0751
▁(5	-11.0751
▁Bay	-11.0752
▁clo	-11.0753
▁greatest	-11.0753
▁useful	-11.0757
बे	-11.0758
▁видел	-11.0759
▁obligations	-11.076
▁cierto	-11.0761
▁pin	-11.0762
ими	-11.0762
▁dein	-11.0763
-06	-11.0764
ei	-11.0764
▁nécessaire	-11.0765
aje	-11.0767
▁meinem	-11.0768
▁bet	-11.0769
mble	-11.0769
▁ढ	-11.0771
▁leid	-11.0773
▁franc	-11.0779
▁Под	-11.0786
genommen	-11.0786
▁эта	-11.0787
▁Sag	-11.0794
doers	-11.0797
▁chat	-11.0798
▁dust	-11.08
▁euro	-11.0801
▁corazón	-11.0801
▁dimension	-11.0801
▁решение	-11.0801
▁innocent	-11.0801
▁Business	-11.0801
▁दिए	-11.0802
▁Question	-11.0802
▁Evolution	-11.0802
▁Thou	-11.0803
▁Daddy	-11.0803
▁देगा	-11.0803
east	-11.0804
▁print	-11.0804
▁tus	-11.0804
▁стороны	-11.0805
web	-11.0806
▁Tod	-11.0807
▁selection	-11.0807
▁sollen	-11.0807
▁teach	-11.0809
मी	-11.081
▁पढ़	-11.0811
▁voie	-11.0811
▁три	-11.0811
▁milk	-11.0815
ेड	-11.0818
▁fruits	-11.0823
▁पट्टी	-11.0826
▁consum	-11.0828
▁Vol	-11.0832
▁Mas	-11.0833
quel	-11.0833
вет	-11.0834
ские	-11.0835
▁э	-11.0835
under	-11.0841
▁hole	-11.0841
▁exception	-11.0843
▁river	-11.0843
▁monitor	-11.0845
▁interests	-11.0848
2012	-11.0848
main	-11.0852
rra	-11.0854
▁reco	-11.0855
▁Papa	-11.0856
ambi	-11.0856
band	-11.0857
sitz	-11.0857
▁Jim	-11.0857
▁matar	-11.0861
▁пункт	-11.0862
ites	-11.0863
zug	-11.0863
▁lock	-11.0864
▁wenig	-11.0866
étude	-11.0866
▁false	-11.0867
▁परिणाम	-11.0867
▁Science	-11.0867
▁côté	-11.0867
▁easily	-11.0867
▁septembre	-11.0867
▁пожалуйста	-11.0867
▁Club	-11.0867
▁federal	-11.0867
▁Га	-11.0867
OP	-11.0868
▁Kat	-11.0868
▁memory	-11.0868
▁shape	-11.0868
▁причин	-11.0869
▁रखा	-11.087
▁снова	-11.087
▁Ram	-11.0871
2014	-11.0874
▁1988	-11.0874
▁Italian	-11.0877
▁Minuten	-11.0878
▁mor	-11.0879
/2004	-11.0882
▁राह	-11.0885
ника	-11.0886
free	-11.0887
емся	-11.0887
card	-11.089
▁imagin	-11.089
▁हाल	-11.0892
▁Trade	-11.0894
▁valor	-11.0896
▁speaking	-11.0897
VE	-11.0899
▁celebr	-11.0909
▁konnte	-11.0909
вар	-11.0909
▁Kal	-11.0913
bat	-11.0914
▁dry	-11.0919
▁weitere	-11.0921
▁माँ	-11.0923
▁представлен	-11.093
▁agent	-11.0932
▁Rück	-11.0933
▁kitchen	-11.0934
stadt	-11.0934
▁chastisement	-11.0934
▁operating	-11.0935
▁minutos	-11.0935
rog	-11.0937
▁talked	-11.0938
cour	-11.0938
-7	-11.0942
PC	-11.0943
▁states	-11.0945
rien	-11.0945
▁photograph	-11.0945
▁Far	-11.0948
▁Tour	-11.0948
▁मो	-11.0948
ava	-11.0948
▁सह	-11.0948
print	-11.0948
▁Zi	-11.095
है	-11.095
ski	-11.0951
▁ancient	-11.0955
▁urban	-11.0955
PL	-11.0956
▁reduced	-11.0956
▁savez	-11.0961
nov	-11.0962
▁оста	-11.0963
▁affected	-11.0963
WP	-11.097
cup	-11.0973
2005	-11.0973
venu	-11.0978
ации	-11.098
▁discuss	-11.0981
▁81	-11.0982
▁analyse	-11.0986
Europe	-11.0986
/15	-11.0986
▁ging	-11.0987
are	-11.0987
puesto	-11.0988
▁canadien	-11.0989
▁право	-11.0991
дов	-11.0993
nia	-11.0993
wood	-11.0997
▁पंक्ति	-11.1
▁notamment	-11.1
▁smoke	-11.1
▁medium	-11.1
▁Тебе	-11.1
/0/	-11.1
▁Chairman	-11.1001
▁Chief	-11.1001
▁proposals	-11.1001
▁collaboration	-11.1003
▁उपयोक्ता	-11.1003
▁percent	-11.1003
▁reduction	-11.1004
▁pensar	-11.1007
▁retour	-11.1007
▁County	-11.1008
ников	-11.1009
▁->	-11.1013
more	-11.1014
pers	-11.1019
FA	-11.1022
ough	-11.1025
▁cycle	-11.1026
▁pension	-11.1028
▁Ham	-11.103
py	-11.1032
iro	-11.1035
▁etwa	-11.1035
▁organisation	-11.104
▁ok	-11.1041
rang	-11.1046
▁действительно	-11.1047
▁contrat	-11.1052
▁Cam	-11.1054
▁permanent	-11.1054
▁tele	-11.1058
▁Bus	-11.106
dal	-11.1062
▁Permanent	-11.1067
▁difícil	-11.1067
▁perspective	-11.1067
▁pueblo	-11.1067
▁relax	-11.1067
▁Voices	-11.1067
▁Failed	-11.1067
▁élevé	-11.1067
▁quatre	-11.1067
▁scheme	-11.1068
▁daily	-11.1068
▁taught	-11.1069
just	-11.1069
▁मह	-11.1071
5€	-11.1072
▁près	-11.1072
▁आयात	-11.1073
▁MO	-11.1074
▁88	-11.1075
from	-11.1076
BC	-11.1076
▁Washington	-11.1077
▁établi	-11.1078
”,	-11.1081
▁maps	-11.1082
▁wage	-11.1085
▁Both	-11.1085
▁coche	-11.1085
uploads	-11.1087
▁trace	-11.1087
▁Muy	-11.1087
मे	-11.1088
▁л	-11.109
▁stars	-11.1094
▁Wed	-11.1096
▁Кар	-11.1097
▁сто	-11.1098
▁lift	-11.1098
▁acting	-11.1099
▁Fra	-11.1099
▁Этот	-11.1103
ii	-11.1104
▁agents	-11.1104
▁pur	-11.1105
▁dernière	-11.1105
▁denen	-11.1107
क्या	-11.1107
▁Cuba	-11.111
▁jeder	-11.1115
▁medidas	-11.1116
▁internet	-11.1118
ât	-11.1119
▁86	-11.1119
▁institution	-11.1121
▁значит	-11.1121
▁66	-11.1123
Ф	-11.1123
▁cerca	-11.1124
एक	-11.1129
▁respecto	-11.1131
haft	-11.1132
▁bureau	-11.1132
▁comfort	-11.1133
BA	-11.1133
▁obliga	-11.1134
▁Education	-11.1135
▁entfernt	-11.1135
▁todavía	-11.1135
▁Тогда	-11.1135
▁Website	-11.1135
▁communities	-11.1135
▁descend	-11.1135
Ra	-11.1137
▁assez	-11.1138
▁extremely	-11.1139
▁Sarah	-11.1139
▁langue	-11.1141
▁assure	-11.1142
cciones	-11.1145
▁Todos	-11.1147
▁Fax	-11.1147
▁examen	-11.1149
▁помог	-11.1151
▁violation	-11.1152
▁хотела	-11.1152
ул	-11.1153
▁familiar	-11.1156
▁accounts	-11.1158
▁Kra	-11.1158
▁insist	-11.1159
▁подход	-11.116
▁Pay	-11.116
▁cup	-11.1163
nden	-11.1168
цен	-11.1168
▁missed	-11.117
▁trick	-11.117
ola	-11.1171
▁viene	-11.1173
erung	-11.1175
▁technique	-11.1175
cier	-11.1176
TM	-11.1179
▁modo	-11.1181
▁oui	-11.1181
DS	-11.1184
arbeit	-11.1192
▁casi	-11.1192
gio	-11.1199
/10/	-11.12
ूल	-11.1201
▁hubiera	-11.1203
▁свобод	-11.1203
▁इसलिए	-11.1203
▁conversation	-11.1203
▁médico	-11.1203
▁cuerpo	-11.1203
▁responsabilité	-11.1203
▁Everybody	-11.1203
FR	-11.1203
▁lunch	-11.1203
▁primary	-11.1203
▁sieht	-11.1203
▁preparation	-11.1206
RES	-11.1208
▁inner	-11.1208
▁erhalten	-11.1209
▁Sus	-11.1212
▁prueba	-11.1216
▁plate	-11.1216
▁association	-11.1224
▁filter	-11.1225
▁connais	-11.1226
▁Phil	-11.1228
▁organiz	-11.1231
▁beiden	-11.1233
▁एक्स	-11.1233
▁expression	-11.1233
cate	-11.1233
куп	-11.1233
▁перв	-11.1234
Bo	-11.1235
▁Эти	-11.1236
▁cards	-11.1239
▁dia	-11.1239
▁languages	-11.1242
▁growing	-11.1243
▁siguiente	-11.1244
▁Mass	-11.1245
.2.	-11.1246
▁truthful	-11.1246
▁Isn	-11.1246
ín	-11.1248
▁che	-11.1249
▁देने	-11.125
MO	-11.1253
sort	-11.1253
▁Hause	-11.1254
▁contribute	-11.1254
ui	-11.1255
▁Auch	-11.1259
Х	-11.1261
ème	-11.1263
лей	-11.1263
aurais	-11.1264
verdad	-11.1265
EE	-11.1265
▁quel	-11.1268
▁careful	-11.1268
▁stone	-11.1269
▁विषय	-11.1271
▁encuentra	-11.1271
▁pequeño	-11.1271
▁único	-11.1271
▁परिवर्तन	-11.1271
▁सकती	-11.1271
▁Paradise	-11.1271
▁olvid	-11.1271
▁दस्तावेज़	-11.1271
▁steal	-11.1272
ढ़	-11.1272
▁definition	-11.1272
▁wake	-11.1274
▁comité	-11.1275
▁household	-11.1275
▁datos	-11.1275
▁cinq	-11.1275
vy	-11.1276
▁कर्म	-11.1278
▁Unit	-11.1281
activité	-11.1281
▁kon	-11.1282
▁gaz	-11.1282
▁आपका	-11.1284
▁Wow	-11.1285
▁Ach	-11.1289
▁reden	-11.1291
▁мер	-11.1293
▁Run	-11.1295
▁sake	-11.1296
tina	-11.1297
▁96	-11.1298
▁goal	-11.1298
▁proof	-11.1303
тур	-11.1304
▁appears	-11.1304
▁бе	-11.1307
hlen	-11.1309
▁behold	-11.1312
▁poly	-11.1313
▁Off	-11.1313
▁Full	-11.1314
▁gate	-11.1315
▁DES	-11.1315
▁mountain	-11.1316
▁prob	-11.1316
appel	-11.1319
▁instruments	-11.132
▁78	-11.1322
hood	-11.1325
▁ruin	-11.1326
▁traité	-11.1327
/13	-11.1329
▁знает	-11.133
nas	-11.1335
▁meilleur	-11.1338
/7	-11.1338
▁accommodation	-11.134
▁principio	-11.134
▁वीडियो	-11.134
▁बुरा	-11.134
▁Wall	-11.134
▁जानकारी	-11.134
▁Watch	-11.134
▁Display	-11.134
▁यक़ीनन	-11.134
▁Rapport	-11.1341
▁coopération	-11.1341
lung	-11.1343
лад	-11.1343
▁несколько	-11.1343
▁Review	-11.1343
FI	-11.1344
▁saving	-11.1344
▁खुद	-11.1346
▁capable	-11.1349
▁abge	-11.1349
labor	-11.135
▁знаете	-11.1351
▁intended	-11.1351
▁consultations	-11.1352
▁PRO	-11.1352
téri	-11.1354
▁lista	-11.1358
люб	-11.1359
▁revenu	-11.1361
▁radi	-11.1361
▁carbon	-11.1363
▁bleiben	-11.1363
▁muchos	-11.1365
▁oeuvre	-11.1366
tention	-11.1367
▁neu	-11.1368
▁adoption	-11.1369
Po	-11.137
▁Produkte	-11.1371
▁Там	-11.1372
▁users	-11.1376
mate	-11.1377
▁रखें	-11.1379
▁entra	-11.138
▁bord	-11.138
▁erst	-11.1382
▁SU	-11.1384
▁Sab	-11.1385
▁highly	-11.1387
▁youth	-11.1388
▁Tro	-11.1391
▁ली	-11.1391
▁counter	-11.1392
▁pursu	-11.1394
▁leading	-11.1398
▁Link	-11.1399
uh	-11.1399
▁Mat	-11.1401
▁стоит	-11.1403
▁gesch	-11.1405
▁voyage	-11.1407
▁petite	-11.1408
▁Europea	-11.1409
▁Thomas	-11.1409
▁license	-11.1409
▁avril	-11.141
▁Executive	-11.141
▁tierra	-11.141
▁फाइल	-11.141
▁concert	-11.1411
VER	-11.1416
▁acaba	-11.1417
ían	-11.1417
▁octobre	-11.1418
▁अन	-11.1419
down	-11.142
▁CA	-11.1421
▁brauchen	-11.1423
еш	-11.1425
हे	-11.1426
▁2003,	-11.1428
▁Really	-11.1429
тен	-11.143
▁Ч	-11.143
lop	-11.1431
ky	-11.1431
▁journalist	-11.1432
▁bail	-11.1434
▁созда	-11.1434
▁texte	-11.1436
▁techniques	-11.1438
▁cab	-11.1438
▁achieved	-11.1439
▁archive	-11.1439
▁manage	-11.1439
aka	-11.1445
▁concerne	-11.145
▁laws	-11.1456
▁Wohnung	-11.1457
▁nehmen	-11.1458
▁niño	-11.1458
ями	-11.1459
▁Ä	-11.1461
▁conclusion	-11.1462
▁67	-11.1464
▁career	-11.1464
▁cama	-11.1465
▁commit	-11.1468
▁tema	-11.1468
▁motor	-11.1469
▁mandat	-11.1469
01.	-11.1471
▁Previous	-11.1471
▁85	-11.1472
част	-11.1473
जू	-11.1474
▁पे	-11.1479
Ó	-11.1479
▁représente	-11.1479
▁Luxembourg	-11.1479
▁Portugal	-11.1479
▁bottom	-11.1479
▁possibility	-11.1479
▁souvent	-11.1479
▁Network	-11.148
träge	-11.148
▁लिये	-11.148
▁juego	-11.148
▁Beispiel	-11.148
▁pretend	-11.1481
ega	-11.1481
▁Кром	-11.1482
▁sustainable	-11.1483
▁पानी	-11.1483
MB	-11.1485
cular	-11.1485
▁ill	-11.1486
▁char	-11.1489
▁процесс	-11.1492
▁realmente	-11.1492
oxy	-11.1496
▁discussed	-11.1496
िए	-11.15
▁Bou	-11.15
▁Ontario	-11.15
▁след	-11.1502
шь	-11.1502
phy	-11.1504
три	-11.1514
▁पहुँचा	-11.1515
▁वालों	-11.1518
▁idée	-11.1521
▁Ihren	-11.1523
▁कु	-11.1525
▁Op	-11.1525
▁steps	-11.1527
▁funciona	-11.1529
▁conf	-11.1532
nar	-11.1534
/2007	-11.1535
▁causes	-11.1535
stone	-11.1537
▁adapt	-11.1542
EST	-11.1544
▁Mil	-11.1547
matic	-11.1547
▁traffic	-11.1549
exercice	-11.155
▁Affairs	-11.155
▁déclaration	-11.155
▁financière	-11.155
▁प्रमाणपत्र	-11.155
▁purchase	-11.155
▁signature	-11.155
▁helfen	-11.155
▁suivi	-11.155
▁keeping	-11.155
▁Platz	-11.1551
▁Address	-11.1552
▁tongue	-11.1552
▁brand	-11.1553
ज़ा	-11.1553
▁домой	-11.1553
ено	-11.1553
2003	-11.1556
▁Ло	-11.1556
वार	-11.1556
▁Tim	-11.1557
rück	-11.1557
▁Mexico	-11.1558
▁Stunden	-11.156
▁rental	-11.156
▁gefunden	-11.1562
▁Mobile	-11.1562
▁Order	-11.1562
▁objectives	-11.1562
▁kurz	-11.1563
gger	-11.1565
▁président	-11.1565
▁directory	-11.1566
▁informed	-11.1569
All	-11.1569
▁Path	-11.1573
телей	-11.1573
▁older	-11.1574
▁musst	-11.1575
mbra	-11.1576
Ja	-11.1577
▁incl	-11.1579
keit	-11.1581
ngún	-11.1581
▁ак	-11.1582
▁opera	-11.1585
▁seized	-11.1585
▁amendments	-11.1588
▁owe	-11.1589
▁Haut	-11.1592
▁sitio	-11.1593
▁amigos	-11.1595
▁laugh	-11.1596
▁मोड	-11.1598
▁Noah	-11.1598
ppen	-11.16
▁servi	-11.1604
rica	-11.1605
▁invest	-11.1606
▁सुना	-11.1606
▁вз	-11.1607
▁игра	-11.1608
▁médica	-11.1612
rom	-11.1612
▁उठा	-11.1613
examen	-11.1615
▁wer	-11.1615
▁exact	-11.1616
▁faites	-11.1616
▁certaines	-11.162
ились	-11.162
▁Position	-11.1621
▁ministère	-11.1621
▁Всё	-11.1621
▁Pacific	-11.1621
▁матери	-11.1621
▁chemical	-11.1621
▁पुकार	-11.1621
▁surveillance	-11.1621
▁birthday	-11.1621
▁bottle	-11.1621
▁cheap	-11.1622
▁говорить	-11.1624
▁score	-11.1624
esse	-11.1624
▁Hör	-11.1624
▁Operation	-11.1625
2016	-11.1632
▁houses	-11.1634
blo	-11.1636
jahr	-11.1638
▁allows	-11.1642
▁SP	-11.1642
▁Gre	-11.1643
▁होकर	-11.1643
oir	-11.1644
Our	-11.1647
▁Ban	-11.1647
▁71	-11.1649
▁trend	-11.165
▁होते	-11.1651
▁uniform	-11.1651
▁leader	-11.1652
▁notes	-11.1659
нер	-11.1659
▁sending	-11.166
▁этому	-11.166
▁PA	-11.1661
▁Environment	-11.1661
ума	-11.1665
знач	-11.1667
твор	-11.1669
lassen	-11.1672
▁province	-11.1674
▁यू	-11.1676
▁Bild	-11.1676
▁labor	-11.1677
utilisation	-11.1687
Next	-11.1687
ensemble	-11.1687
▁fini	-11.1687
▁LE	-11.1689
▁cuatro	-11.1692
▁mientras	-11.1692
▁principe	-11.1692
▁Безопасности	-11.1692
▁janvier	-11.1692
▁remote	-11.1692
▁Alexander	-11.1692
▁falta	-11.1692
▁Representative	-11.1693
▁darauf	-11.1693
▁formal	-11.1693
З	-11.1695
▁walking	-11.1696
▁nouveaux	-11.1697
▁prop	-11.1701
▁talent	-11.1701
▁invite	-11.1702
▁aurait	-11.1703
▁Folder	-11.1704
▁Texas	-11.1705
▁laquelle	-11.1705
▁multiple	-11.1706
▁overall	-11.1708
▁topic	-11.1709
▁выполн	-11.1711
▁semble	-11.1712
▁hum	-11.1714
▁recognized	-11.1715
aught	-11.1715
▁रू	-11.1717
dom	-11.1718
Car	-11.1719
▁algunas	-11.1721
▁mid	-11.1722
▁trav	-11.1727
▁pasar	-11.1727
рок	-11.173
nap	-11.173
sam	-11.1739
▁Woche	-11.1741
▁poner	-11.1741
िम	-11.1741
VI	-11.1742
près	-11.1743
▁государства	-11.1746
▁Class	-11.175
Co	-11.175
▁своим	-11.1751
ге	-11.1753
▁кое	-11.1753
ून	-11.1756
folge	-11.1761
▁Indi	-11.1763
▁#5	-11.1763
▁edit	-11.1764
▁Haupt	-11.1764
▁Mädchen	-11.1764
▁सक्रिय	-11.1764
▁Energy	-11.1764
▁Gesamt	-11.1764
▁approximate	-11.1764
▁relación	-11.1764
▁Spirit	-11.1764
▁команд	-11.1764
▁fellow	-11.1765
Die	-11.1766
▁ECU	-11.1766
▁rare	-11.1768
EP	-11.1771
▁podía	-11.1773
▁paz	-11.1778
▁Chapter	-11.1779
▁User	-11.178
▁Abend	-11.1783
▁Ла	-11.1784
2017	-11.1785
load	-11.1786
▁लें	-11.1786
▁Dev	-11.1788
▁urgent	-11.1792
AF	-11.1796
▁раздел	-11.1796
▁wearing	-11.1796
tle	-11.1797
мат	-11.1799
▁mix	-11.1801
hold	-11.1802
▁बदलें	-11.1802
▁learned	-11.1804
tors	-11.1804
▁continues	-11.1804
▁देखने	-11.1805
▁rapports	-11.1808
▁transition	-11.1809
▁recorded	-11.181
nne	-11.181
▁elles	-11.1814
▁Quel	-11.1817
▁2001,	-11.1817
▁Want	-11.182
▁Frauen	-11.1821
▁Аллах	-11.1821
▁झ	-11.1822
▁Fuck	-11.1824
▁स्व	-11.1825
▁групп	-11.1826
mod	-11.1828
▁rester	-11.1829
▁chambre	-11.1837
▁circumstances	-11.1837
▁твоя	-11.1837
▁телефон	-11.1837
▁Restaurant	-11.1837
▁willing	-11.1838
▁bright	-11.1839
▁pieces	-11.1839
▁genre	-11.1839
▁outcome	-11.1841
▁बनाने	-11.1842
griff	-11.1843
▁Gegen	-11.1845
▁बह	-11.1847
text	-11.1848
platz	-11.1852
▁motion	-11.1853
▁сме	-11.1854
▁hol	-11.1856
tine	-11.1858
▁compared	-11.1858
▁treated	-11.186
▁रि	-11.186
mobil	-11.1864
ган	-11.1866
▁Access	-11.1869
▁Carl	-11.187
▁tough	-11.187
voll	-11.1871
ям	-11.1874
100	-11.1875
/6	-11.1877
▁joy	-11.1879
еб	-11.1885
▁programs	-11.1886
▁obtain	-11.1895
▁250	-11.1896
▁customers	-11.1896
▁objective	-11.1899
▁resource	-11.19
▁Reg	-11.1901
DC	-11.1902
▁sentir	-11.1904
LY	-11.1905
▁गलत	-11.1905
▁Arab	-11.1908
▁Projekt	-11.191
▁Kosovo	-11.191
▁référence	-11.191
▁apoyo	-11.191
▁knock	-11.191
Assemblée	-11.191
▁mercado	-11.191
▁claro	-11.191
▁girlfriend	-11.191
▁Little	-11.191
▁तीन	-11.191
▁23,	-11.1911
▁failure	-11.1911
▁0.01	-11.1911
ँह	-11.1913
▁aucune	-11.1914
▁Liebe	-11.1915
lus	-11.1916
▁offen	-11.1916
appelle	-11.1921
▁detailed	-11.1922
born	-11.1923
▁pardon	-11.1924
▁Rock	-11.1924
▁calcul	-11.1927
ешься	-11.1929
▁Mel	-11.1929
▁height	-11.193
▁climate	-11.1931
▁largest	-11.1932
3%	-11.1933
vision	-11.1935
CK	-11.1939
▁26,	-11.194
▁72	-11.1941
▁город	-11.1941
ज़ी	-11.1943
лом	-11.1947
state	-11.1947
▁delay	-11.1948
▁Mur	-11.1954
лив	-11.1954
▁commun	-11.1954
▁salt	-11.1955
SH	-11.1955
▁commence	-11.1964
नो	-11.1966
mut	-11.1971
нее	-11.1972
tiques	-11.1974
rah	-11.1979
▁spoke	-11.1979
▁consultation	-11.1981
gestellt	-11.1981
application	-11.1981
▁meat	-11.1981
▁Maintenant	-11.1983
▁horrible	-11.1983
▁परियोजना	-11.1983
▁Angst	-11.1983
▁mierda	-11.1983
▁sondern	-11.1983
▁Прав	-11.1983
▁Bett	-11.1983
▁paix	-11.1984
▁lay	-11.1985
▁सोच	-11.1985
▁powerful	-11.1988
▁Corr	-11.1989
▁crew	-11.1989
▁Net	-11.1991
bul	-11.1992
life	-11.1993
tado	-11.1994
▁देंगे	-11.1995
▁passiert	-11.1997
▁कै	-11.1997
▁aura	-11.1997
try	-11.1998
▁puesto	-11.1998
-03	-11.1998
▁closer	-11.1999
▁mío	-11.2001
▁Photo	-11.2001
▁wirst	-11.2001
▁Ку	-11.2002
▁peur	-11.2002
phone	-11.2004
pal	-11.2005
▁écrit	-11.2005
own	-11.2007
▁Danny	-11.2009
▁собира	-11.201
▁termina	-11.2012
▁Gro	-11.2013
pet	-11.2013
▁बु	-11.2015
▁tut	-11.2015
ctor	-11.2017
▁player	-11.2018
▁llamar	-11.2018
▁acid	-11.2018
arios	-11.202
▁methods	-11.2022
▁meaning	-11.2029
▁चाहे	-11.203
jar	-11.2031
▁27,	-11.2032
▁avaient	-11.2032
▁arrivé	-11.204
0.00	-11.204
▁provisional	-11.2044
▁Feb	-11.2047
▁ga	-11.205
▁leaves	-11.205
vio	-11.2051
▁Berg	-11.2051
ième	-11.2053
▁सद	-11.2053
Ч	-11.2055
▁डे	-11.2055
▁Dinge	-11.2056
BS	-11.2057
stelle	-11.2057
▁igual	-11.2057
▁Brussels	-11.2057
▁информацию	-11.2057
▁समूह	-11.2057
▁स्क्रीन	-11.2057
▁Energie	-11.2057
▁Account	-11.2057
▁identify	-11.2057
▁instance	-11.2058
▁Jimmy	-11.2058
▁мо	-11.2058
▁Chris	-11.2058
▁другой	-11.2061
gno	-11.2062
▁warn	-11.2062
▁prest	-11.2064
▁выход	-11.2065
▁fly	-11.2067
▁cual	-11.2069
pdf	-11.2069
फा	-11.207
▁sofort	-11.207
sol	-11.2072
र्स	-11.2073
овал	-11.2075
▁fourni	-11.2075
▁रखो	-11.2076
▁Spe	-11.2076
idades	-11.2079
▁Regional	-11.208
▁visible	-11.208
handel	-11.208
▁р	-11.2081
▁fac	-11.2083
▁exists	-11.2085
▁défini	-11.2086
▁sand	-11.209
PP	-11.2091
нный	-11.2091
овых	-11.2092
▁mano	-11.2099
▁77	-11.21
▁spa	-11.21
▁solve	-11.21
▁served	-11.2103
▁Spa	-11.2106
▁experiment	-11.2107
▁Ton	-11.2109
▁Item	-11.2109
▁exceed	-11.211
▁participate	-11.2113
éro	-11.2114
рк	-11.2114
▁None	-11.2114
▁organ	-11.2115
▁rue	-11.2116
▁devil	-11.2118
▁dispositions	-11.2118
▁Ask	-11.2118
▁kick	-11.2119
even	-11.2119
tritt	-11.2119
▁allen	-11.212
▁sins	-11.2122
▁pose	-11.2124
employ	-11.2124
▁Too	-11.2125
▁notification	-11.2126
▁Danke	-11.2128
▁challenges	-11.2128
инг	-11.2129
▁separ	-11.2129
▁Ар	-11.213
▁difficile	-11.2132
▁square	-11.2132
▁एवोल्यूशन	-11.2132
▁counsel	-11.2132
▁definitely	-11.2132
▁preuve	-11.2132
▁objetivo	-11.2132
▁Agenda	-11.2132
▁Policy	-11.2132
▁Armenia	-11.2132
▁Draft	-11.2133
▁cloud	-11.2133
▁системы	-11.2134
▁देखते	-11.2135
▁MB	-11.2136
▁1985	-11.2137
▁Korea	-11.2139
ेशन	-11.2142
▁свет	-11.2144
tien	-11.2145
ряд	-11.2145
▁करके	-11.2148
▁candidat	-11.2152
-9	-11.2152
▁reminder	-11.2153
sky	-11.2155
▁CE	-11.2159
▁iba	-11.2161
▁गुण	-11.2164
▁mate	-11.2172
▁ante	-11.2172
▁remained	-11.2172
graph	-11.2174
▁wh	-11.2175
▁jeu	-11.2175
▁Holy	-11.2175
аг	-11.2176
▁brings	-11.2178
▁89	-11.2179
▁votes	-11.218
▁describe	-11.2187
▁prepare	-11.2187
ENT	-11.2189
mmen	-11.2191
▁killing	-11.2193
uchen	-11.2194
▁2000,	-11.2195
▁мои	-11.22
▁WE	-11.22
itch	-11.22
▁membre	-11.2202
▁coin	-11.2203
▁मि	-11.2204
organisation	-11.2206
▁única	-11.2207
▁blanc	-11.2208
Tiene	-11.2208
▁rid	-11.2208
bio	-11.2208
▁своего	-11.2209
▁concentration	-11.2209
▁filled	-11.2211
нем	-11.2211
▁Luc	-11.2212
▁enable	-11.2214
▁dépenses	-11.2215
дж	-11.2217
iten	-11.2217
2006	-11.2218
уж	-11.2219
/14	-11.222
ски	-11.2221
▁teacher	-11.2223
/06/20	-11.2225
▁podrá	-11.2227
▁mandate	-11.2229
▁string	-11.223
▁MI	-11.2232
▁состав	-11.2234
▁600	-11.2236
▁Sound	-11.2237
▁conducted	-11.2238
eaux	-11.2247
▁сын	-11.2248
mid	-11.2248
▁Пол	-11.225
▁affaires	-11.2253
▁invent	-11.2258
▁groupes	-11.2259
▁#4	-11.2259
▁занима	-11.2259
▁मेल	-11.226
▁refuse	-11.226
▁Fahr	-11.2261
▁Latin	-11.2262
▁wa	-11.2263
lov	-11.2266
▁Sh	-11.2269
▁elections	-11.2269
▁наш	-11.227
▁increasing	-11.2275
.1.	-11.2275
▁बैठ	-11.2275
auto	-11.2276
▁एल	-11.2276
lation	-11.2277
▁trabajar	-11.2278
▁substance	-11.2279
▁checked	-11.2279
एम	-11.2279
▁Meer	-11.2281
▁76	-11.2282
▁Antwort	-11.2283
▁agencies	-11.2283
▁angry	-11.2283
कर्ता	-11.2283
▁प्रदान	-11.2283
▁खाली	-11.2283
▁geh	-11.2284
▁Old	-11.2284
ां	-11.2286
▁direkt	-11.2286
▁rede	-11.2286
▁llega	-11.2288
▁оп	-11.2289
dad	-11.229
Sabes	-11.2291
▁extension	-11.2291
▁audio	-11.2291
▁statut	-11.2292
cat	-11.2293
▁Или	-11.2293
▁famous	-11.2294
▁darf	-11.2295
▁violent	-11.2295
▁suck	-11.2295
▁registered	-11.2295
▁Simon	-11.2296
дь	-11.2297
▁Ukraine	-11.2298
▁infrastructure	-11.2298
▁reaction	-11.2298
▁После	-11.2299
▁ello	-11.23
нию	-11.23
PE	-11.2303
▁allez	-11.2303
▁होती	-11.2303
▁processes	-11.2305
▁flag	-11.2308
▁Anna	-11.231
New	-11.2311
some	-11.2311
▁plants	-11.2312
▁implemented	-11.2313
▁Го	-11.2315
▁marked	-11.2316
▁thousands	-11.2316
▁amis	-11.2316
ники	-11.2321
/05/20	-11.2322
▁arrived	-11.2324
rian	-11.2324
AB	-11.2325
▁Gut	-11.2326
▁worden	-11.2326
Está	-11.2328
▁bath	-11.2331
Mar	-11.2332
▁rank	-11.2333
lv	-11.2337
▁punish	-11.2339
▁ami	-11.2341
нием	-11.2343
▁अप	-11.2346
▁observ	-11.2347
ände	-11.2347
tisch	-11.235
ANT	-11.2351
rry	-11.2351
▁complain	-11.2352
▁Hill	-11.2352
▁willst	-11.2354
▁spécial	-11.2355
▁allein	-11.2357
▁चयन	-11.2358
▁Financial	-11.2359
▁twice	-11.2359
▁завтра	-11.2359
▁वास्ते	-11.2359
▁अलग	-11.2359
▁विन्यास	-11.2359
▁destruction	-11.2359
▁shock	-11.2359
▁tranquil	-11.2359
▁sabía	-11.2359
▁चुका	-11.2359
▁superior	-11.2359
▁travaux	-11.236
▁darüber	-11.236
доб	-11.236
▁Ryan	-11.2361
▁जल्दी	-11.2362
▁majority	-11.2364
▁fee	-11.2364
▁financement	-11.2365
▁mec	-11.2365
▁таких	-11.2367
▁Oye	-11.2368
ieux	-11.2369
▁कहीं	-11.2369
▁rapporteur	-11.2372
िका	-11.2372
ками	-11.2373
TION	-11.2373
▁Filter	-11.2374
▁vista	-11.2376
ood	-11.2377
▁Tar	-11.2378
▁urge	-11.2379
▁ну	-11.2379
ющие	-11.2383
▁conclusions	-11.2383
▁800	-11.2386
▁которо	-11.2386
sses	-11.2388
date	-11.2388
night	-11.239
▁стать	-11.2395
енный	-11.2395
nelle	-11.2405
▁hotels	-11.241
tier	-11.2412
रों	-11.2415
वह	-11.2419
▁Lee	-11.242
▁extend	-11.2421
▁minister	-11.2422
▁mighty	-11.2423
NO	-11.2425
▁Constitution	-11.2431
▁cree	-11.2431
ierten	-11.2433
ttes	-11.2433
▁rose	-11.2434
hof	-11.2435
dictionary	-11.2436
▁Reglamento	-11.2436
▁communautaire	-11.2436
▁gemeinsam	-11.2436
▁Только	-11.2436
▁भगवान	-11.2436
▁providing	-11.2436
▁फ़िल्टर	-11.2436
▁Nähe	-11.2436
▁entitled	-11.2436
▁livre	-11.2436
▁Villa	-11.2437
▁Anyway	-11.2437
▁submission	-11.2438
▁उनपर	-11.2438
▁बिना	-11.2439
▁comfortable	-11.2439
▁Export	-11.244
▁plugin	-11.244
▁toward	-11.2443
▁вопросы	-11.2444
▁libro	-11.2445
¡	-11.2446
▁Must	-11.2446
▁weapon	-11.2448
▁noble	-11.245
▁такие	-11.2451
▁reality	-11.2456
▁FR	-11.2456
пусти	-11.2457
RS	-11.2457
стер	-11.2458
▁Description	-11.246
iter	-11.2461
▁tendrá	-11.2462
Ne	-11.2464
▁paint	-11.2467
чик	-11.2469
Sch	-11.2469
▁हक़	-11.2472
lav	-11.2475
round	-11.2478
wan	-11.2482
▁ком	-11.2484
▁(0	-11.2484
▁Info	-11.2485
gur	-11.2487
▁सच	-11.2488
▁vehicles	-11.249
▁Conf	-11.249
pira	-11.249
▁honour	-11.2495
▁agreements	-11.2495
▁internacional	-11.2497
▁Cast	-11.2498
▁Multi	-11.2498
▁измен	-11.2505
▁Herrn	-11.2505
▁Current	-11.2506
tische	-11.2506
дал	-11.2508
▁visite	-11.2508
▁offre	-11.2512
▁Software	-11.2514
▁dólares	-11.2514
▁siquiera	-11.2514
▁switch	-11.2514
▁доступ	-11.2514
▁breast	-11.2514
▁hurry	-11.2514
range	-11.2514
▁Sometimes	-11.2514
▁shift	-11.2514
▁Однако	-11.2514
▁Turkey	-11.2514
▁strike	-11.2514
▁kingdom	-11.2514
▁plupart	-11.2514
▁chief	-11.2514
▁точно	-11.2514
weather	-11.2514
Muhammad	-11.2515
▁Alles	-11.2515
▁component	-11.2515
▁Mittel	-11.2516
▁долл	-11.2516
▁crap	-11.2516
▁reservation	-11.2516
▁Cla	-11.2516
ющий	-11.2518
ском	-11.2519
▁weekend	-11.252
▁bevor	-11.252
▁Finally	-11.2521
lines	-11.2522
▁offering	-11.2523
▁category	-11.2523
▁Те	-11.2524
▁Ergebnisse	-11.2525
писан	-11.2526
▁dio	-11.2527
▁Bio	-11.2527
▁introduced	-11.253
▁Keine	-11.2534
toria	-11.2536
▁Brian	-11.2537
cult	-11.2538
ुक	-11.2543
▁bound	-11.2549
ude	-11.2552
▁letzte	-11.2553
чет	-11.2555
▁deben	-11.2555
▁features	-11.2557
уз	-11.2561
IB	-11.2564
▁tests	-11.2565
ड़े	-11.2571
▁Pré	-11.2573
space	-11.2576
▁Map	-11.2578
▁col	-11.2582
amour	-11.2583
▁reserve	-11.2587
▁Palestinian	-11.2592
▁línea	-11.2592
▁necesario	-11.2592
▁pregnant	-11.2592
▁поговорить	-11.2592
▁ninguna	-11.2592
▁уровне	-11.2592
▁biggest	-11.2592
▁opportunities	-11.2592
▁boyfriend	-11.2592
▁деньги	-11.2593
▁совет	-11.2593
▁другие	-11.2594
cap	-11.2594
▁palabra	-11.2595
▁semaine	-11.2595
bringen	-11.2595
▁(8)	-11.2595
▁части	-11.2595
▁snow	-11.2596
vale	-11.2596
▁Down	-11.2597
▁practices	-11.2597
▁feu	-11.2597
▁चुन	-11.2597
town	-11.2598
▁travers	-11.2598
krieg	-11.26
km	-11.2601
▁देना	-11.2602
▁acts	-11.2607
puesta	-11.2609
ची	-11.2611
яет	-11.2614
ssent	-11.2615
▁wegen	-11.2615
lá	-11.2616
▁pri	-11.2616
▁brothers	-11.2619
▁laisser	-11.2622
▁Ти	-11.2624
schau	-11.2625
Di	-11.2627
agen	-11.2628
ेल	-11.2631
▁jobs	-11.2633
том	-11.2634
TV	-11.2635
▁invit	-11.2635
▁स्प	-11.2645
▁Fol	-11.2646
▁wise	-11.2647
gesetzt	-11.2648
ume	-11.2649
person	-11.265
▁92	-11.2652
▁82	-11.2655
▁discover	-11.2657
▁Februar	-11.2659
▁Victor	-11.266
▁orders	-11.2661
4-	-11.2663
▁Hy	-11.2663
▁87	-11.2667
yan	-11.2668
isa	-11.2668
▁पड़े	-11.2668
▁इसी	-11.267
▁Chicago	-11.267
▁Richtlinie	-11.267
▁communauté	-11.267
▁judgment	-11.267
▁possibilité	-11.267
▁информации	-11.267
▁помощи	-11.267
▁Krieg	-11.2671
▁tape	-11.2671
▁Until	-11.2671
▁shame	-11.2671
▁Update	-11.2671
▁faible	-11.2671
▁gustaría	-11.2672
▁virus	-11.2672
▁Lib	-11.2672
▁tasks	-11.2674
▁именно	-11.2674
▁отец	-11.2675
ori	-11.2675
щу	-11.2675
▁bow	-11.2676
grund	-11.2679
▁лиц	-11.2681
1%	-11.2683
▁Band	-11.2683
▁Schl	-11.2684
▁79	-11.2686
тки	-11.2687
▁minor	-11.2687
▁sugar	-11.2688
जिसमें	-11.2689
ось	-11.269
▁turning	-11.2692
▁proper	-11.2693
▁Av	-11.2694
venir	-11.2696
▁Gran	-11.2698
▁conclu	-11.27
▁झुठला	-11.2701
buch	-11.2702
▁AN	-11.2704
▁бес	-11.2707
iller	-11.2708
▁protocol	-11.2709
vu	-11.2712
▁parking	-11.2713
▁Reise	-11.2713
FE	-11.2714
▁outre	-11.2715
▁Volk	-11.2716
▁Shut	-11.2717
▁demander	-11.2718
▁आने	-11.2723
▁letzten	-11.2723
▁tenu	-11.2727
▁Stu	-11.2728
ATE	-11.2728
▁productos	-11.2729
▁warner	-11.2731
▁AB	-11.2733
мон	-11.2735
▁мил	-11.2735
▁पार	-11.2737
ेस	-11.2737
▁Ри	-11.2738
यह	-11.2744
▁Programm	-11.2746
▁plutôt	-11.275
▁Думаю	-11.275
................	-11.275
▁слышал	-11.275
▁<<<	-11.275
▁proceso	-11.275
▁Professor	-11.275
▁guerra	-11.275
▁cinco	-11.275
▁forecast	-11.275
▁aide	-11.275
ाज़िल	-11.275
▁señal	-11.2751
▁corruption	-11.2751
пы	-11.2752
▁pig	-11.2753
▁+49	-11.2753
तुम	-11.2753
▁award	-11.2754
▁bringen	-11.2755
▁проблемы	-11.2756
▁gender	-11.2756
▁डाला	-11.2758
▁grace	-11.2758
▁Rand	-11.2759
▁Hong	-11.276
▁जवाब	-11.276
ivity	-11.2762
laden	-11.2763
▁latest	-11.2764
▁spare	-11.2764
▁anglais	-11.2767
▁helping	-11.2768
▁Opera	-11.2769
▁sentido	-11.2771
तः	-11.2772
▁weniger	-11.2772
such	-11.2773
▁имя	-11.2774
▁gute	-11.2779
▁HE	-11.2779
▁loose	-11.2781
▁Tele	-11.2783
entrée	-11.2785
SO	-11.2788
▁tools	-11.2791
▁Pon	-11.2795
stehen	-11.2796
▁joue	-11.2798
गो	-11.28
▁papa	-11.2801
गें	-11.2805
▁Parce	-11.2805
IST	-11.2806
▁ordered	-11.2808
▁Mir	-11.2815
▁armas	-11.2817
▁preocupa	-11.2817
ोर	-11.2818
dar	-11.2818
▁Jung	-11.2823
tell	-11.2824
▁losers	-11.2827
▁Pra	-11.2827
▁Egypt	-11.2829
дель	-11.2829
tremulo	-11.283
▁pequeña	-11.283
▁stratégie	-11.283
▁वर्तमान	-11.283
μ	-11.283
▁companion	-11.283
▁illegal	-11.283
▁Garden	-11.283
▁Unsere	-11.283
▁commerce	-11.283
▁फोन	-11.283
▁मूल्य	-11.283
▁occurred	-11.283
▁strengthen	-11.283
zimmer	-11.2831
▁Middle	-11.2831
▁Ireland	-11.2831
▁maladie	-11.2831
jan	-11.2833
duction	-11.2834
▁substances	-11.2834
encyclopedia	-11.2834
मत	-11.2835
▁लेकर	-11.2836
▁KDE	-11.2837
UM	-11.2839
▁счет	-11.284
▁Après	-11.2842
roy	-11.2842
bility	-11.2843
Je	-11.2843
▁output	-11.2844
▁futuro	-11.2844
рь	-11.2846
▁Sk	-11.2848
▁Pl	-11.2849
▁соглас	-11.2849
▁warum	-11.2851
▁रहेंगे	-11.2852
bles	-11.2854
▁Eric	-11.2855
▁Kill	-11.2855
▁FI	-11.2856
тон	-11.2857
▁bother	-11.2861
▁chicos	-11.2862
▁panel	-11.2865
-8	-11.2867
▁PDF	-11.2868
▁Size	-11.2869
▁intention	-11.2871
▁Vice	-11.2872
▁gather	-11.2873
▁84	-11.2873
езд	-11.2877
पि	-11.2877
▁regulations	-11.2878
▁bereit	-11.288
▁ml	-11.288
▁courant	-11.2881
▁Bis	-11.2883
▁Blue	-11.2884
▁परि	-11.2886
▁heading	-11.2887
éis	-11.2887
▁lamp	-11.2892
pped	-11.2892
feld	-11.2893
hab	-11.2894
ыш	-11.2896
▁stated	-11.2897
▁EX	-11.2897
▁skills	-11.2901
▁JO	-11.2901
aille	-11.2907
▁learning	-11.2907
science	-11.291
ο	-11.291
इस्तेमाल	-11.291
▁maintenance	-11.291
schutz	-11.291
▁drunk	-11.291
▁Application	-11.2911
▁resolución	-11.2911
▁являются	-11.2911
IVE	-11.2911
▁réussi	-11.2911
▁गिर	-11.2911
▁Mama	-11.2911
▁Site	-11.2912
▁burden	-11.2912
▁Wood	-11.2914
▁चार	-11.2915
▁row	-11.2915
▁combination	-11.2915
▁ру	-11.2916
▁suitable	-11.2916
▁1986	-11.2917
▁Four	-11.2919
▁नई	-11.292
LS	-11.2922
▁gars	-11.2924
▁Enable	-11.2924
stern	-11.2925
▁माल	-11.2926
▁Gene	-11.2927
▁Tier	-11.2929
▁entendu	-11.2929
▁लड़	-11.2929
▁cable	-11.293
зов	-11.2937
ается	-11.2937
▁Tony	-11.294
म्ब	-11.294
▁defend	-11.2942
рис	-11.2943
treten	-11.2943
▁foundation	-11.2943
▁Sign	-11.2945
ву	-11.2946
▁पै	-11.2946
▁Queen	-11.2946
zieh	-11.2949
▁Eu	-11.295
▁Serie	-11.2952
version	-11.2952
▁Wal	-11.2954
▁soft	-11.2972
▁hasn	-11.2973
MAN	-11.2973
▁William	-11.2974
▁joke	-11.2976
▁repeat	-11.2976
▁officers	-11.298
▁ability	-11.2981
▁weit	-11.2986
टो	-11.2988
▁arrangements	-11.2989
▁стол	-11.299
▁components	-11.299
ऊ	-11.2991
▁Además	-11.2992
▁HTML	-11.2992
▁gobierno	-11.2992
▁думаешь	-11.2992
▁Belarus	-11.2992
▁England	-11.2992
▁college	-11.2992
▁mamá	-11.2992
▁télé	-11.2992
▁bastard	-11.2992
▁Lang	-11.2993
▁everywhere	-11.2993
▁Food	-11.2995
▁consumer	-11.2995
▁VAT	-11.2995
▁Police	-11.2995
▁propia	-11.2996
▁Chance	-11.2999
PT	-11.3001
▁которое	-11.3003
▁Weiß	-11.3004
▁Industrie	-11.3004
fahren	-11.3004
▁parent	-11.3005
abilité	-11.3005
wal	-11.3006
▁dealing	-11.3008
▁Пока	-11.3009
fra	-11.3009
éné	-11.3013
▁cargo	-11.3014
▁gay	-11.3014
izado	-11.3015
्रे	-11.3016
char	-11.3019
Mail	-11.302
▁IS	-11.302
सन	-11.3021
▁fui	-11.3023
▁Cri	-11.3023
On	-11.3027
▁vent	-11.3028
▁leicht	-11.3029
▁joined	-11.3031
▁servicios	-11.3031
▁nein	-11.3032
▁sprechen	-11.3036
▁Sto	-11.3038
▁fut	-11.3039
▁wave	-11.304
400	-11.3041
▁moral	-11.3047
komm	-11.3048
▁hijos	-11.3048
mobili	-11.3049
gov	-11.3049
▁dare	-11.3049
▁copie	-11.3052
▁Officer	-11.3052
▁alter	-11.3058
yp	-11.3058
▁vaya	-11.3058
▁сторон	-11.306
▁Area	-11.3061
any	-11.3063
▁statements	-11.3064
HA	-11.3066
▁fünf	-11.3067
▁verses	-11.3068
▁purposes	-11.307
hard	-11.307
iera	-11.3071
mination	-11.3073
▁कुंजी	-11.3074
▁Männer	-11.3074
▁Secrétaire	-11.3074
▁natürlich	-11.3074
▁Сейчас	-11.3074
▁люблю	-11.3074
▁плохо	-11.3074
▁секретаря	-11.3074
▁फ़ॉन्ट	-11.3074
énergie	-11.3074
▁op	-11.3074
▁tidings	-11.3074
▁решения	-11.3074
▁собой	-11.3074
▁ладно	-11.3074
▁vigil	-11.3074
▁श्री	-11.3074
DR	-11.3074
▁Protection	-11.3074
▁pattern	-11.3074
▁esposa	-11.3074
▁partnership	-11.3074
▁papel	-11.3074
▁принял	-11.3076
▁zona	-11.3076
▁sino	-11.3077
▁Unidos	-11.3078
accès	-11.3079
▁понял	-11.3079
▁группы	-11.3079
енные	-11.3079
▁viens	-11.308
▁Cet	-11.3081
зе	-11.3083
ending	-11.3086
▁Blut	-11.3088
▁election	-11.3089
product	-11.3091
▁profile	-11.3093
▁Event	-11.3094
▁individuals	-11.3094
▁12/	-11.3096
▁Peut	-11.3098
▁environ	-11.3099
ड़ा	-11.3101
▁deinen	-11.3102
лон	-11.3103
▁bringing	-11.3105
▁perdu	-11.3106
▁Licht	-11.3106
▁engagement	-11.3107
kov	-11.3108
ería	-11.3111
▁Мар	-11.3112
▁gross	-11.3117
▁cops	-11.3117
▁lucha	-11.3117
UC	-11.3118
▁ради	-11.3119
▁Yu	-11.3121
/02/	-11.3122
▁ley	-11.3123
▁Content	-11.3124
ृ	-11.3125
ाव	-11.3126
▁negotiations	-11.3128
ouvre	-11.3128
ेंट	-11.3131
▁neck	-11.3133
▁GR	-11.314
ственно	-11.314
▁sleeping	-11.3144
céd	-11.3145
▁98	-11.3145
▁Angel	-11.3146
см	-11.3148
▁solche	-11.3152
▁मिटा	-11.3154
▁दर	-11.3155
▁bond	-11.3155
▁Barcelona	-11.3156
▁Communication	-11.3156
▁efecto	-11.3156
▁Поэтому	-11.3156
▁кажется	-11.3156
▁конечно	-11.3156
▁Umwelt	-11.3156
▁नक़ल	-11.3156
▁Consider	-11.3157
meter	-11.3157
▁background	-11.3158
▁फेर	-11.3159
▁meilleure	-11.3159
▁chapter	-11.3159
▁servir	-11.3163
▁bigger	-11.3164
▁endroit	-11.3165
▁tuer	-11.3168
▁editor	-11.3169
▁hinter	-11.317
mov	-11.317
▁shoes	-11.3173
▁California	-11.3173
kom	-11.3173
▁tip	-11.3178
▁Dra	-11.3179
बार	-11.318
▁drinking	-11.3181
▁शि	-11.3182
▁humanos	-11.3183
motion	-11.3184
-07-	-11.3184
▁tableau	-11.3185
▁amend	-11.3185
putting	-11.3186
▁critical	-11.3187
▁input	-11.3187
▁customer	-11.3189
वान	-11.3191
▁sangre	-11.3191
▁lovely	-11.3193
▁suivants	-11.3194
rain	-11.3197
hö	-11.3199
istas	-11.32
▁Station	-11.3201
▁crees	-11.3203
▁structures	-11.3203
▁tir	-11.3204
oper	-11.3205
▁présenté	-11.3205
▁अंत	-11.3205
▁Mind	-11.3207
aré	-11.3208
▁exit	-11.3208
▁vive	-11.3209
▁जिनक	-11.321
▁liked	-11.3211
-11	-11.3213
heure	-11.3214
▁foto	-11.3216
▁खो	-11.3217
брос	-11.3217
▁Ник	-11.3218
▁Hal	-11.3219
onia	-11.3222
▁positions	-11.3223
▁nacional	-11.3223
ically	-11.3224
▁assume	-11.3225
▁launch	-11.3226
dición	-11.3229
▁बद	-11.323
hole	-11.3233
▁помощь	-11.3237
▁Anwendung	-11.3237
▁रहने	-11.3238
порт	-11.3238
▁जाँच	-11.3239
डा	-11.324
▁escuela	-11.324
▁humanitarian	-11.324
▁longtemps	-11.324
▁स्वीकार	-11.324
▁afternoon	-11.324
éducation	-11.324
▁ошиб	-11.324
▁Consult	-11.324
▁Hard	-11.324
▁Choose	-11.324
▁miracle	-11.324
▁अक्षम	-11.324
▁torture	-11.324
▁beauty	-11.3241
▁будем	-11.3241
▁Delete	-11.3241
▁Manager	-11.3241
▁Geb	-11.3242
▁$2	-11.3242
▁यहां	-11.3243
▁ES	-11.3243
▁Harry	-11.3244
▁herself	-11.3244
▁KB	-11.3244
हरा	-11.3244
▁(7)	-11.3245
▁negative	-11.3246
▁frais	-11.3246
nam	-11.3246
▁меры	-11.3246
▁कहो	-11.3246
▁tué	-11.3246
annexe	-11.3246
▁vital	-11.3247
▁manque	-11.3249
adores	-11.3251
▁#6	-11.3252
▁क्लिक	-11.3252
▁ear	-11.3253
▁Training	-11.3254
script	-11.3255
▁soient	-11.3255
▁международно	-11.3258
elo	-11.3258
нул	-11.3258
▁messenger	-11.3259
पन	-11.3259
long	-11.3259
▁intervention	-11.326
▁installed	-11.3264
▁bug	-11.3264
▁fourth	-11.3264
itaire	-11.3266
▁eating	-11.3267
▁connu	-11.3269
▁Donc	-11.3269
▁Members	-11.327
▁meisten	-11.3272
▁gal	-11.3274
02-	-11.3276
échange	-11.3282
▁drawn	-11.3282
▁glauben	-11.3285
▁мест	-11.3285
▁weißt	-11.3285
меча	-11.3286
▁99	-11.329
-20	-11.3291
▁гер	-11.3291
▁importe	-11.3294
Who	-11.3295
▁Bol	-11.3295
вой	-11.3296
▁जमा	-11.33
▁Hé	-11.3301
boy	-11.3302
08/16	-11.3303
सू	-11.3305
дар	-11.3306
uses	-11.3307
ßt	-11.3307
▁Си	-11.3311
▁meses	-11.3313
▁marche	-11.3314
izar	-11.3315
▁schools	-11.3318
▁Eva	-11.3318
िज़	-11.3319
6%	-11.3319
тин	-11.332
बल	-11.332
аж	-11.3321
▁permis	-11.3321
▁одна	-11.3323
enseignement	-11.3324
▁Netherlands	-11.3324
▁Ordnung	-11.3324
▁adequate	-11.3324
▁pièce	-11.3324
▁religious	-11.3324
▁अवैध	-11.3324
▁पंचांग	-11.3324
pending	-11.3324
▁Greece	-11.3324
▁प्लगइन	-11.3324
▁Facebook	-11.3324
▁Besides	-11.3324
▁dossier	-11.3324
▁Expert	-11.3324
▁agricultural	-11.3325
▁deuxième	-11.3325
▁पिता	-11.3325
▁incluso	-11.3325
▁Airport	-11.3326
▁Partner	-11.3326
▁पाया	-11.3327
ящ	-11.3327
▁могли	-11.3328
дра	-11.3328
▁программы	-11.3328
▁awful	-11.3328
клад	-11.3329
▁हटा	-11.333
▁Local	-11.333
▁favorite	-11.3333
▁announced	-11.3333
▁Step	-11.3335
▁Copy	-11.3335
▁wheel	-11.3335
▁Foto	-11.3337
▁eran	-11.334
▁Dave	-11.3342
▁Zahl	-11.3343
▁fühl	-11.3343
▁diverse	-11.3344
▁हों	-11.3345
▁29,	-11.3345
bild	-11.3347
▁serio	-11.3347
илась	-11.3347
▁fields	-11.335
▁Madame	-11.3353
▁10:00	-11.3353
▁ст	-11.3356
▁cars	-11.3358
▁tras	-11.336
ёр	-11.3362
▁propio	-11.3364
▁IP	-11.3365
gene	-11.3368
▁chap	-11.3369
▁großen	-11.3371
▁allem	-11.3372
BR	-11.3375
▁piss	-11.3376
▁таким	-11.3378
(1	-11.3382
7/	-11.3383
CD	-11.3383
▁Weil	-11.3387
▁humain	-11.3387
▁Spi	-11.3387
пут	-11.3389
▁Groupe	-11.3389
grade	-11.3392
▁Esa	-11.3395
▁Vas	-11.3399
ène	-11.34
rar	-11.3401
how	-11.3405
▁pasó	-11.3408
▁alcohol	-11.3408
▁соответствии	-11.3408
▁अत्यन्	-11.3408
▁fuerza	-11.3408
▁enemies	-11.3408
▁Figure	-11.3408
▁Kunst	-11.3409
bad	-11.3409
▁जहाँ	-11.3409
▁smile	-11.3409
▁Greek	-11.3409
▁Ouais	-11.341
▁Tommy	-11.341
▁einzige	-11.3411
▁collective	-11.3411
▁devons	-11.3411
▁Whoever	-11.3412
▁давай	-11.3413
0%	-11.3413
▁Doc	-11.3414
▁Roger	-11.3414
▁plot	-11.3414
▁statt	-11.3415
▁durable	-11.3415
▁Winter	-11.3416
▁séance	-11.3416
▁records	-11.3417
▁работе	-11.3417
▁Staat	-11.3417
▁इतना	-11.3419
▁जहन्नुम	-11.3419
ello	-11.3419
page	-11.3423
▁Inhalt	-11.3425
craft	-11.3425
либо	-11.3425
UNG	-11.3426
▁creer	-11.3426
▁Nah	-11.3428
▁bridge	-11.3431
water	-11.3432
▁frame	-11.3434
▁seriously	-11.3434
ड़ी	-11.3439
▁vite	-11.344
▁indicated	-11.3441
mini	-11.3441
▁мед	-11.3443
▁grade	-11.3444
▁जिन्होंन	-11.3445
▁Fragen	-11.3446
▁burning	-11.3447
▁Kann	-11.3448
ctic	-11.3449
intégr	-11.345
▁jouer	-11.345
▁organisations	-11.3451
▁siendo	-11.3452
▁noise	-11.3452
▁chercher	-11.3454
▁Ю	-11.3454
FC	-11.3458
▁generation	-11.346
▁picked	-11.3461
▁открыт	-11.3463
organ	-11.3463
▁Mach	-11.3463
▁муж	-11.3466
▁Bilder	-11.3466
vez	-11.3467
рон	-11.3468
ूँ	-11.347
gna	-11.347
active	-11.3472
-05-	-11.3473
▁имею	-11.3473
▁одно	-11.3479
▁уверен	-11.3479
()	-11.348
ог	-11.3481
тан	-11.3481
clar	-11.3481
▁Markt	-11.3482
▁Young	-11.3483
aries	-11.3486
raz	-11.3487
rás	-11.3488
▁सहेज	-11.3489
Ex	-11.349
frei	-11.3492
▁TR	-11.3493
▁Judgment	-11.3494
▁Pakistan	-11.3494
▁Secretariat	-11.3494
▁vigueur	-11.3494
▁FBI	-11.3494
▁भेज	-11.3494
▁genug	-11.3494
▁случилось	-11.3494
▁respuesta	-11.3494
▁buddy	-11.3494
▁chacun	-11.3494
▁парень	-11.3494
▁Regierung	-11.3494
▁journey	-11.3495
▁Musik	-11.3495
/2005	-11.3495
▁miedo	-11.3496
▁compensation	-11.3496
▁compar	-11.3497
▁suddenly	-11.3498
▁mini	-11.3499
▁जारी	-11.3499
▁actividades	-11.3501
▁Word	-11.3502
рет	-11.3509
▁Fel	-11.351
geführt	-11.351
▁Debe	-11.351
▁daran	-11.3514
nkt	-11.352
priv	-11.3523
▁eure	-11.3524
cru	-11.3527
▁(10	-11.3527
ики	-11.3531
▁AT	-11.3537
▁Five	-11.3537
▁pied	-11.3539
▁Organisation	-11.354
▁markets	-11.3541
теля	-11.3544
▁iron	-11.3545
MM	-11.3545
цев	-11.3546
▁centro	-11.3546
Ho	-11.3547
▁detect	-11.3548
▁feelings	-11.3552
▁jail	-11.3552
▁abuse	-11.3553
Mu	-11.3553
NI	-11.3555
rack	-11.3556
tres	-11.3556
▁रख	-11.3558
▁Sw	-11.3558
▁sheet	-11.3559
▁claims	-11.3561
▁distribu	-11.3561
ूर	-11.3563
▁интерес	-11.3565
▁встреча	-11.3568
cie	-11.3572
▁passage	-11.3572
бот	-11.3572
▁Kenn	-11.3572
фер	-11.3575
вл	-11.3579
å	-11.358
schließlich	-11.358
▁patience	-11.358
▁satellite	-11.358
▁बच्चे	-11.358
▁मालूम	-11.358
▁सक्षम	-11.358
économie	-11.358
▁вещи	-11.358
▁decisión	-11.358
▁Session	-11.358
▁digital	-11.358
▁rescue	-11.358
▁Nueva	-11.358
▁बटन	-11.3581
lli	-11.3581
▁туда	-11.3581
8%	-11.3581
▁Sco	-11.3583
▁indique	-11.3583
▁отчет	-11.3584
▁tight	-11.3584
▁crack	-11.3584
awn	-11.3585
Er	-11.3585
▁одного	-11.3586
ifier	-11.3586
▁Registr	-11.3588
▁ваш	-11.3588
entreprise	-11.359
eller	-11.359
That	-11.359
▁tag	-11.3591
▁Track	-11.3594
▁efficient	-11.3595
lp	-11.3598
-10%	-11.3601
enne	-11.3601
spire	-11.3602
▁improvement	-11.3605
▁Hallo	-11.3606
▁bur	-11.3606
▁führt	-11.3607
▁particip	-11.3608
ियो	-11.3609
▁тому	-11.361
avi	-11.361
lichkeit	-11.3613
гре	-11.3617
kg	-11.3618
▁Didn	-11.3619
рос	-11.3622
ector	-11.3624
скор	-11.3626
rina	-11.3627
рыв	-11.3629
▁68	-11.363
▁gang	-11.3634
▁settings	-11.3636
pens	-11.3638
ould	-11.3638
!!!	-11.364
▁bla	-11.3641
▁aufge	-11.3641
▁toma	-11.3641
зу	-11.3644
рош	-11.3646
▁juntos	-11.3647
count	-11.3649
HR	-11.3651
мор	-11.3653
▁Notre	-11.3654
ttle	-11.3654
▁Win	-11.3654
▁abide	-11.3656
▁Steve	-11.3657
▁shared	-11.3657
▁Tous	-11.3658
сла	-11.3659
▁Views	-11.3662
▁digo	-11.3662
▁presentation	-11.3667
▁divorce	-11.3667
▁fédéral	-11.3667
▁supérieur	-11.3667
▁voulais	-11.3667
▁принцип	-11.3667
▁बिल्कुल	-11.3667
▁freak	-11.3667
▁происходит	-11.3667
▁Слушай	-11.3667
▁prostrate	-11.3667
▁verwendet	-11.3667
▁Major	-11.3667
▁golpe	-11.3667
▁बुला	-11.3667
▁tribunal	-11.3667
▁bras	-11.3669
▁начина	-11.3669
▁acqui	-11.367
▁Final	-11.3673
▁Deutsch	-11.3675
▁fallen	-11.3676
▁listening	-11.368
rix	-11.368
Estás	-11.3681
▁core	-11.3682
arm	-11.3682
▁Ди	-11.3685
▁contest	-11.3687
▁Forgiving	-11.3688
▁upset	-11.3689
iya	-11.3693
▁cliente	-11.3693
▁Aaron	-11.3695
▁existence	-11.3697
▁Ру	-11.3698
▁stayed	-11.3701
▁Sho	-11.3702
▁Camp	-11.3703
▁cour	-11.3703
▁yeux	-11.3703
tab	-11.3704
onic	-11.3704
▁Hin	-11.3705
▁managed	-11.3705
▁stellen	-11.3706
эр	-11.3707
▁мая	-11.3708
эт	-11.3709
ELL	-11.371
▁appelé	-11.3712
▁Alter	-11.3712
find	-11.3715
▁dig	-11.3715
▁protected	-11.3717
-15	-11.3724
▁prepara	-11.3728
▁Kong	-11.3734
weise	-11.3734
▁messengers	-11.3735
▁schedule	-11.3735
voy	-11.3735
cast	-11.3736
gor	-11.3739
▁стро	-11.374
▁Sicherheit	-11.3744
amin	-11.3745
▁вод	-11.375
ALL	-11.3751
▁sail	-11.3751
▁Después	-11.3755
▁Maßnahmen	-11.3755
▁grateful	-11.3755
▁рамках	-11.3755
▁निर्देशिका	-11.3755
▁हुक्म	-11.3755
▁अंदर	-11.3755
▁modèle	-11.3755
▁Straße	-11.3755
▁Third	-11.3755
▁bastante	-11.3755
▁Kunden	-11.3755
▁configuration	-11.3755
▁Clark	-11.3755
▁понимаю	-11.3756
▁largo	-11.3756
▁Finland	-11.3756
▁[...]	-11.3756
▁моего	-11.3756
▁otherwise	-11.376
▁tenido	-11.3761
lab	-11.3761
▁нашей	-11.3762
ализ	-11.3763
▁सके	-11.3763
gged	-11.3764
▁respite	-11.3765
▁usual	-11.3766
his	-11.3766
▁bekannt	-11.3767
▁série	-11.3768
▁éléments	-11.3768
9%	-11.3769
चर	-11.377
SR	-11.3772
▁Parlamento	-11.3773
▁Radio	-11.3775
▁breath	-11.3775
▁contents	-11.3776
iere	-11.3779
hä	-11.378
्ला	-11.3782
▁sala	-11.3784
-18	-11.3788
чный	-11.379
2006,	-11.3791
▁Kim	-11.3791
аем	-11.3793
EUR	-11.3794
▁चले	-11.3795
OW	-11.3795
▁(15	-11.3797
▁Джон	-11.3798
▁Espera	-11.3798
▁poll	-11.3801
fund	-11.3802
▁Bern	-11.3804
рост	-11.3804
▁hatten	-11.3806
ерн	-11.3808
▁keys	-11.3808
▁dicta	-11.3809
pack	-11.381
▁machines	-11.3812
quen	-11.3817
▁средств	-11.3819
▁0,0	-11.3821
▁Kir	-11.3823
syn	-11.3823
▁listed	-11.3823
▁corre	-11.3825
निश्चित	-11.3825
▁нее	-11.3825
ONU	-11.3826
जर	-11.383
▁Ис	-11.3834
▁Base	-11.3834
▁scar	-11.3835
roid	-11.3836
डे	-11.3837
▁Personal	-11.384
▁pon	-11.3841
▁Sex	-11.3841
▁Depuis	-11.3843
▁вообще	-11.3843
▁क़िस्म	-11.3843
▁जैसा	-11.3843
▁डाटा	-11.3843
▁storage	-11.3843
▁pronto	-11.3843
▁Somebody	-11.3844
▁политическ	-11.3844
▁मुझसे	-11.3844
▁cousin	-11.3844
▁получить	-11.3844
▁данных	-11.3845
▁нами	-11.3845
▁настоящее	-11.3846
▁fuerte	-11.3846
▁Foundation	-11.3847
▁estimated	-11.3851
▁जाती	-11.3852
▁consistent	-11.3852
▁Front	-11.3853
lio	-11.3853
schä	-11.3853
▁занят	-11.3854
▁differ	-11.3856
▁Wahl	-11.3858
▁seis	-11.3858
▁variable	-11.3858
▁besoins	-11.386
When	-11.3861
▁entrar	-11.3862
▁regime	-11.3862
▁Nav	-11.3863
уль	-11.3863
▁organized	-11.3865
▁Forum	-11.3865
▁oral	-11.3868
▁trait	-11.3869
▁objectifs	-11.387
▁testing	-11.387
▁Herz	-11.3871
rim	-11.3875
▁Juan	-11.3876
▁Were	-11.3879
▁regulation	-11.3879
▁Knowing	-11.388
एल	-11.3883
▁Ana	-11.3886
Com	-11.3886
▁Toute	-11.3893
▁Original	-11.3895
aki	-11.3896
stoff	-11.3896
▁veo	-11.39
टल	-11.3904
2002	-11.3904
▁modifica	-11.3904
вес	-11.3905
hot	-11.3907
voi	-11.3907
attend	-11.3907
anti	-11.391
▁brief	-11.3911
▁cancel	-11.3911
▁dated	-11.3912
▁mira	-11.3914
bank	-11.3915
вор	-11.3916
tract	-11.3917
नेवाला	-11.3918
▁Schiff	-11.3918
ास	-11.392
▁Кор	-11.3921
▁Denn	-11.3921
▁mur	-11.3921
▁Mode	-11.3928
1.1	-11.3933
▁क्षमा	-11.3933
▁necesito	-11.3933
▁внимание	-11.3933
▁बाग़	-11.3933
▁विफल	-11.3933
▁Chamber	-11.3933
▁wusste	-11.3933
▁croissance	-11.3933
▁нравится	-11.3933
▁положения	-11.3933
▁2.1	-11.3933
▁suerte	-11.3933
▁хорош	-11.3933
▁temporary	-11.3933
▁Damn	-11.3933
▁argue	-11.3934
▁sesiones	-11.3934
▁spell	-11.3934
▁Federation	-11.3934
▁रखता	-11.3934
▁Kosten	-11.3935
▁dying	-11.3936
0,00	-11.3937
▁absolutely	-11.3937
पे	-11.3938
▁одной	-11.3938
▁uso	-11.394
▁loin	-11.3941
▁operate	-11.3943
▁Hä	-11.3945
▁Legal	-11.3946
ève	-11.3948
▁класс	-11.3948
▁stark	-11.3951
▁denke	-11.3952
▁Temp	-11.3953
▁cita	-11.3953
anz	-11.3954
▁AS	-11.3955
▁особенно	-11.3956
CEE	-11.3958
рак	-11.3958
▁creatures	-11.3959
▁Paper	-11.3961
▁performed	-11.3961
▁(17	-11.3965
▁limite	-11.3966
tron	-11.3966
rand	-11.3967
-2012	-11.3967
▁lien	-11.3968
ESS	-11.3969
▁Kor	-11.3977
atory	-11.3978
ара	-11.398
ño	-11.3981
▁Alan	-11.3981
▁исп	-11.3983
дите	-11.3984
▁remind	-11.3985
Man	-11.3985
cado	-11.3986
▁trees	-11.3987
▁ход	-11.3987
имся	-11.3988
▁bull	-11.3989
▁Sud	-11.3996
news	-11.3996
leur	-11.3996
▁равно	-11.3999
▁ferme	-11.4005
▁coat	-11.4007
▁functions	-11.4008
тели	-11.401
▁sortir	-11.4012
▁Prince	-11.4015
path	-11.4016
▁(*	-11.4017
image	-11.4021
▁वस्तु	-11.4022
▁dude	-11.4022
▁शब्द	-11.4023
▁strategic	-11.4023
▁véhicule	-11.4023
▁жертв	-11.4023
▁उपलब्ध	-11.4023
▁समर्थन	-11.4023
▁स्रोत	-11.4023
▁Möglichkeit	-11.4023
▁variety	-11.4023
▁Çá	-11.4023
▁никто	-11.4023
▁пути	-11.4023
▁लंब	-11.4023
▁अंतिम	-11.4023
▁mantener	-11.4023
▁स्थानीय	-11.4023
▁Règlement	-11.4023
▁frère	-11.4024
▁Kopf	-11.4025
▁rum	-11.4025
▁drag	-11.4025
▁roof	-11.4026
нные	-11.4027
▁replace	-11.4028
▁comida	-11.4028
Tra	-11.4029
ाने	-11.403
▁1000	-11.4031
cule	-11.4031
habit	-11.4031
▁сэр	-11.4031
▁winter	-11.4032
▁भूल	-11.4032
▁Sel	-11.4033
▁स्पष्ट	-11.4033
▁buck	-11.4034
schlag	-11.4034
ció	-11.4037
ख़ुदा	-11.4037
médi	-11.4037
Why	-11.4037
म्प	-11.4037
▁Switzerland	-11.4037
▁нем	-11.4038
▁Typ	-11.4038
▁Iran	-11.4039
▁обще	-11.4039
▁observations	-11.404
▁aplicación	-11.404
вание	-11.4041
ктив	-11.4042
power	-11.4042
presión	-11.4042
▁ними	-11.4044
▁проекта	-11.4047
▁str	-11.4047
oid	-11.4047
rice	-11.4049
▁ignore	-11.4049
VA	-11.4054
zone	-11.4054
▁91	-11.4055
visión	-11.4058
ographic	-11.4059
600	-11.4059
▁reg	-11.4063
▁feature	-11.4063
▁führen	-11.4063
▁student	-11.4063
▁возможность	-11.4066
coming	-11.4071
▁disponibles	-11.4071
▁Ball	-11.4072
вай	-11.4073
▁seemed	-11.4075
▁witnesses	-11.4075
▁documento	-11.4075
▁prise	-11.4075
vention	-11.4076
▁Сам	-11.4078
How	-11.408
▁Sieh	-11.4082
▁deposit	-11.4083
цу	-11.409
fal	-11.4092
creating	-11.4093
▁tear	-11.4094
▁пост	-11.4094
mine	-11.4096
▁coll	-11.4102
кий	-11.4102
run	-11.4102
▁язык	-11.4104
▁answered	-11.4105
▁fantas	-11.4107
▁interpret	-11.4108
3€	-11.4108
▁verte	-11.411
▁номер	-11.4111
▁efficace	-11.4114
▁मिनट	-11.4114
▁शैतान	-11.4114
▁confidence	-11.4114
▁Пункт	-11.4114
▁choix	-11.4114
▁devraient	-11.4114
▁replied	-11.4114
▁leadership	-11.4114
▁Japanese	-11.4114
▁crimes	-11.4114
▁Есть	-11.4114
▁Geneva	-11.4115
viennent	-11.4115
▁workshop	-11.4117
ания	-11.4117
▁victory	-11.4119
▁Ст	-11.4119
▁supuesto	-11.4119
▁Italien	-11.412
▁integrated	-11.4121
▁settlement	-11.4121
▁hör	-11.4122
▁Grace	-11.4123
Go	-11.4124
▁sec	-11.4125
▁месте	-11.4125
teilung	-11.4125
GA	-11.4125
▁Archive	-11.4125
bach	-11.4126
▁Gruppe	-11.4127
▁hice	-11.4127
▁Entre	-11.4128
▁œuvre	-11.4128
objet	-11.4128
gebracht	-11.4129
▁privé	-11.4129
Ko	-11.4129
▁основе	-11.4131
▁salud	-11.4134
▁Fort	-11.4134
uil	-11.4135
▁करती	-11.4137
▁Mé	-11.4138
▁oben	-11.414
आख़िरत	-11.414
-17	-11.414
▁Preise	-11.4141
▁Podría	-11.4141
▁operational	-11.4141
▁becoming	-11.4142
▁Vin	-11.4144
▁arrested	-11.4145
merk	-11.4149
▁innovation	-11.4149
ij	-11.4149
▁национальн	-11.4149
▁Ха	-11.415
▁Эл	-11.4151
▁legs	-11.4152
▁GE	-11.4152
lieg	-11.4155
кро	-11.4157
▁ticket	-11.4157
▁disponible	-11.4159
▁amendment	-11.4161
▁generally	-11.4162
▁Rose	-11.4163
anne	-11.4164
▁RA	-11.4164
▁portion	-11.4165
▁discut	-11.4165
ünde	-11.4166
▁Know	-11.4168
weisen	-11.4171
AI	-11.4173
▁ट्र	-11.4173
▁utiliser	-11.4176
2009,	-11.4177
▁Liste	-11.4178
▁entend	-11.4178
▁involve	-11.4182
▁diga	-11.4185
▁Sache	-11.4185
▁introduce	-11.4185
Tu	-11.4188
▁मुझ	-11.4191
jen	-11.4191
▁Fin	-11.4193
▁resp	-11.4194
NC	-11.4197
▁(20	-11.42
▁Doch	-11.4201
▁avail	-11.4203
-14	-11.4205
्च	-11.4205
▁arrogant	-11.4205
▁geändert	-11.4205
▁plaît	-11.4205
▁reunión	-11.4205
▁scientific	-11.4205
▁маленьк	-11.4205
▁अद्यतन	-11.4205
▁Rahmen	-11.4205
▁हमारा	-11.4205
▁cuanto	-11.4205
▁silence	-11.4205
▁транспорт	-11.4205
▁куда	-11.4205
▁Siempre	-11.4205
▁fiesta	-11.4205
▁extent	-11.4206
▁football	-11.4206
▁Hamburg	-11.4206
▁stories	-11.4206
▁module	-11.4206
▁universal	-11.4206
▁await	-11.4206
▁Moreover	-11.4206
kor	-11.4206
▁Quote	-11.4206
▁Brother	-11.4206
▁Transfer	-11.4207
▁instructions	-11.4207
▁Gib	-11.4207
▁situé	-11.4207
▁awareness	-11.4207
▁Joint	-11.4207
▁débat	-11.4207
▁चाल	-11.4208
▁niña	-11.4208
▁viaje	-11.4209
▁Night	-11.4209
▁Jake	-11.4212
▁банк	-11.4212
aca	-11.4215
▁ста	-11.4215
level	-11.4217
▁sage	-11.4218
▁priest	-11.4218
Office	-11.4221
▁visita	-11.4223
▁оно	-11.4224
▁montre	-11.4225
▁mod	-11.4226
▁Mighty	-11.4227
▁пункта	-11.4228
bis	-11.4228
typ	-11.4229
PD	-11.423
▁warned	-11.423
▁parlé	-11.4231
▁cried	-11.4233
▁cub	-11.4233
र्ट	-11.4234
300	-11.4234
▁Custom	-11.4236
▁sacrifice	-11.4237
ूद	-11.4239
▁west	-11.4239
▁choisi	-11.4239
▁celebrate	-11.424
▁importantes	-11.424
▁Pues	-11.4241
▁Way	-11.4242
यी	-11.4242
▁Sra	-11.4243
▁instant	-11.4243
riez	-11.4244
type	-11.4245
azo	-11.4245
▁rendre	-11.4249
dora	-11.4249
▁Cop	-11.4249
▁stable	-11.4251
▁charges	-11.4253
▁crédit	-11.4254
ाइल	-11.4255
иц	-11.4261
▁Бог	-11.4261
TU	-11.4262
img	-11.4265
мя	-11.4267
▁detail	-11.427
▁rating	-11.4271
▁arbeiten	-11.4272
▁Tam	-11.4276
▁soldiers	-11.4277
200	-11.4279
▁wash	-11.4279
▁hören	-11.428
▁ET	-11.428
▁NOT	-11.4282
▁publish	-11.4282
asp	-11.4282
ayback	-11.4283
▁lord	-11.4284
mettre	-11.4287
▁würden	-11.429
▁получил	-11.4291
▁RO	-11.4291
бол	-11.4293
nah	-11.4296
▁партнер	-11.4298
▁befindet	-11.4298
▁juridique	-11.4298
▁Здесь	-11.4298
▁College	-11.4298
▁Copyright	-11.4298
▁प्रभाव	-11.4298
▁वर्ष	-11.4298
▁glory	-11.4298
▁jinn	-11.4298
▁guidelines	-11.4299
▁ज़रूर	-11.4299
ясь	-11.43
▁sélection	-11.4301
▁Luft	-11.4302
▁बन्दों	-11.4304
▁решил	-11.4304
▁chargé	-11.4304
▁Afghanistan	-11.4305
bett	-11.4307
▁73	-11.431
▁resist	-11.431
▁tío	-11.4312
▁умер	-11.4313
world	-11.4314
▁Necesit	-11.4315
▁hoch	-11.4318
▁pet	-11.432
▁eigenen	-11.432
▁exige	-11.4321
deck	-11.4323
नेवाले	-11.4323
▁pod	-11.4324
gado	-11.4324
dding	-11.4324
▁Rep	-11.4325
äre	-11.4326
FS	-11.4327
▁index	-11.4327
laub	-11.4328
▁getan	-11.4328
▁lorsque	-11.433
preis	-11.4331
merciful	-11.4332
ologi	-11.4337
▁Ñ	-11.434
▁गा	-11.434
-13	-11.4341
▁проблема	-11.4341
iß	-11.4343
▁Prof	-11.4345
▁servicio	-11.4346
▁selling	-11.4348
▁coût	-11.4348
ово	-11.435
▁constant	-11.4359
▁Fred	-11.436
▁Helen	-11.4361
▁Burn	-11.4361
▁Eli	-11.4364
NT	-11.4368
2%	-11.437
MENT	-11.4372
tale	-11.4372
▁né	-11.4372
▁depend	-11.4373
▁angel	-11.4374
▁вами	-11.4376
fire	-11.438
▁तेर	-11.438
BO	-11.4384
क्स	-11.4387
▁Бар	-11.4389
▁Islam	-11.4389
▁программ	-11.439
▁Communauté	-11.4391
▁которую	-11.4391
▁спасибо	-11.4391
▁बराबर	-11.4391
▁Glück	-11.4391
▁width	-11.4391
▁désolé	-11.4391
▁Additional	-11.4391
▁afford	-11.4391
▁क़सम	-11.4391
▁étant	-11.4392
▁शामिल	-11.4392
▁asunto	-11.4392
▁grâce	-11.4392
▁magazine	-11.4392
▁Groß	-11.4392
▁disaster	-11.4392
▁captain	-11.4392
▁opérations	-11.4393
▁ought	-11.4393
▁nuestras	-11.4393
stat	-11.4393
▁schwer	-11.4394
▁repair	-11.4394
▁Morgen	-11.4394
▁estará	-11.4395
▁nombreux	-11.4395
▁operator	-11.4397
▁Panel	-11.4399
▁recovery	-11.4401
▁später	-11.4407
▁Augen	-11.4414
▁мире	-11.4415
stimmung	-11.4415
▁earned	-11.4415
▁scan	-11.4418
▁laisse	-11.4419
▁painting	-11.4421
iana	-11.4422
▁teaching	-11.4423
▁matin	-11.4424
▁showing	-11.4424
▁march	-11.4425
▁letters	-11.4425
▁lettre	-11.4427
▁stream	-11.4427
tima	-11.4427
▁uncle	-11.443
▁Freunde	-11.4433
hnen	-11.4434
▁vertu	-11.4434
trans	-11.4435
▁principales	-11.4438
west	-11.4438
вала	-11.444
▁Trust	-11.4441
edu	-11.4441
▁mainly	-11.4444
mag	-11.4446
▁Natural	-11.4447
▁revi	-11.4448
▁doute	-11.4449
ному	-11.4451
▁healthy	-11.4451
suite	-11.4452
Vo	-11.4454
dienst	-11.4456
▁gros	-11.4459
▁Beach	-11.4459
▁Whoa	-11.4461
▁arma	-11.4462
▁отправ	-11.4462
▁payments	-11.4463
gegeben	-11.4463
▁tent	-11.4465
▁marque	-11.4465
▁régions	-11.4466
▁état	-11.4468
▁знал	-11.4469
▁leads	-11.447
solve	-11.4475
▁Command	-11.4478
▁unable	-11.4479
▁suivant	-11.4482
▁municipal	-11.4484
aving	-11.4484
▁Author	-11.4484
वाह	-11.4486
▁गुनाह	-11.4486
®	-11.4486
▁Kontakt	-11.4486
▁Technology	-11.4486
▁comprehensive	-11.4486
▁práctica	-11.4486
▁нужен	-11.4486
▁нужна	-11.4486
▁Computer	-11.4486
▁climb	-11.4486
▁विश्वास	-11.4486
▁दौरान	-11.4486
▁Material	-11.4486
▁quizá	-11.4486
▁Always	-11.4486
▁kidding	-11.4486
▁television	-11.4486
▁Studio	-11.4486
▁steel	-11.4486
▁réserve	-11.4486
▁publié	-11.4486
▁créé	-11.4486
▁वादा	-11.4486
▁Debería	-11.4486
▁ojos	-11.4486
▁Rapporteur	-11.4487
▁confiance	-11.4487
▁propuesta	-11.4487
झ	-11.4488
▁relatif	-11.4489
▁твоей	-11.4489
▁conoce	-11.4491
▁edad	-11.4491
▁Tab	-11.4491
irá	-11.4491
▁сил	-11.4492
▁daher	-11.4494
▁Millionen	-11.4494
▁группа	-11.4494
▁Ud	-11.45
▁усилия	-11.4502
administration	-11.4505
idi	-11.4505
▁deleted	-11.4505
▁часть	-11.451
▁culpa	-11.451
▁ferai	-11.4514
▁стал	-11.4515
▁कॉल	-11.4515
bab	-11.4517
▁consequences	-11.4521
▁центр	-11.4525
▁bike	-11.4527
frage	-11.4534
▁buildings	-11.4534
▁договор	-11.4535
=2	-11.4537
▁mechanism	-11.4539
état	-11.454
▁bones	-11.4542
▁quiera	-11.4548
▁Tru	-11.4553
▁processing	-11.4553
▁Kol	-11.4554
▁мама	-11.4562
avis	-11.4565
▁coordinate	-11.4566
▁wound	-11.4569
▁bullet	-11.457
▁proposé	-11.4573
uti	-11.4575
▁Ay	-11.4579
▁curse	-11.458
▁resident	-11.4581
skeptical	-11.4581
▁Gobierno	-11.4581
▁République	-11.4581
▁Technical	-11.4581
▁applicant	-11.4581
▁cuestión	-11.4581
▁investigación	-11.4581
▁possibly	-11.4581
▁wisdom	-11.4581
▁достаточно	-11.4581
▁клиент	-11.4581
▁खैर	-11.4581
▁pêche	-11.4581
▁création	-11.4581
▁braucht	-11.4581
▁prophet	-11.4581
▁Smith	-11.4581
▁Startseite	-11.4581
▁suicide	-11.4581
▁crash	-11.4581
GR	-11.4581
▁voudrais	-11.4581
▁piensa	-11.4582
▁Though	-11.4582
▁Меня	-11.4582
▁journée	-11.4582
leistung	-11.4582
▁desires	-11.4583
▁быстро	-11.4584
▁Visit	-11.4585
▁forgotten	-11.4586
▁Ken	-11.4587
▁obviously	-11.4588
▁Poland	-11.4588
▁demás	-11.4589
▁फ़ाइलें	-11.4589
▁coast	-11.4589
▁Road	-11.4589
▁ended	-11.4592
▁Common	-11.4594
▁forced	-11.4595
▁mou	-11.4596
▁peine	-11.4597
für	-11.4598
▁competent	-11.46
AIDS	-11.46
building	-11.46
फिर	-11.4601
minister	-11.4601
▁ensuite	-11.4604
▁Produkt	-11.4608
(3)	-11.4608
AG	-11.4609
▁birds	-11.4609
▁falling	-11.461
▁absence	-11.4614
quit	-11.4614
▁Erst	-11.4615
▁manos	-11.4616
▁69	-11.4617
▁recall	-11.4619
hel	-11.4619
▁tie	-11.462
entend	-11.4623
▁systèmes	-11.4623
▁भेजें	-11.4627
▁differences	-11.4632
▁dates	-11.4632
▁член	-11.4634
नाम	-11.4635
▁Lage	-11.4635
फो	-11.4636
▁आपने	-11.4638
▁spending	-11.4639
ница	-11.4642
kle	-11.4642
▁confi	-11.4643
▁heads	-11.4643
▁salle	-11.4647
▁граждан	-11.4649
▁एन	-11.465
▁Pala	-11.4651
ишься	-11.4653
▁Moi	-11.4654
nement	-11.4657
▁pill	-11.4657
▁हस्ताक्षर	-11.4659
new	-11.4662
vait	-11.4662
ION	-11.4664
▁demandes	-11.4664
▁staying	-11.4666
▁hará	-11.4666
уш	-11.4668
▁leben	-11.467
bereich	-11.4671
▁Count	-11.4672
▁последни	-11.4672
изм	-11.4673
arán	-11.4674
▁soumis	-11.4674
ॉल	-11.4674
____	-11.4675
▁fácil	-11.4676
ò	-11.4677
▁Flughafen	-11.4677
▁conseguir	-11.4677
▁diciembre	-11.4677
▁statistics	-11.4677
▁раньше	-11.4677
▁इबराहीम	-11.4677
▁पश्चात	-11.4677
▁पुलिस	-11.4677
▁Happy	-11.4677
▁Jordan	-11.4677
▁university	-11.4677
volving	-11.4677
▁Child	-11.4677
▁целях	-11.4677
▁ocean	-11.4677
▁среди	-11.4677
▁hermana	-11.4678
▁aircraft	-11.4678
▁स्तर	-11.4678
▁priorities	-11.4678
▁interior	-11.4678
▁आदेश	-11.4678
▁Edward	-11.4678
▁Anhang	-11.4678
▁Country	-11.4678
▁habría	-11.4679
▁attacks	-11.468
▁Кр	-11.468
▁schi	-11.4682
▁Uncle	-11.4682
800	-11.4685
▁बातें	-11.4685
казать	-11.4686
▁psych	-11.4687
▁Rest	-11.4692
▁echt	-11.4692
▁trou	-11.4693
▁visited	-11.4694
ался	-11.4694
▁inclu	-11.4696
▁Dem	-11.4696
▁intent	-11.4697
▁Games	-11.4697
▁(+	-11.4698
आई	-11.4698
▁Разве	-11.4699
arrive	-11.4699
▁negocio	-11.4699
▁AL	-11.4702
▁LO	-11.4705
▁Brad	-11.4705
▁assistant	-11.4708
▁meters	-11.4708
शी	-11.471
▁suffering	-11.4711
▁becomes	-11.4712
Hi	-11.4714
▁meal	-11.4715
▁Oder	-11.4719
play	-11.4726
▁110	-11.4727
▁Zur	-11.4728
▁transgress	-11.473
▁spin	-11.4733
▁servant	-11.4737
FP	-11.4738
pid	-11.4739
DP	-11.4739
▁chico	-11.4742
▁enquête	-11.4743
धी	-11.4746
▁Kid	-11.4747
▁terminal	-11.4749
▁suivantes	-11.475
cm	-11.4751
will	-11.4753
▁94	-11.4753
▁toilet	-11.4754
▁guest	-11.4757
▁ouvert	-11.476
▁lutte	-11.4761
▁Abb	-11.4761
Don	-11.4764
▁вечер	-11.4771
Э	-11.4772
dvisory	-11.4774
ë	-11.4774
▁eigentlich	-11.4774
▁monsieur	-11.4774
▁teléfono	-11.4774
▁केडीई	-11.4774
▁डिफ़ॉल्ट	-11.4774
▁प्रकाश	-11.4774
▁समस्या	-11.4774
politik	-11.4774
▁Family	-11.4774
▁easier	-11.4774
▁fichier	-11.4774
▁vuelta	-11.4774
▁रद्द	-11.4774
▁register	-11.4774
▁obtenu	-11.4774
▁téléphone	-11.4774
▁Emily	-11.4774
▁Prior	-11.4775
Cuál	-11.4775
▁первый	-11.4776
▁ऐसी	-11.4776
▁взял	-11.4776
▁Verfahren	-11.4776
▁détail	-11.4776
▁संपादक	-11.4777
▁consumption	-11.4778
▁protest	-11.4778
▁viejo	-11.4778
▁darling	-11.4779
▁examination	-11.478
▁Andy	-11.4783
Pri	-11.4784
कल	-11.4786
▁speaker	-11.4787
▁1960	-11.4787
▁1970	-11.4788
vient	-11.4789
▁Voir	-11.479
▁sufr	-11.4791
▁Ref	-11.4794
▁manual	-11.4794
analyse	-11.4795
▁высок	-11.4795
**	-11.4796
mond	-11.4798
dir	-11.4798
▁pratiques	-11.4798
▁locked	-11.4799
вания	-11.48
issant	-11.4802
▁connected	-11.4804
mise	-11.4804
blick	-11.4805
▁enfant	-11.4805
▁छा	-11.4808
▁97	-11.4809
gun	-11.4809
max	-11.4811
▁lessons	-11.4813
▁кем	-11.4816
▁Format	-11.4817
▁goals	-11.4817
ует	-11.4818
▁ту	-11.4818
kur	-11.4819
lagen	-11.482
क्रम	-11.4821
ritt	-11.4822
▁scope	-11.4823
▁aside	-11.4824
▁armed	-11.4829
rlo	-11.4832
▁Ese	-11.4832
▁слова	-11.4833
▁transit	-11.4836
▁Much	-11.4838
न्न	-11.4838
▁lib	-11.4838
ply	-11.484
mpf	-11.484
▁наши	-11.4849
turn	-11.485
▁Kirche	-11.485
licher	-11.4852
▁obligation	-11.4854
oni	-11.4855
ulé	-11.4856
▁Ann	-11.4856
ference	-11.4856
▁черт	-11.4857
▁**	-11.4859
▁Hor	-11.4859
дачи	-11.4859
/20	-11.4862
▁jug	-11.4863
cover	-11.4865
ático	-11.4866
OUR	-11.4867
▁принят	-11.4871
▁weather	-11.4871
▁solicit	-11.4871
▁besonders	-11.4872
▁financing	-11.4872
▁numerous	-11.4872
▁Пожалуйста	-11.4872
▁бюджет	-11.4872
▁действия	-11.4872
▁नमाज़	-11.4872
▁नसीहत	-11.4872
▁Grupo	-11.4872
▁которым	-11.4872
Amérique	-11.4872
▁mensaje	-11.4872
▁distress	-11.4872
▁wicked	-11.4872
▁abajo	-11.4872
▁находится	-11.4872
▁Exchange	-11.4873
▁oath	-11.4873
▁ожида	-11.4873
▁frente	-11.4873
▁झुठलाया	-11.4873
▁contenu	-11.4873
▁Rachel	-11.4873
▁आसान	-11.4873
▁Klein	-11.4873
▁Kraft	-11.4873
▁poison	-11.4874
quin	-11.4874
▁Betrieb	-11.4874
раст	-11.4875
▁fête	-11.4875
▁Республики	-11.4876
▁спас	-11.4877
▁affair	-11.488
raf	-11.4881
▁1987	-11.4882
▁Ul	-11.4885
▁Status	-11.4886
▁Unless	-11.4887
▁idol	-11.4888
क्का	-11.4888
▁Mess	-11.489
▁Karte	-11.4892
▁discussions	-11.4892
▁Commander	-11.4892
▁teeth	-11.4894
▁Ihrem	-11.4895
▁documentation	-11.4896
▁gene	-11.4899
▁memo	-11.4903
face	-11.4903
▁starts	-11.4904
▁Shaw	-11.4905
▁loco	-11.4905
्थ	-11.4906
▁Rich	-11.4906
isée	-11.4908
oud	-11.4913
▁nord	-11.4915
▁tank	-11.4918
▁halten	-11.492
▁hacen	-11.492
▁habt	-11.4921
Qu	-11.4921
▁Uni	-11.4921
▁souls	-11.4928
▁esperar	-11.4928
▁Live	-11.4929
ата	-11.493
aban	-11.4931
пар	-11.4931
là	-11.4932
▁diferentes	-11.4932
▁Mail	-11.4933
▁custom	-11.4934
▁hip	-11.4934
▁grown	-11.4938
вен	-11.4944
енных	-11.4946
▁wi	-11.4947
▁AP	-11.4953
▁défi	-11.4957
▁plein	-11.4958
▁Та	-11.4958
▁Fine	-11.4962
CHE	-11.4963
cional	-11.4968
▁Ac	-11.4968
▁Sei	-11.497
▁intend	-11.4971
▁König	-11.4971
▁Default	-11.4971
▁Frankfurt	-11.4971
▁Lieutenant	-11.4971
▁attitude	-11.4971
▁plenty	-11.4971
▁receiving	-11.4971
▁декабря	-11.4971
▁अभिलेख	-11.4971
▁changing	-11.4971
▁Значит	-11.4971
▁applies	-11.4971
▁Мистер	-11.4971
▁всю	-11.4971
▁peuple	-11.4971
▁Jacob	-11.4971
▁equipped	-11.4971
▁abode	-11.4972
▁junio	-11.4972
▁Paragraph	-11.4972
▁library	-11.4972
▁ग़	-11.4972
▁Kevin	-11.4972
▁Francisco	-11.4973
▁साफ	-11.4973
▁salva	-11.4973
▁promet	-11.4973
▁CC	-11.4974
issen	-11.4974
▁Among	-11.4974
ера	-11.4974
▁actuellement	-11.4974
▁बाप	-11.4975
▁exhibition	-11.4976
▁mood	-11.4976
rape	-11.4977
▁graves	-11.4978
▁Initiative	-11.4982
खा	-11.4983
teile	-11.4983
▁pourrais	-11.4984
▁पूर्व	-11.4984
nische	-11.4985
▁moyenne	-11.4986
мот	-11.4988
▁благодар	-11.4988
▁flash	-11.4991
▁Rev	-11.4992
▁obtained	-11.4993
▁assets	-11.4996
▁Billy	-11.4996
▁Box	-11.4996
related	-11.4997
▁dan	-11.5001
Vi	-11.5001
граф	-11.5004
iness	-11.5005
▁reply	-11.5007
▁चाह	-11.5007
▁Casa	-11.501
▁Pin	-11.5011
amine	-11.5011
▁задач	-11.5014
▁города	-11.5014
▁universe	-11.5015
ॉन	-11.5017
-11-	-11.5018
▁Jeff	-11.5018
▁zones	-11.5021
▁Му	-11.5021
▁stellt	-11.5024
▁Publication	-11.5026
▁estudi	-11.5035
▁Model	-11.5036
▁Werk	-11.5037
дан	-11.5038
▁milieu	-11.5044
▁sectors	-11.5047
▁ISO	-11.505
▁труд	-11.505
UI	-11.5061
▁принима	-11.5062
▁cher	-11.5064
▁зас	-11.5066
▁поз	-11.5066
▁constitue	-11.5068
ied	-11.5069
▁समाप्त	-11.507
×	-11.5071
▁рассматрива	-11.5071
▁obstacle	-11.5071
▁público	-11.5071
▁territory	-11.5071
▁Мобильный	-11.5071
▁возвращ	-11.5071
▁участие	-11.5071
▁अनुप्रयोग	-11.5071
▁Erfahrung	-11.5071
▁muestra	-11.5071
▁militaire	-11.5071
▁Supplement	-11.5072
▁retard	-11.5072
▁называ	-11.5072
▁будешь	-11.5072
▁dropped	-11.5072
▁agency	-11.5072
▁hablando	-11.5073
OJ	-11.5073
▁सीमा	-11.5073
▁Spring	-11.5074
▁पथ	-11.5074
▁hook	-11.5074
color	-11.5076
▁winner	-11.5077
▁centres	-11.5078
gelegt	-11.5079
▁unknown	-11.5081
▁NA	-11.5082
▁parole	-11.5085
peak	-11.5087
▁Natur	-11.5087
ари	-11.509
chie	-11.5091
▁demain	-11.5093
▁devices	-11.5096
▁shirt	-11.5097
dll	-11.5099
▁adopté	-11.5101
▁Shall	-11.5101
▁chart	-11.5102
▁heraus	-11.5104
-22	-11.5105
▁charm	-11.5105
▁Hace	-11.5106
▁bal	-11.5108
Pero	-11.5109
▁union	-11.5112
ép	-11.5113
affaire	-11.5114
rous	-11.5115
▁rig	-11.512
▁SK	-11.512
▁vente	-11.5124
cil	-11.5125
été	-11.5125
▁electric	-11.5126
▁एस	-11.5127
ended	-11.5127
Yes	-11.5128
год	-11.5129
▁Geschäfts	-11.5129
▁93	-11.5133
рог	-11.5134
lk	-11.5135
▁inkl	-11.5135
rock	-11.5138
▁MP	-11.5141
espère	-11.5142
▁procédure	-11.5142
▁Dark	-11.5142
12/16	-11.5142
▁Monte	-11.5143
.5%	-11.5147
कों	-11.515
▁потреб	-11.5153
▁hasten	-11.5154
▁Rolle	-11.5155
ас	-11.5163
▁practical	-11.5166
участник	-11.5167
▁indem	-11.5168
fach	-11.5169
▁duda	-11.517
▁Cooper	-11.517
▁Israeli	-11.5171
▁Personne	-11.5171
▁bedeutet	-11.5172
▁believing	-11.5172
▁février	-11.5172
▁understood	-11.5172
▁использовать	-11.5172
▁характер	-11.5172
▁कूटशब्द	-11.5172
▁ज़ालिम	-11.5172
▁colleague	-11.5172
▁grieve	-11.5172
▁lumière	-11.5172
▁zeigt	-11.5172
▁цвет	-11.5172
▁identity	-11.5172
▁Civil	-11.5172
▁properties	-11.5172
▁शहर	-11.5173
▁видеть	-11.5173
▁अधिकार	-11.5173
▁transmission	-11.5173
▁Bobby	-11.5173
▁visual	-11.5173
▁rempli	-11.5173
▁dirección	-11.5174
▁revolution	-11.5174
frag	-11.5174
▁Bruder	-11.5175
▁odd	-11.5175
▁करनेवालों	-11.5175
ago	-11.5178
▁modified	-11.5178
▁Royal	-11.5178
jet	-11.5178
▁clay	-11.5181
▁Kein	-11.5181
▁Task	-11.5181
Cu	-11.5182
▁लेते	-11.5183
▁Ottawa	-11.5184
▁chicken	-11.5185
▁concluded	-11.5186
spot	-11.5188
▁achievement	-11.5189
2€	-11.519
Schweiz	-11.519
▁français	-11.5191
aï	-11.5193
▁Wert	-11.5193
▁расс	-11.5195
▁такая	-11.5195
▁icon	-11.5196
▁Lie	-11.5197
break	-11.5198
▁использу	-11.5199
▁74	-11.5199
▁museum	-11.5199
▁lesson	-11.5202
▁travailler	-11.5203
2004,	-11.5205
gate	-11.5205
▁nuts	-11.5206
rine	-11.5206
ज्	-11.5207
gua	-11.5207
▁surprised	-11.5207
▁Invest	-11.5212
▁observed	-11.5213
▁eff	-11.5214
▁Pages	-11.5218
dorf	-11.5219
▁Host	-11.5221
▁отношения	-11.5221
▁kleinen	-11.5222
▁देश	-11.5222
ложен	-11.5222
▁belle	-11.5222
▁hire	-11.5223
▁Джо	-11.5226
▁resultados	-11.5226
▁nécessaires	-11.5229
шен	-11.5229
▁siente	-11.523
kri	-11.5231
▁часов	-11.5231
▁Messengers	-11.5232
chu	-11.5233
रिक	-11.5233
▁Seiten	-11.5233
▁bekommen	-11.5236
▁disk	-11.5238
SL	-11.5239
▁gel	-11.5241
▁Earl	-11.5243
итесь	-11.5245
▁könnten	-11.5246
дает	-11.5249
shop	-11.5256
▁शा	-11.5256
्री	-11.5256
▁Doug	-11.5257
▁Kate	-11.526
▁Pur	-11.5263
▁journal	-11.5264
▁орган	-11.5266
Й	-11.5267
िला	-11.527
rÃ	-11.527
▁spéciale	-11.5271
▁curso	-11.5272
migration	-11.5272
▁Cur	-11.5274
▁Detective	-11.5274
▁Language	-11.5274
▁esfuerzo	-11.5274
▁explanation	-11.5274
▁población	-11.5274
▁posibilidad	-11.5274
▁struggle	-11.5274
▁Возможно	-11.5274
▁Конечно	-11.5274
▁населения	-11.5274
▁आरंभ	-11.5274
▁प्रोग्राम	-11.5274
▁हेतु	-11.5274
▁Length	-11.5274
▁Lösung	-11.5274
▁emerge	-11.5274
▁libertad	-11.5274
▁Höhe	-11.5274
▁surrender	-11.5274
▁Sweden	-11.5274
▁silver	-11.5274
▁Further	-11.5274
▁tourist	-11.5274
▁niemand	-11.5275
▁trigger	-11.5275
ехать	-11.5275
▁covenant	-11.5275
▁spielen	-11.5275
▁доктор	-11.5275
ificación	-11.5276
▁entrance	-11.5276
▁ड्र	-11.5276
▁दबा	-11.5276
▁Steuer	-11.5276
▁acceso	-11.5276
prüf	-11.5276
BE	-11.5276
▁organismes	-11.5276
▁bebé	-11.5277
▁decade	-11.5277
▁которого	-11.5277
▁подумал	-11.5277
▁sword	-11.5278
▁Walter	-11.5279
▁Эта	-11.5279
▁Charter	-11.528
▁Editor	-11.5281
▁edge	-11.5282
▁registration	-11.5283
▁romp	-11.5283
▁invitation	-11.5284
istes	-11.5286
▁Belgium	-11.5287
▁blessed	-11.5289
Id	-11.529
▁Schau	-11.529
Wo	-11.5294
▁Zwei	-11.5296
▁आर	-11.5297
▁audience	-11.5298
gleich	-11.5299
title	-11.5299
▁Dank	-11.53
▁pone	-11.5301
▁attribute	-11.5302
▁неё	-11.5302
▁долго	-11.5309
▁impression	-11.531
RY	-11.531
▁flame	-11.5311
Free	-11.5311
▁Victoria	-11.5313
▁souhaite	-11.5313
▁Supp	-11.5313
RP	-11.5313
ху	-11.5314
INE	-11.5314
fusion	-11.5315
▁Wil	-11.5317
▁increases	-11.5321
▁работать	-11.5322
▁Fal	-11.5323
aja	-11.5325
▁estudio	-11.5328
▁facilitate	-11.5329
▁gro	-11.5329
wie	-11.5333
charge	-11.5336
чные	-11.5338
ющей	-11.5342
▁secrets	-11.5342
▁atención	-11.5343
eff	-11.5347
▁pratique	-11.5352
▁TH	-11.5353
▁eigene	-11.5355
▁participant	-11.5356
atrice	-11.5357
▁свое	-11.5364
Est	-11.5365
SM	-11.5366
▁adjust	-11.5367
тесь	-11.5368
▁manufacturer	-11.5368
▁полу	-11.5368
▁champ	-11.537
▁Rom	-11.5372
ched	-11.5373
▁sola	-11.5375
▁delete	-11.5376
show	-11.5377
▁Technologie	-11.5377
▁conférence	-11.5377
▁garçon	-11.5377
▁rápido	-11.5377
▁поэтому	-11.5377
▁совсем	-11.5377
▁धन्यवाद	-11.5377
▁मनुष्य	-11.5377
▁योग्य	-11.5377
▁Änderung	-11.5377
▁Anything	-11.5377
▁उत्तर	-11.5377
▁Czech	-11.5377
▁Forschung	-11.5377
▁Psych	-11.5377
▁elected	-11.5377
▁conceal	-11.5378
▁genial	-11.5378
▁erreicht	-11.5378
▁común	-11.5378
▁presque	-11.5378
▁crucial	-11.5378
▁recours	-11.5378
▁побед	-11.5378
▁chemin	-11.5379
▁detective	-11.5379
▁каждый	-11.5379
▁Vincent	-11.538
▁knee	-11.538
▁territoire	-11.538
▁Parece	-11.5381
▁cambiar	-11.5381
▁mayoría	-11.5381
than	-11.5381
gebiet	-11.5381
GH	-11.5383
▁hydro	-11.5384
▁Ladies	-11.5384
▁mock	-11.5387
chel	-11.5387
▁pump	-11.5389
▁लॉग	-11.5389
▁llamada	-11.5395
▁successfully	-11.5396
▁сообщ	-11.5397
NU	-11.5398
ICA	-11.5399
▁भू	-11.5401
▁Costa	-11.5402
ंच	-11.5403
▁перес	-11.5403
▁tellement	-11.5404
établissement	-11.5405
setzen	-11.5405
сса	-11.5407
вяз	-11.5407
▁rap	-11.5408
▁represented	-11.5409
▁700	-11.5409
▁mono	-11.5409
▁constitute	-11.5409
ंत	-11.5409
ignant	-11.5411
▁Sar	-11.5411
aga	-11.5412
राम	-11.5413
▁Knower	-11.5413
lose	-11.5415
ग्न	-11.5417
▁vielen	-11.542
tischen	-11.5421
▁comer	-11.5422
ombre	-11.5423
programme	-11.5424
pra	-11.5426
щен	-11.5433
▁règles	-11.5433
▁Halt	-11.5435
wl	-11.5437
▁observe	-11.5437
над	-11.5441
▁Anne	-11.5441
▁बदले	-11.5441
▁fishing	-11.5443
▁Rule	-11.5446
▁komm	-11.5446
bahn	-11.5448
▁recon	-11.5456
particulièrement	-11.5456
▁heal	-11.5458
NY	-11.546
▁doom	-11.5462
кор	-11.5462
zip	-11.5463
▁reveal	-11.5466
eme	-11.5467
DO	-11.5471
▁devez	-11.5471
direct	-11.5473
▁थ	-11.5476
рит	-11.5476
▁संपाद	-11.5476
▁CI	-11.5478
▁EM	-11.5479
▁торгов	-11.548
▁месяц	-11.5481
▁Artículo	-11.5482
▁cariño	-11.5482
▁categories	-11.5482
▁democracy	-11.5482
▁expensive	-11.5482
▁residence	-11.5482
▁хотите	-11.5482
▁टैब	-11.5482
▁शख्स	-11.5482
▁Method	-11.5482
▁gilt	-11.5482
ypages	-11.5482
▁чём	-11.5482
▁मालिक	-11.5482
▁relativa	-11.5482
▁hoping	-11.5483
▁Cross	-11.5483
▁Honey	-11.5483
▁सत्र	-11.5483
▁stuck	-11.5484
▁रहते	-11.5484
▁мою	-11.5485
▁молод	-11.5486
▁коп	-11.5487
▁Said	-11.5489
▁spec	-11.5489
▁bunch	-11.549
▁guns	-11.549
▁Bat	-11.549
/55/	-11.5491
▁Unser	-11.5491
▁две	-11.5491
▁इसका	-11.5493
▁flowers	-11.5493
cuba	-11.5495
▁muß	-11.5495
▁кол	-11.5498
▁Fan	-11.55
▁significantly	-11.5501
▁patent	-11.5501
öl	-11.5501
▁служ	-11.5502
wohl	-11.5503
▁Via	-11.5504
cision	-11.5509
Ä	-11.551
▁fashion	-11.551
service	-11.5511
▁Sit	-11.5512
▁seminar	-11.5516
▁pulled	-11.5517
▁carta	-11.5519
лер	-11.5519
▁Left	-11.5524
▁sociale	-11.5527
▁Poli	-11.5527
▁sogar	-11.5531
▁conformé	-11.5531
▁coûts	-11.5533
▁ख़बर	-11.5533
▁disbelieved	-11.5534
डर	-11.5537
-09-	-11.5538
▁Mist	-11.554
▁час	-11.5544
▁слуша	-11.5544
▁Roll	-11.5546
▁Shin	-11.5547
▁BU	-11.555
God	-11.5551
зер	-11.5555
ssement	-11.5556
▁लेने	-11.5556
र्ग	-11.5556
▁Mid	-11.5558
▁Bak	-11.5559
▁vivir	-11.5562
▁comprendre	-11.5562
zzi	-11.5563
दान	-11.5564
▁Poly	-11.5564
karte	-11.5565
▁связан	-11.5566
▁Cho	-11.5566
▁ears	-11.5567
▁enhance	-11.5567
▁prend	-11.5568
▁Arr	-11.5568
human	-11.5572
▁tender	-11.5574
▁акт	-11.5575
cola	-11.5577
▁señora	-11.5579
ющего	-11.5582
▁голов	-11.5582
त्व	-11.5582
▁collabor	-11.5582
-27	-11.5584
सल	-11.5584
राज	-11.5585
▁Through	-11.5587
▁Итак	-11.5587
▁निर्दिष्ट	-11.5587
▁secretariat	-11.5587
▁क्रिया	-11.5587
▁एशिया	-11.5587
▁सरकश	-11.5587
▁senior	-11.5587
▁falsehood	-11.5587
▁Gebiet	-11.5587
▁envoyé	-11.5587
▁oficina	-11.5587
▁versucht	-11.5587
▁Annual	-11.5587
▁गवाह	-11.5587
▁aunque	-11.5587
▁hungry	-11.5588
▁effectué	-11.5588
▁Боже	-11.5588
▁autant	-11.5588
йдем	-11.5588
▁supplémentaire	-11.5588
▁ganzen	-11.5589
▁UK	-11.5589
▁combin	-11.5589
▁रखना	-11.5589
▁études	-11.559
puerto	-11.559
▁percentage	-11.5591
▁mouse	-11.5593
▁dormir	-11.5593
▁debemos	-11.5595
▁कहना	-11.5595
▁1982	-11.5596
▁времен	-11.5598
▁Moon	-11.5599
pla	-11.5601
▁भरें	-11.5602
▁Аллаха	-11.5603
▁Case	-11.5603
▁факт	-11.5603
▁Hank	-11.5605
cida	-11.5609
▁accessible	-11.5613
>>	-11.5617
▁rendu	-11.5618
bare	-11.5619
▁жела	-11.562
▁visa	-11.562
▁ships	-11.562
▁gerne	-11.5622
IO	-11.5622
making	-11.5623
▁confirmed	-11.5625
▁consiste	-11.5626
7€	-11.5626
нным	-11.5631
▁establishing	-11.5632
▁Fest	-11.5632
▁बनाए	-11.5632
▁dispose	-11.5634
ार्ड	-11.5634
▁Shu	-11.5638
▁tenir	-11.564
rufen	-11.5641
▁risks	-11.5642
▁Скажи	-11.5642
But	-11.5643
assembl	-11.5646
▁bloody	-11.5649
▁Rates	-11.5649
rique	-11.565
gc	-11.5654
▁dumb	-11.5655
▁répond	-11.5656
▁अव	-11.5657
▁Institution	-11.5657
cation	-11.5661
▁घटना	-11.5663
▁Termin	-11.5669
етесь	-11.5669
▁figured	-11.5669
▁celles	-11.5671
▁Georgia	-11.5673
4€	-11.5677
ordnung	-11.5679
▁seeking	-11.5681
जो	-11.5681
▁Wohn	-11.5681
▁settle	-11.5682
pot	-11.5684
now	-11.5685
vil	-11.5685
▁10%	-11.5685
полага	-11.5686
▁chant	-11.5686
leben	-11.5687
▁withdraw	-11.5688
schein	-11.5688
▁tested	-11.5689
▁inherit	-11.5692
▁außer	-11.5693
▁médecin	-11.5693
▁двух	-11.5693
▁млн	-11.5693
▁Amsterdam	-11.5693
▁Society	-11.5693
▁Verfügung	-11.5693
▁délégation	-11.5693
▁neighbour	-11.5693
▁recognise	-11.5693
▁scream	-11.5693
▁отсюда	-11.5693
▁постоянно	-11.5693
▁अज्ञात	-11.5693
▁अतिरिक्त	-11.5693
▁कनेक्शन	-11.5693
▁ध्वनि	-11.5693
▁condiciones	-11.5693
▁integration	-11.5693
▁paiement	-11.5693
▁summary	-11.5693
▁счастлив	-11.5693
▁पहचान	-11.5693
▁ruhig	-11.5693
▁comunidad	-11.5693
▁Furthermore	-11.5693
▁automatically	-11.5693
▁Girl	-11.5694
▁Share	-11.5694
▁sinners	-11.5694
▁shopping	-11.5694
▁Andrew	-11.5694
▁cattle	-11.5695
▁courage	-11.5695
fallen	-11.5696
▁civilian	-11.5696
▁Nadie	-11.5696
▁Druck	-11.5697
▁bread	-11.5697
▁oficial	-11.5697
▁conocer	-11.5697
▁shake	-11.5697
▁influ	-11.5698
▁directement	-11.5698
▁1.2	-11.5698
▁Vertrag	-11.5699
▁warrant	-11.57
▁Mak	-11.5702
▁1984	-11.5703
▁लाल	-11.5703
▁conforme	-11.5704
▁savais	-11.5705
ваться	-11.5705
▁Level	-11.5706
▁शीर्षक	-11.5706
▁буд	-11.5707
▁carefully	-11.5707
▁acce	-11.571
▁बच	-11.571
▁больш	-11.571
▁fifth	-11.5712
▁такого	-11.5714
▁crise	-11.5715
▁sensitive	-11.5718
▁Тво	-11.5718
▁gotten	-11.5719
▁officials	-11.572
дит	-11.5722
group	-11.5724
▁termes	-11.5726
▁опас	-11.5727
format	-11.5727
▁quedar	-11.5729
▁obtenir	-11.5731
▁locales	-11.5731
▁créer	-11.5733
▁nose	-11.5734
tech	-11.5735
▁Normal	-11.5736
▁Мак	-11.5738
▁estaban	-11.5738
▁vino	-11.5739
espace	-11.5741
▁manger	-11.5743
▁Mill	-11.5745
▁vegetables	-11.5746
▁faithful	-11.5747
▁fired	-11.5748
▁activa	-11.5748
▁shooting	-11.5749
▁resolutions	-11.575
▁cream	-11.5751
▁Sind	-11.5755
▁euros	-11.5756
angel	-11.5756
▁Fish	-11.5758
fangen	-11.576
▁histoire	-11.5761
▁Karen	-11.5761
▁sprach	-11.5762
▁Gardens	-11.5763
ander	-11.5765
▁смогу	-11.5768
▁windows	-11.577
▁beide	-11.577
▁Reference	-11.5772
чат	-11.5775
▁exclu	-11.5775
▁walked	-11.5776
aging	-11.5779
hir	-11.578
▁Jess	-11.5781
▁risques	-11.5781
▁assess	-11.5782
aufrufe	-11.5783
ziehen	-11.5784
▁grain	-11.5784
▁crush	-11.5784
▁Record	-11.5785
▁Signs	-11.5786
▁mortal	-11.5787
▁highlight	-11.5788
▁Vie	-11.5791
▁सिर	-11.5792
▁CIA	-11.5792
▁खुश	-11.5796
▁McC	-11.5798
pati	-11.5799
▁recover	-11.5799
▁Bürger	-11.5801
▁behavior	-11.5801
▁объясн	-11.5801
ð	-11.5801
▁consecuencia	-11.5801
▁conséquence	-11.5801
▁excited	-11.5801
▁sponsor	-11.5801
▁प्रतीक	-11.5801
▁बकवास	-11.5801
▁почти	-11.5801
▁Situation	-11.5801
▁connaissance	-11.5801
▁Johann	-11.5801
▁SI	-11.5801
▁Request	-11.5801
▁сектор	-11.5801
▁घाट	-11.5801
▁bald	-11.5801
wirtschaft	-11.5802
▁nombreuses	-11.5802
▁Tür	-11.5802
▁Datum	-11.5803
▁enforcement	-11.5804
▁принять	-11.5804
▁Guard	-11.5806
▁Ltd	-11.5806
▁consent	-11.5806
▁Schi	-11.5807
▁Даже	-11.5807
▁Speak	-11.5807
▁статьи	-11.581
▁1979	-11.5811
▁équipe	-11.5812
▁Patienten	-11.5812
cell	-11.5812
▁amounts	-11.5814
▁hohe	-11.5814
▁कब	-11.5816
▁Puis	-11.5816
▁पालन	-11.5818
▁Дай	-11.5818
rada	-11.5819
▁Autre	-11.582
source	-11.5821
▁bird	-11.5822
ARD	-11.5822
▁жена	-11.5823
chten	-11.5825
▁Aren	-11.5825
▁आता	-11.5826
▁Ал	-11.5827
▁réalisé	-11.5828
▁humaine	-11.5829
▁वेब	-11.5829
дела	-11.5831
▁gui	-11.5831
intérieur	-11.5832
▁schlecht	-11.5835
▁indicators	-11.5836
▁suggested	-11.5836
▁#9	-11.5836
▁affairs	-11.5839
▁fake	-11.5841
▁resto	-11.5842
▁siguientes	-11.5843
▁somos	-11.5843
▁attain	-11.5844
▁rivers	-11.5847
▁собственн	-11.5848
Para	-11.5848
▁luz	-11.5848
▁examine	-11.5849
▁murdered	-11.5851
▁stands	-11.5852
▁शो	-11.5854
++	-11.5855
▁carrying	-11.5856
▁पो	-11.5857
▁mehrere	-11.586
▁somme	-11.586
lauf	-11.5861
аешь	-11.5863
▁PR	-11.5864
▁работ	-11.5864
▁tren	-11.5865
avant	-11.5866
▁plu	-11.5868
▁affirm	-11.5868
nach	-11.5871
ior	-11.5872
)*	-11.5874
1€	-11.5874
WA	-11.5876
dies	-11.5879
▁generations	-11.588
agent	-11.588
pag	-11.588
▁interne	-11.5881
▁latter	-11.5881
▁représentants	-11.5882
▁прошло	-11.5884
RR	-11.5885
▁protecting	-11.5885
▁смог	-11.5888
▁130	-11.5889
▁заяв	-11.589
rov	-11.5897
lug	-11.5899
▁कोड	-11.5899
▁semi	-11.5899
èrent	-11.5901
LU	-11.5901
lga	-11.5901
▁recommendation	-11.5903
▁Lebens	-11.5904
station	-11.5907
opération	-11.5907
▁bless	-11.5908
Or	-11.5909
блюда	-11.5909
▁Colombia	-11.5909
▁extensive	-11.5909
▁inhabitants	-11.5909
▁объем	-11.5909
▁установлен	-11.5909
▁प्रत्येक	-11.5909
▁yellow	-11.5909
▁Stück	-11.5909
▁stretch	-11.5909
ÇÚ	-11.5909
▁шанс	-11.5909
▁pensais	-11.5909
▁sentiment	-11.591
▁sought	-11.591
▁Wahrheit	-11.591
▁WHAT	-11.591
▁Premier	-11.591
▁platform	-11.591
▁plastic	-11.591
▁troisième	-11.591
▁gegenüber	-11.591
▁hill	-11.591
▁Gerät	-11.591
▁délai	-11.5912
▁declaration	-11.5912
▁hoffe	-11.5912
▁लिखने	-11.5913
appui	-11.5914
▁सुरक्षित	-11.5917
▁fera	-11.5918
▁Schul	-11.5918
▁indication	-11.5919
▁Dean	-11.592
▁Sil	-11.592
мент	-11.5921
▁президент	-11.5921
▁Raum	-11.5922
▁absolut	-11.5922
▁possession	-11.5922
ील	-11.5922
▁directeur	-11.5923
bilité	-11.5923
ило	-11.5924
▁शक	-11.5924
▁Object	-11.5925
▁sports	-11.5926
▁inspection	-11.5927
▁considerable	-11.5928
zig	-11.5929
овые	-11.5932
▁Congo	-11.5932
▁Blog	-11.5933
▁Palm	-11.5941
▁perfectly	-11.5942
▁Сер	-11.5942
dessus	-11.5942
expert	-11.5943
▁justo	-11.5943
र्त	-11.5944
▁répondre	-11.5945
▁heißt	-11.5946
▁strict	-11.5946
एगा	-11.5947
▁hago	-11.595
▁Фи	-11.5952
▁rub	-11.5953
▁jefe	-11.5954
▁fondo	-11.5957
▁1.1	-11.5959
▁अस	-11.596
wed	-11.5962
Bas	-11.5963
▁noticed	-11.5963
▁gemäß	-11.5964
▁explained	-11.5968
сте	-11.597
ducción	-11.597
▁wondering	-11.597
▁complet	-11.5971
▁différents	-11.5971
▁Cost	-11.5971
ева	-11.5972
▁cue	-11.5972
lick	-11.5972
1998	-11.5973
▁Mü	-11.5973
▁malo	-11.5973
▁décisions	-11.5975
hum	-11.5975
▁मन	-11.5976
кам	-11.5977
RM	-11.5977
▁buscar	-11.5979
▁cou	-11.5983
equ	-11.5989
chung	-11.599
▁gehe	-11.599
▁factors	-11.599
▁vale	-11.5994
ush	-11.5995
▁Ash	-11.5997
jer	-11.5997
markt	-11.5997
▁хотя	-11.5998
▁alien	-11.5998
▁venu	-11.6002
num	-11.6003
▁लौट	-11.6003
▁upper	-11.6004
mind	-11.6006
nning	-11.6007
▁hello	-11.6008
▁Musa	-11.6009
pré	-11.6012
▁стр	-11.6013
▁palabras	-11.6015
lash	-11.6016
▁alta	-11.6017
▁Brazil	-11.6018
▁dialog	-11.6019
▁Asamblea	-11.6019
▁Implementation	-11.6019
▁Même	-11.6019
▁Unfortunately	-11.6019
▁davantage	-11.6019
▁facility	-11.6019
▁paciente	-11.6019
▁upstairs	-11.6019
▁víctima	-11.6019
▁ÇáÂä	-11.6019
▁Похоже	-11.6019
▁культур	-11.6019
▁менее	-11.6019
▁तिथि	-11.6019
▁gratuit	-11.6019
▁orphan	-11.6019
▁vivre	-11.6019
▁injection	-11.6019
▁despair	-11.6019
▁узнал	-11.6019
▁Доклад	-11.602
▁administra	-11.602
▁Verbindung	-11.602
▁अधिकतम	-11.602
▁дней	-11.602
▁sociedad	-11.602
48#	-11.602
▁Nathan	-11.602
▁gewesen	-11.6021
▁Certainly	-11.6021
agne	-11.6022
кая	-11.6022
firm	-11.6022
▁stability	-11.6023
▁размер	-11.6025
▁руки	-11.6028
2.1	-11.6029
▁triste	-11.603
▁Wieso	-11.603
▁Administration	-11.6032
▁Annie	-11.6033
▁ходе	-11.6033
▁Мил	-11.6034
national	-11.6034
▁Sala	-11.6035
anta	-11.6035
roche	-11.604
▁Private	-11.6041
▁Seit	-11.6041
tures	-11.6041
▁figura	-11.6042
▁évaluation	-11.6042
▁translation	-11.6043
▁Stra	-11.6044
▁concrete	-11.6045
▁peaceful	-11.605
▁lied	-11.6051
▁Glas	-11.6052
importance	-11.6053
enfant	-11.6054
▁Мой	-11.6056
▁sexy	-11.6057
▁sah	-11.6057
▁Regel	-11.6059
▁Brand	-11.6059
▁weigh	-11.606
▁marketing	-11.6061
▁vain	-11.6061
▁val	-11.6068
ических	-11.6068
avait	-11.6069
▁котором	-11.6072
issent	-11.6075
▁Moment	-11.6076
▁explic	-11.6078
▁Gas	-11.6078
+2	-11.6079
▁отлич	-11.6081
▁paying	-11.6083
teilen	-11.6083
Au	-11.6086
▁Stelle	-11.6086
▁Prim	-11.6086
▁Diego	-11.6086
▁limits	-11.609
▁deaf	-11.609
cz	-11.6091
▁prévoi	-11.6092
▁mondiale	-11.6094
▁juge	-11.6094
dale	-11.6096
▁acknowledge	-11.6098
▁perro	-11.6099
▁possess	-11.6101
▁Flu	-11.6103
▁alto	-11.6106
1999	-11.6108
полне	-11.6112
▁Rechts	-11.6113
▁PE	-11.6116
fan	-11.6117
ily	-11.6122
▁taxi	-11.6125
▁जीव	-11.6128
▁направлен	-11.6129
▁belief	-11.6129
ऊँ	-11.613
▁arriba	-11.613
▁hiciste	-11.613
▁político	-11.613
▁shadow	-11.613
▁бизнес	-11.613
▁компании	-11.613
▁पिछले	-11.613
▁значение	-11.613
▁pertinent	-11.613
▁Fonds	-11.613
▁riesgo	-11.613
▁página	-11.6131
▁Schön	-11.6131
▁legislative	-11.6131
▁THAT	-11.6131
▁protección	-11.6131
▁Зачем	-11.6131
писал	-11.6132
reise	-11.6132
▁Très	-11.6132
ologist	-11.6132
▁Voici	-11.6132
▁ocupa	-11.6133
wir	-11.6134
▁fecha	-11.6134
▁SAW	-11.6135
▁Cooperation	-11.6135
▁normes	-11.6135
▁beside	-11.6136
▁convient	-11.6139
▁Sau	-11.6141
▁Farm	-11.6141
rios	-11.6143
▁immun	-11.6143
▁dirty	-11.6144
unit	-11.6145
▁respective	-11.6146
▁Ober	-11.6147
▁виду	-11.6148
▁мере	-11.6148
▁introduction	-11.6153
They	-11.6155
▁lake	-11.6155
rno	-11.6156
▁entirely	-11.6158
▁smaller	-11.6158
▁vice	-11.6159
▁Sabes	-11.616
▁Комитета	-11.6161
▁выбор	-11.6162
▁suchen	-11.6162
III	-11.6162
▁présenter	-11.6163
▁carga	-11.6163
▁nurse	-11.6163
▁travaille	-11.6165
▁sorte	-11.6167
▁Marie	-11.6167
▁vivo	-11.6169
▁`	-11.6169
▁विचार	-11.6169
▁programas	-11.6171
▁пал	-11.6172
ffin	-11.6174
▁maman	-11.6175
▁paso	-11.6175
▁Amy	-11.6176
case	-11.6177
▁crying	-11.6178
▁Fran	-11.6179
▁Тем	-11.618
▁fate	-11.6184
impuls	-11.6184
▁attacked	-11.6185
▁бар	-11.6186
dès	-11.6186
mäßig	-11.6187
▁networks	-11.6189
IV	-11.619
▁Weitere	-11.6193
▁angle	-11.6194
▁sociales	-11.6195
▁\	-11.6196
▁quelle	-11.6197
▁Weiter	-11.6201
front	-11.6202
▁aimed	-11.6202
▁clair	-11.6204
▁hätten	-11.6204
DF	-11.6204
▁правительства	-11.6208
▁versch	-11.6208
▁Leid	-11.6211
▁quant	-11.6211
utter	-11.6211
दे	-11.6212
▁continuer	-11.6212
▁Kla	-11.6214
▁sum	-11.6216
▁टॉ	-11.6219
▁merci	-11.6223
Studie	-11.6224
▁gegeben	-11.6224
einander	-11.6227
cca	-11.6229
▁बो	-11.6229
▁др	-11.623
lph	-11.6234
▁либо	-11.6235
▁HA	-11.6236
▁empresa	-11.6236
There	-11.6237
▁extract	-11.6237
▁morir	-11.6237
▁(9)	-11.6237
▁fabric	-11.624
▁walls	-11.6241
š	-11.6243
▁Invalid	-11.6243
▁phrase	-11.6243
▁Amendment	-11.6243
▁Festival	-11.6243
▁Gemeinde	-11.6243
▁Zugriffe	-11.6243
▁compagnie	-11.6243
▁considéré	-11.6243
▁dürfen	-11.6243
▁lässt	-11.6243
▁pública	-11.6243
▁Конвенции	-11.6243
▁तंत्र	-11.6243
▁croire	-11.6243
▁borrow	-11.6243
▁вижу	-11.6243
accueil	-11.6243
▁июля	-11.6243
▁empezar	-11.6243
▁осуществления	-11.6243
▁vérité	-11.6243
▁Больш	-11.6243
▁tratamiento	-11.6243
TP	-11.6243
▁opposition	-11.6243
▁compliance	-11.6243
▁своем	-11.6243
▁सीडी	-11.6244
▁subvention	-11.6244
▁calidad	-11.6244
▁Lock	-11.6245
▁interrog	-11.6245
▁делаешь	-11.6245
gegangen	-11.6245
▁LORD	-11.6245
▁morgen	-11.6245
▁Вер	-11.6246
▁टो	-11.6246
▁Recommendation	-11.6247
▁चलते	-11.6247
▁жить	-11.6248
▁Welche	-11.625
▁aufgenommen	-11.625
▁confront	-11.6251
▁Süd	-11.6251
▁Jerry	-11.6251
▁комитет	-11.6253
▁conscience	-11.6253
▁formed	-11.6255
▁marks	-11.6255
▁सख्त	-11.6255
▁Labor	-11.6256
▁occupation	-11.6256
▁attached	-11.6256
wiki	-11.6257
▁Email	-11.6257
iii	-11.6258
▁Screen	-11.6261
▁вне	-11.6262
▁socio	-11.6264
▁Mini	-11.6264
▁Romania	-11.6266
▁invité	-11.6267
▁любит	-11.6269
-25	-11.6271
▁soup	-11.6271
▁east	-11.6273
▁conserva	-11.6273
▁Handel	-11.6275
▁explique	-11.6277
▁calle	-11.6277
▁precios	-11.6279
▁//	-11.6285
urgence	-11.6285
▁cease	-11.6287
▁flower	-11.6288
▁modifications	-11.6293
▁mask	-11.6294
▁democratic	-11.6294
▁drawing	-11.6294
तो	-11.6296
▁genera	-11.6297
याँ	-11.6298
▁mostly	-11.6298
verkehr	-11.63
▁utiliza	-11.63
▁учет	-11.6302
▁180	-11.6304
mediante	-11.6304
▁UE	-11.6305
▁hé	-11.6306
▁août	-11.6307
▁Gast	-11.6311
Has	-11.6313
▁Chuck	-11.6314
▁цели	-11.6316
▁tire	-11.6319
▁Fisch	-11.632
▁seed	-11.6327
PER	-11.6329
FT	-11.6332
▁advise	-11.6338
чка	-11.6339
провод	-11.634
▁desert	-11.6341
▁Пар	-11.6341
▁Zum	-11.6342
▁Cut	-11.6344
▁चि	-11.6344
▁effets	-11.6347
▁officielle	-11.6347
По	-11.6347
▁Bell	-11.6348
▁प्रा	-11.6348
▁obvious	-11.6348
▁gradu	-11.6351
▁baja	-11.6351
▁semaines	-11.6352
clusion	-11.6353
▁Grün	-11.6354
▁réseau	-11.6354
individu	-11.6355
▁Unterstützung	-11.6356
▁alrededor	-11.6356
▁catégorie	-11.6356
▁experiencia	-11.6356
▁feliz	-11.6356
▁película	-11.6356
▁remembrance	-11.6356
▁threw	-11.6356
▁Председателя	-11.6356
▁Хочешь	-11.6356
▁охран	-11.6356
▁स्वयं	-11.6356
▁Colonel	-11.6356
▁horizontal	-11.6356
▁Certificate	-11.6356
▁besteht	-11.6356
▁liberté	-11.6356
▁Polizei	-11.6356
▁swimming	-11.6356
▁Vienna	-11.6356
▁poursuiv	-11.6356
▁Einzel	-11.6357
▁Budget	-11.6357
▁Easy	-11.6357
▁telephone	-11.6357
▁prosper	-11.6357
▁revised	-11.6357
▁segment	-11.6357
▁Gl	-11.6357
▁Schritt	-11.6358
▁preced	-11.6358
▁sole	-11.6358
▁continuous	-11.6359
▁specifically	-11.6359
▁darkness	-11.6359
▁rising	-11.6359
▁Без	-11.6359
▁erreichen	-11.6359
▁fraud	-11.6359
▁Acc	-11.636
▁vertical	-11.6361
schlossen	-11.6361
ировал	-11.6362
▁ropa	-11.6362
alter	-11.6363
▁schl	-11.6363
▁AC	-11.6365
▁plat	-11.6367
▁forum	-11.6367
▁1977	-11.6367
▁1981	-11.6368
▁properly	-11.6368
▁différentes	-11.6369
isierung	-11.637
▁Bist	-11.6371
▁monster	-11.6371
▁Наш	-11.6372
PG	-11.6376
▁founded	-11.6376
▁Hit	-11.6377
▁cow	-11.6377
STA	-11.6377
esprit	-11.6378
▁gathered	-11.6379
▁educational	-11.6382
▁civile	-11.6382
▁duties	-11.6383
▁Font	-11.6386
▁Space	-11.6387
organisme	-11.6388
▁anzu	-11.6388
▁रु	-11.6391
école	-11.6394
орт	-11.6396
▁county	-11.6398
▁players	-11.6399
▁normally	-11.6399
▁classes	-11.64
▁producers	-11.64
▁Uno	-11.6401
▁refused	-11.6401
▁HI	-11.6403
force	-11.6403
▁aime	-11.6404
▁dernières	-11.6407
▁курс	-11.6407
▁Dir	-11.6407
Sí	-11.6408
▁duration	-11.6408
▁models	-11.641
▁fertig	-11.6411
▁MY	-11.6412
▁верно	-11.6414
ouvri	-11.642
Gu	-11.6424
▁Essen	-11.6425
▁क्ल	-11.6426
harm	-11.6429
▁parmi	-11.6432
▁cheat	-11.6433
▁правительство	-11.6434
▁dogs	-11.6435
▁Talk	-11.6435
/2002	-11.6439
हो	-11.6439
▁alert	-11.6439
▁fournir	-11.6441
стью	-11.6443
igan	-11.6443
chin	-11.6443
rasse	-11.6443
Mon	-11.6445
▁revenue	-11.6445
PM	-11.6446
anna	-11.6446
समर्थित	-11.6446
gne	-11.6447
▁haute	-11.6449
▁survive	-11.6451
▁Santo	-11.6451
▁укреплени	-11.6452
▁Montag	-11.6454
▁covering	-11.6455
▁Fair	-11.6455
▁Ost	-11.6458
▁script	-11.6461
▁Macht	-11.6461
युक्त	-11.6462
айп	-11.6463
आर	-11.6467
▁adults	-11.6467
▁hein	-11.647
Í	-11.6471
▁Körper	-11.6471
▁Fehler	-11.6471
▁Holiday	-11.6471
▁Seguridad	-11.6471
▁admonition	-11.6471
▁throat	-11.6471
▁tâche	-11.6471
▁vergessen	-11.6471
▁деятельность	-11.6471
▁октября	-11.6471
▁сердце	-11.6471
▁मुख्य	-11.6471
▁सप्ताह	-11.6471
▁embarrass	-11.6471
▁"%1"	-11.6471
▁(00:00:	-11.6471
▁Summit	-11.6471
▁disturb	-11.6471
▁smooth	-11.6471
▁Quebec	-11.6471
▁तुझ	-11.6471
▁Settings	-11.6471
▁broadcast	-11.6472
▁Arzt	-11.6472
▁представить	-11.6472
▁Canadiens	-11.6472
▁figures	-11.6472
▁Frankreich	-11.6472
▁Qualität	-11.6472
▁сентября	-11.6472
▁verloren	-11.6472
▁Eddie	-11.6472
▁admir	-11.6473
gruppe	-11.6473
▁betray	-11.6473
▁июня	-11.6473
▁wrongdoers	-11.6473
▁Quoi	-11.6473
▁Nombre	-11.6474
▁Stock	-11.6474
wide	-11.6476
▁Ин	-11.6476
Part	-11.6478
▁Claire	-11.6478
▁Arabic	-11.6479
▁Sale	-11.6479
▁manufacture	-11.6482
▁banque	-11.6482
▁assigned	-11.6483
▁adjustment	-11.6484
убли	-11.6484
▁missions	-11.6485
▁Hmm	-11.6486
▁apartado	-11.6486
▁bois	-11.6486
▁quota	-11.6487
▁prize	-11.6488
▁poem	-11.6488
▁Records	-11.6489
▁остан	-11.6491
▁liar	-11.6491
▁важн	-11.6493
▁History	-11.6493
▁Chile	-11.6494
[...]
